#version: 0.2 - Trained by `huggingface/tokenizers`
Ġ Ġ
ĠĠ ĠĠ
ĠĠ Ġ
ĠĠĠĠ ĠĠĠ
s e
i n
ĠĠĠĠ ĠĠĠĠĠĠĠ
o r
) <
t e
se l
Ġ =
sel f
d e
r e
o n
s t
Ġ "
a t
: <
l e
> <
a l
, <
a s
Ġ self
Ġ t
a r
Ġ i
m e
a n
e r
ĠĠĠĠ ĠĠĠĠĠĠĠĠĠĠĠ
Ġ f
) :<
Ġ c
e n
r o
de f
t i
c h
m p
Ġ p
g e
l o
Ġ n
Ġ s
Ġ in
d i
se r
c e
i t
h e
Ġ b
Ġ o
u t
p e
Ġ def
Ġ re
ĠĠĠĠ ĠĠĠĠ
r a
Ġ Ċ
u r
c t
in g
Ġ 0
" ,
s i
Ġ m
Ġ (
Ġ e
ser t
_ _
c k
as sert
a d
" <
u n
a me
l i
c o
te st
Ġi f
u e
l a
Ġ w
or t
Ġ a
Ġ 1
f i
0 0
" ,<
( "
ti on
( <
te r
q u
o t
on e
i d
z e
Ġf or
Ġ -
t ur
tur n
r i
ge t
e l
an d
Ġt he
n t
y pe
t h
Ġ [
" )<
as s
m a
mp ort
u l
ar g
at a
( )<
s s
] <
n ame
Ġ '
Ġ d
N one
c l
se t
Ġre turn
) ,
Ġ #
u p
e s
o de
ĠĠĠĠ ĠĠĠĠĠĠĠĠĠĠĠĠĠĠĠ
a te
v al
p o
u m
at i
) ,<
Ġ test
qu al
Ġi s
Ġ" "
x t
Ġ st
o d
E qual
) )<
e d
at h
or m
in t
si ze
o p
r or
o x
Ġ L
ro m
Ġ +
Ġ T
c on
p ut
= "
assert Equal
. <
Ġ )<
. _
Ġt o
it h
re s
- -
arg s
Ġ C
i s
Ġ *
k e
ul t
Ġ di
Ġ None
t o
r an
ati on
i l
v er
le n
Ġ g
Ġ S
I N
Ġ 2
de r
Ġ _
i g
E R
Ġo f
me nt
e t
as k
l in
al l
c a
li st
or ch
mp le
E r
Ġ lo
r ue
Er ror
cl ass
o l
p ath
Ġ- >
t ype
d ata
v i
c tion
" :
f rom
b ox
[ "
i se
i le
fi le
Ġi mport
a p
Ġc on
Ġ A
te d
Ġe x
" ]
Ġ= =
Ġ as
Ġn ot
s p
Ġ {
te xt
ode l
Ġ" \
( )
e x
Ġ h
at ch
Ġ de
f e
ad d
Ġw ith
i mport
a b
Ġ and
m s
p ar
te n
Ġ D
Ġ x
a se
E T
A L
u le
Ġt orch
en d
o ut
y s
a ck
h t
v e
e st
Ġ F
st r
en t
A T
al se
f o
p ro
Ġ"" "<
at t
' :
b j
an n
f orm
p re
od ule
val ue
a mple
a ge
s h
di ct
k en
" "
co de
p t
Ġ __
la b
i m
ma ge
T ER
b u
Ġ 3
el s
Ġ"" "
] ,
ĠĠĠĠ ĠĠ
ra in
e ct
o ck
Ġt h
d s
R e
an ce
Ġe l
p er
lin e
s or
Ġc l
T rue
Ġel se
Ġd ata
Ġ r
Ġ I
di r
ĠĠĠĠĠĠĠĠ ĠĠĠĠĠĠĠĠ
e w
si on
i ze
in it
Ġo ut
Ġ or
o m
at u
) .
I T
Ġ me
. .
p tion
p y
a m
Ġ u
ap p
u b
y n
Ġ P
Ġo s
Ġ B
Ġn um
__ (
T est
or e
t a
m ask
Ġ %
f g
f f
Ġp ar
ET TER
ĠL ETTER
st ance
ke y
ch e
' ,
pe c
la y
0 1
Ġb e
o s
ĠĠĠĠĠĠĠĠ ĠĠĠĠĠĠĠĠĠĠĠĠĠĠĠ
r y
a der
o w
Ġ se
Ġre s
a ult
fi g
Ġt ype
F alse
z er
ig ht
E S
"" "<
Ġm a
n um
Ġn ame
Ġ >
ar get
a pe
Ġp re
R a
ise s
i p
O N
Ġf ile
u ment
Ġp ro
Ġ len
bj ect
ti me
ca le
l y
ran ge
I n
Ġst r
Ra ises
Ġ get
Ġ an
Ġ( <
s c
assert Raises
lay er
re ad
ab le
Ġdi ct
n n
Ġ( "
Ġ M
. __
app end
m b
Ġ 4
] ,<
Ġ args
Ġ y
-- --
m odel
t rain
r int
d ing
Ġ ra
] )<
i st
Ġ he
Ġc o
Ġ /
g n
) :
ar t
AT IN
lo ck
th od
ĠL ATIN
Ġ k
g s
Ġ N
c al
Ġ <
Ġm odel
[ :
Ġ :
Ġcl ass
o ur
( ):<
de x
w or
se s
Ġs h
ran s
Ġ W
* *
ct or
Ġin put
ten sor
j o
Ġ E
Ġ en
ar d
ma x
e xt
ch ann
g g
b box
ti l
to ken
o u
lo at
i te
R E
w e
C on
che ck
in d
Ġn p
q ue
ce s
Ġ @
e c
o c
po s
m o
ce ss
te s
arg ument
m odule
" )
Ġc h
in fo
Ġ un
Ġ ),<
er ror
Ġ O
d a
se d
A P
Ġres ult
Ġs up
Ġ v
at or
Ġ" <
Ġi m
Ġf rom
ĠĠĠĠĠĠĠĠ ĠĠ
c fg
I G
p ort
form at
ro up
Ġp rint
L E
1 2
att r
R A
Ġ[ ]<
Ġra ise
u re
o o
Ġ value
Ġw h
a re
t s
a c
Ġ set
D E
im g
Ġ l
un d
i r
Ġout put
i me
po int
i zer
Ġ assert
Ġt ry
2 5
ter s
Ġs ys
Ġ list
in put
Ġn n
Ġ[ <
ĠT rue
st ri
i c
chann els
fe at
Ġ range
in stance
Ġ 5
b ack
ri te
l it
p s
Ġ R
jo in
li b
t y
Ġb y
Ġp ass
our ce
il d
f a
un c
ce pt
sh ape
de n
vi ce
Ġb ox
AL L
O R
re ate
te mp
s yn
n orm
qu en
con fig
le r
Ġi mage
ra me
lo w
ar n
Ġo p
( ),
} <
it test
w ith
" :<
Ġin t
un ction
ĠS M
Ġlo ss
re g
Ġdef ault
Ġs ize
res ult
> >
ĠSM ALL
ma p
si gn
Ġim g
p i
Ġ on
i f
i mage
Ġp o
lo ad
we ight
lab els
g ra
co m
c y
Ġ U
ro ot
T ype
Ġ V
up le
atu res
Ġ H
in e
fo o
Ġth at
co l
lo ss
lab el
s ample
c all
Ġm ask
L o
and om
re p
I C
con v
Ġ G
c i
lo g
ra y
Ġt arget
Ġb u
( [
1 0
" .
3 2
cl s
fi x
ce ption
" ]<
c s
b er
w a
AP IT
ĠC APIT
ig n
ĠCAPIT AL
Ġto ken
ĠF alse
" ),<
Ġt ime
g th
a ve
Ġb box
A R
l p
b o
re d
Ġma x
v ent
Ġ `
la te
f or
Ġ* *
u s
w rite
al s
. """<
ar ray
ss age
b ase
u til
me thod
out put
st ate
d ate
li f
s on
Ġex cept
( ))<
Ġ key
m in
al ue
Ġf e
c or
g t
te m
le v
[: ,
] .
Ġ text
Ġa re
Ġpar ser
li ent
c lo
en er
" ),
data set
= [
S T
en sor
val id
in dex
sp a
ar y
Ġe lif
n e
t arget
li p
he ck
al le
S t
vi de
s cale
w ard
00 0
s ub
t orch
atu re
co mp
f loat
R O
ra ce
k w
he ad
rans form
t ri
st art
id th
i x
b atch
6 4
n et
e p
u mp
pec ted
= =
sp lit
r c
Ġ Re
IN G
Ġo bject
n o
c u
el d
.. .
wor k
re ss
ch or
un t
Ġ line
( (
Ġn ew
ow n
di m
id x
ĠĠĠĠĠĠĠĠ ĠĠĠĠĠĠĠĠĠĠĠĠĠĠĠĠĠĠĠ
j son
ke ys
ock et
Ġ+ =
str ing
r un
qu i
ti al
0 4
E N
ver sion
n ew
re nt
ĠT he
gg er
alue Error
arn ing
ul ti
T ensor
ation s
Ġg t
co ding
th er
} ,
as ses
on g
Ġp ath
b y
Ġ[ "
m at
la ce
id s
c ur
a k
00 00
I s
lo op
lo b
o bject
i on
and ler
Ġc heck
ES T
th on
ri de
Ġc ode
Ġ att
Ġi t
Ġ .
() .
a ms
C ase
a g
n d
l l
2 2
spa ce
IT H
Ġ la
Ġ1 0
lev el
ur l
n el
Ġ 8
o f
Ġis instance
U T
u me
ti m
Ġt rain
Ġ al
ĠW ITH
feat s
Ġc fg
Test Case
de d
Ġw e
r on
pro cess
g roup
er nel
t in
len gth
i ter
M odule
" ):<
in ter
Ġh as
I L
Ġm odule
E x
it s
il l
assert True
assert Is
Ġdata set
Ġ !
k ip
or y
1 1
Ġn orm
A S
E D
Ġhe lp
ro p
po ch
" ))<
ra p
z ip
Ġ all
---- ----
M O
co der
ta in
util s
" \
Ġ! =
ĠĠĠĠĠĠĠĠ ĠĠĠĠĠĠ
e f
b lock
Ġs p
Ġ |
1 6
C O
un ittest
Ġu se
Ġc ur
u st
mask s
ĠĠĠĠ Ġ
te nt
/ /
I ON
f unc
H T
vide o
D ata
lin es
p th
mb ed
que st
Ġth is
p u
a ch
u g
in al
0 3
im al
er s
Ġ ):<
Ġc ol
m and
Ġsup er
Ġ add
layer s
Ġb atch
kw args
o st
re e
Ġ" --
Ġstr ing
file name
cl asses
Ġ ro
ĠA r
ot h
Ġs ub
ati o
Type Error
vi ew
ar ch
yn c
def ault
v ar
re n
ction s
con text
clo se
) )
le d
Ġ> >>
N D
at ten
bbox es
9 9
ab c
o bj
Ġs ample
it y
op en
Ġn e
Ġst ride
token s
wa it
Ġ{ <
ĠI n
e val
Ġco mp
Ġcon fig
ma in
Ġop en
t p
Ġo ption
b s
Ġ tensor
F ile
alle l
( -
fe atures
b ar
Ġ{ }
si tion
ann ot
b le
Ġ" .
ser ver
P ar
ot al
re am
c reate
Ġo pt
Ġa c
5 0
s g
Ġd o
Ġm in
d oc
Ġi d
ex p
ms g
g ht
i as
Ġo ther
par se
s ys
res h
i eld
Ġex pected
s up
f rame
l d
Ġ error
Ġcl s
sc ri
ut h
Ġp os
Ġst ate
Ġme thod
lin k
] [
Ġ 6
Ġw or
Ġf unction
u ct
box es
Ġresult s
ran k
Ġc an
p p
3 4
p n
h is
= (
DE L
2 0
i v
m d
s um
c ation
c ate
ra te
pec i
A D
I S
co py
Ġst art
A M
> )<
c at
Ġsup port
Ġdi m
f re
5 6
ul l
N ame
up date
Ġ arg
Ġp y
point s
ar k
Ġ{ "
u se
s te
Ġlo g
ter n
o me
Ġ ]<
Ġg roup
Ġb ase
d b
' <
i ou
Ġc om
Ġs cale
: //
b e
Ġ 7
Ġ argument
I P
Ġc all
co unt
a st
Ġm sg
add ing
D e
m l
ĠI f
ro und
u te
ĠRe turn
u al
me n
tim izer
ul d
Ġp i
p l
p ack
N orm
w idth
p h
de vice
Ġs c
m ode
Ġu sed
MO DEL
a v
Ġcon v
d o
on y
F F
Ġb lock
all y
S e
pre d
ch ar
O U
Ġcon text
A C
re f
ĠT est
25 6
mb da
\ \
Ġ[ '
D i
m an
ame ters
quen cy
A N
r atio
lab le
f fe
la gs
r id
o k
op t
Ġnum ber
n p
cu da
ĠAr gs
le ment
an ge
er r
en code
s kip
gg ing
Ġ{ '
Ġde l
syn set
Ġ" -
o uld
t r
op tion
T EST
ri bu
Ġw ill
par ser
a a
a x
ro w
i z
Ġ1 2
fre quency
a y
syn ony
R es
atu s
L O
a ir
' ],
"] )<
rep lace
s ing
ĠC on
ff er
Ġn o
Ġ temp
synony ms
st d
' },
h as
2 4
L ist
Ġ j
e poch
Ġr un
I D
[ -
atten tion
l u
Ġ ...
lo cal
ite m
** **
N ot
ump y
Ġin dex
Ġf loat
Ġe val
e vent
pos als
i tial
ctor y
x y
Ġ" __
o ol
Ġm ode
I O
pe d
train ed
Ġun ittest
id den
pre fix
Ġsh ape
f t
Con v
U n
e mp
oo k
on se
Ġfor ward
i ch
Ġ end
ĠP y
K e
le an
IG HT
C T
gra d
( '
A B
3 3
B ase
Ġ label
ite ms
Ġre g
Ġin stance
T P
"] ,
par ams
0 2
> _
al ize
stri de
Ġf rame
= -
Ġ ad
ec imal
H e
P ro
Ġc reate
m atch
Ġm ock
o und
Ġf a
t op
se q
ĠV alueError
ĠE x
ind ow
I d
ol d
Ġk ernel
w o
] )
n er
me ssage
Ġfor mat
Ġwh ile
or ted
chor s
Ġcon tain
e mbed
O X
de code
rep r
m ock
ri ter
2 01
Ġt uple
Ġ le
Ġ labels
f unction
in ds
ti ve
ex ample
lo ader
par allel
result s
m on
I Z
T o
Ġfile name
Ġbu ild
ck le
sup port
Ġp er
; ":
t he
Ġ )
Ke y
ext ra
a mp
Ġc or
di ces
pe ct
li m
l ass
quen ce
_ (
t ransform
IG N
me an
stri bu
t le
t ask
pe line
Ġbox es
or es
Ġlo gger
ri ght
{ }
> @
u ser
th r
ĠReturn s
mo ve
Ġt ransform
Ġin ter
wor d
O T
assert False
U M
S E
c re
N et
m ark
re ak
b one
en ter
Ġr andom
m t
he ader
co co
type s
sc ore
s ocket
is ter
t race
Ġ at
Ġg lob
Ġch ar
ate d
). __
f ind
ener ator
Ġd oc
8 5
H E
l ing
b in
se g
cl u
V alueError
] :<
Ġ{ }<
p atch
de nt
Ġre ad
ma ke
Ġp l
Ġ zip
Ġ layer
tin ue
Ġe ach
"] ,<
p ing
Ġex p
ĠT his
ca che
f p
Ġcur rent
U L
ent ry
Ġlo ad
( *
ti c
Ġe vent
py thon
C K
Ġi ter
c lient
by tes
o ff
Ġb ack
Ġre p
Ġt race
Ġde vice
zer os
F N
f ter
n s
1 4
Ġc lient
ati ve
C o
ĠĠĠĠĠĠĠĠĠĠĠĠĠĠĠĠ ĠĠĠĠĠĠĠĠĠĠĠĠĠĠĠ
c v
t uple
M A
ON T
Ġsh ould
Q U
Ġ/ /
m od
Ġ one
po se
Ġfe at
m ory
sc ores
al o
peci fi
Test s
f c
Ġ X
Ġp adding
id get
Ġme ssage
si g
== ==
O L
vi ron
an g
Ġm atch
8 0
V E
name s
ir st
Ġ> =
are nt
an t
de l
res sion
Ġwh ich
l ation
un k
bu g
Ġ- -
ou s
ING S
l r
w in
re turn
I R
__ ()<
ver t
el ds
Ġs u
ch ed
In stance
Ġwe ight
Ġw idth
s ource
1 5
i es
RA W
qui res
b n
s pec
iz ation
Ġ1 6
ĠĠĠĠĠĠĠĠĠĠĠĠĠĠĠĠ ĠĠ
as ter
ex ec
er y
Ġe q
et a
Ġs ign
Data set
1 00
Ġ q
s u
( _
and le
s w
col or
Ġm ulti
Ġ val
Ġas ync
Ġla st
er t
U p
t ra
Ġd type
Ġst d
" ).
Ġwh en
Ġa wait
Ġe xt
Ġcon tinue
res p
ca b
Ġs ocket
po ut
iv en
Ġlo gging
M e
Ġ url
E n
Ġt op
at tern
l ong
H A
Ġ 9
Ġor ig
Ġf irst
ro pout
n ext
ri x
m y
Ġre sp
Ġn ext
ĠS IGN
) ),<
Ġen coding
sel ect
arning s
Ġs ource
) ))<
A t
st age
Ġex ample
r andom
IL L
Ġo bj
ign ore
t rans
C E
U S
co mple
ĠD RAW
ĠB OX
Ġpre d
ĠDRAW INGS
Re turn
Ġ json
ci o
fi r
n ot
w h
weight s
Ġ ann
den ti
P O
fa ctor
si de
re ctory
Ġ' <
fe ren
n ode
Ġa ction
s ave
x e
ti v
yn cio
men ted
T H
ke ep
ume rate
) ]<
se n
c ted
Ġ ver
h andler
Ġf unc
o cab
pro b
( ),<
ab s
Ġy ield
que e
ĠA ND
ag er
s with
t k
Ġde te
Ġse q
Ġ" _
Ġpre di
stribu ted
o ver
i o
f d
ut ure
p rint
per ty
com mand
de pth
Ġ video
ex ception
I M
g pu
Ġ version
zer o
U N
ut f
Ġby tes
od y
P y
Ġ ],<
Ġof f
ste p
u ff
ra ct
reg ister
ci i
target s
P E
on ly
` `
module s
en coding
temp late
le ct
la st
ran sp
"" "
to col
der r
ma il
t on
x x
Ġa pp
se nd
ĠT ype
F T
__ ,
t otal
. "<
x c
value s
ment ation
Ġen umerate
f lags
Ġ" %
) ):<
Ġo ver
__ (<
p en
Ġtoken s
Ġf oo
ER T
Ġm ust
le ss
Ġ \
comp ile
Ġimage s
x b
ra w
C H
he l
' s
x a
Lo ss
T O
f n
v is
w rap
EN T
oth er
d u
ro i
. \
bu ffer
) .<
i ss
0 5
ex ten
annot ations
off set
P N
Ġt f
e k
op y
quee ze
Ġt ask
Ġi tem
ef ault
scri pt
i code
Ġ err
add ress
par ameters
} ,<
Ġfe atures
Ġf in
Ġma ke
Ġ z
s y
g rid
lo c
He ad
) ),
C lass
po sition
Ġla mbda
k ernel
ro ss
as cii
s ock
I mage
le ft
1 9
se nt
c le
fir st
ro l
B LE
Ġ keys
ist s
ut ton
Ġ< =
ta g
ĠĠĠĠĠĠĠĠĠĠĠĠĠĠĠĠ ĠĠĠĠĠĠĠĠĠĠĠĠĠĠĠĠ
log its
me r
par am
s queeze
po st
s l
lin en
Ġn ode
Ġ` `
m ulti
st ack
he re
ati c
ĠL ist
Y R
Ġg iven
Ġ" /
di st
fi eld
g lob
Ġ server
TEST FN
Ġdi st
Ġwor k
Ġb reak
ine ar
D AT
Ġf p
Ġk w
fi l
OU BLE
t able
u tion
r and
y le
] ]
Ġv ar
S et
Ġh ave
Di ct
as si
Ġhe ader
ĠO ption
ransp ort
Ġu til
mple mented
ĠD OUBLE
Ġoff set
R ES
a u
St r
4 2
ge x
Ġvalue s
on t
fa il
Ġ" ,
Ġtrain ing
str uct
o se
d f
2 00
a i
fe ature
rc nn
Ġid x
pi peline
3 0
li cy
s rc
ch ild
M odel
Ġcode cs
se ed
gra m
Ġt otal
H andler
p ad
Ġn umpy
lean up
linen o
A r
ing le
po ol
a in
ILL IC
YR ILLIC
ched ule
Ġ ..
ĠC YRILLIC
Ġ3 2
' t
Ġn on
Ġs pecifi
in dices
clu de
i de
ca pe
vi sion
atch Norm
RE E
n ing
la g
O W
file s
re ct
o te
h ost
Ex ception
an es
Ġ level
di o
> """<
or g
Ġb ias
he ight
7 5
Ġme an
cur rent
Ġin it
ar m
alle d
cre ment
E X
Ġsp lit
Ġ root
ame ter
Ġbbox es
re lu
T he
Ġ qu
Ġon ly
Ġhas attr
ht tp
chann el
) [
S ample
ĠĠĠĠĠĠĠĠ Ġ
Ġne g
en viron
Ġn ms
r b
or ig
ĠD ecimal
pos al
n on
Ġi gn
Ġdi r
op timizer
ex pected
Ġm o
Ġan y
feren ce
s ses
z en
di stributed
stri p
t as
check point
7 8
tri bu
a ct
t rol
as ync
Ġcom mand
or der
Ġth read
instance s
itial ize
mat rix
Ġm ap
t d
ro zen
as ic
assert In
R andom
con tent
b ias
Ġpo sition
e ar
Ġhe ad
Ġc opy
Ġc md
group s
E L
0 6
Ġ valid
Ġtoken izer
B y
Ġc lo
Ġresp onse
A s
pro bs
Ġse g
has h
alo g
c an
Ġp ad
Ġpro posals
S S
Ġerror s
t ps
g round
st at
amp ling
Ġ &
g en
Ġlo op
Ġpo int
a ug
std out
d own
"] .
emp ty
Ġargument s
A G
po p
cal led
pack age
bo ol
th read
ĠU n
Ġ: ,
1 8
U P
ri pt
bu ild
ne ction
st op
f ull
Ġex c
d ump
li c
5 5
S er
st ore
an chors
B ox
t xt
w ise
Lo ad
ĠType Error
p air
Ġ Y
at form
ig h
if t
a ke
IN T
ex c
V ER
option s
Ġc al
S Error
Ġ keep
Ġo per
Ġget attr
bo se
g ument
pro perty
me ta
Ġs ave
con n
Ġh idden
Par ser
sample r
d d
Ġ }<
Ġ1 00
= ["
li ke
Ġp ack
Ġ up
con d
M ock
Ġglob al
Ġc t
le te
Ġch ann
fi elds
Ġg ra
Ġad j
n g
Ġf ol
Ġu ser
head s
Ġas sign
il tin
-------- --------
p k
N AM
sp am
< /
(" --
p le
Ġ lines
Ġex ec
Ġpre fix
mo id
resh ape
ĠOption al
Ġpre trained
te g
re move
Ġfile s
Ġatt ribu
] ):
U R
AT ION
are d
Ġ attr
Ġop timizer
ut able
Ġfe ature
if y
w w
C ode
Ġ attention
Ġde pth
Ġt mp
ĠPy thon
1 3
F I
= {
Ġ 64
Ġlo cal
Ġin to
tribu te
: :
t ry
] ["
L inear
assert Not
ap i
add r
.. /
i e
Ġt r
st ract
I mplemented
Ġpro cess
h idden
st atus
th resh
Ġan chor
f ore
r nn
Ġ4 2
x f
Ġi te
Ġg ener
Ġs um
Sample r
Ġcol or
Ġeval u
cor es
or d
la mbda
Ġoption al
w d
Ġa v
Ġd ate
de c
lo gger
Ġct x
Ġ Z
mp u
Ġst age
b ad
en ch
Ġpi ckle
test s
Ġlen gth
i able
ĠA n
HE AD
C N
ĠA C
que ue
Ġt y
Ġco unt
i ve
of t
: `
e qual
as h
ti tem
Ġex ception
dir s
sample s
Ġc v
IN F
o i
t wo
Ġn et
pro posals
error s
call back
assi fi
B atchNorm
Ġs ame
IG IT
C h
P RO
ten ce
input s
( {
Ġ" "<
exp and
(" -
IZ E
ol ution
Re gex
Ġs pec
ĠR es
8 85
Ġm ath
co un
c lip
di sp
**** ****
' )<
c pu
g u
nt ax
Ġf c
Ġas yncio
st atic
. ",<
ex ists
Ġdo es
Ġ K
ex it
9 6
p c
ĠD e
Ġa x
token izer
F rom
t rue
Ġw rite
Ġtransform s
Ġ entry
in sert
f low
__ <
work space
R un
Ġs cores
ĠS t
Ġpar ams
ĠN ot
Ġh t
885 9
P T
r it
x d
start swith
re quest
OR M
Ġs te
ne ss
z z
Ġname s
Ġen code
Ġf ound
ck et
c md
Ġm m
ol s
Ġma in
ĠD IGIT
bo ard
tri c
1 7
ĠD i
W arning
Ġme ta
Ġ{} ".
re quires
Ġn d
ser vice
de te
g enerator
en v
arm up
1 000
le ase
C ol
mp ty
ta il
f uture
n ms
ra ble
th ing
r t
Ġs rc
201 7
Ġs orted
Ġe poch
app ing
Ġhe ight
assertIs Instance
HT TP
UT E
(" \
o un
Con text
ran ch
2 3
size s
Ġfin ally
ss l
um my
"] [
ment s
str u
Ġign ore
st all
Ġa fter
Ġse quence
K E
Ġs sl
t ing
le ctions
Ġc a
ĠL E
lim it
by te
ph a
M L
Co mp
crement al
8 4
0000 0000
I A
par t
v ocab
pre di
b ody
Ġ ar
ver age
Ġal low
a uth
Ġtarget s
} )<
Ġm od
b ench
Ġf il
Ġoutput s
AR K
Ġb in
Ġma y
( "<
Ġde code
u res
ut o
res ource
i str
in ed
ĠA t
00 6
C L
4 4
n umpy
ĠR IGHT
7 7
di tion
Ġdi sp
tiv ation
quest ion
Ġi o
image s
ĠLE FT
D own
g on
Ġor der
Ġorig inal
Ġ array
en se
is o
Lo ader
" {
low er
Ġcheck point
E M
la p
Ġl r
Ġu sing
red u
Ġe lement
P ath
ser v
si ble
Ġrep r
b a
Ġf lip
ur ation
Ġst ream
Ġinput s
IN E
F A
fil ter
i mple
Ġ update
Ġst atus
ST R
t mp
ca y
12 34
Ġt rans
Ġc alled
ance l
Ġen v
cor d
c ore
Ġf inal
ch ange
Ġ te
Ġan chors
p ass
ĠD efault
H O
G et
Ġ2 0
Ġset Up
Ġext ra
p lo
un squeeze
comple te
Ġs ingle
ile d
ĠS e
REE K
for ward
ti tle
Ġb ut
Ġw arnings
Ġc rop
ct ron
Ġin fo
(" .
D ecimal
c c
N ode
__ )<
00 01
Ġoption s
Ġdi rectory
ĠI mage
time Error
l m
qui red
Ġst ack
() .__
Ġpro to
Ġs m
B IC
Ġs ock
ĠG REEK
S ub
To ken
: \
F C
se p
quen tial
m it
at ing
ad ata
Ġra w
conv s
Ġb ar
ction ary
norm al
A A
p arent
s pect
d ropout
u d
Ġm an
Ġpar se
Ġsc ript
chedule r
ĠNot Implemented
var s
f in
de bug
Ġ" ")<
class method
ro py
syn c
Ġw idget
ĠB ase
istr y
m k
ti es
del ta
Ġspecifi ed
d rop
un i
sw er
Ġre f
Res ult
9 2
] ))<
Ġb ot
Ġo ld
si x
(" /
ol der
ec ted
Ġfol low
) \
i ters
00 4
L e
Ġf lags
res net
Ġ' "
st derr
Ġchar ac
ĠC ONT
aa aa
ĠEx ception
con ds
ding s
frame s
di t
path s
ht tps
ON E
Ġtype s
scri ption
Ġsc ore
f l
x B
le m
sion s
12 3
Ġback bone
g ory
for mer
b ot
ul ar
T emp
r s
ca se
pre ds
S IZE
T ext
25 5
Ġby te
RO L
x C
Ġp atch
Ġcon tent
Ġlo ader
tri cs
T his
ed ge
iss ing
T h
j ect
Ġe mbed
wor ld
> ]<
Ġi ou
ge st
sign ature
L U
Ġa b
ĠS T
en ti
Ġre du
Ġa ct
1 01
ĠC O
RO I
train ing
IC AL
w indow
Ġ mpu
Ġi mple
Ġs y
Ġtest s
ĠCONT ROL
Ġp air
di s
) ",<
8 6
f pn
ĠO SError
g b
block s
Ġdi s
Ġ select
config ure
sign al
ai lable
Ġb ool
ati al
p orted
b it
man tic
tribute Error
Ġw rap
assertRaises Regex
H el
de red
In fo
m ath
x F
Ġt wo
di v
pre trained
Ġ2 56
bu f
St ream
ix ed
2 8
C leanup
len e
ĠĠĠĠĠĠĠĠĠĠĠĠĠĠĠĠ ĠĠĠĠĠĠ
ay er
li ght
Ġw here
model s
lev els
Ġt ar
Un less
F lip
se arch
comp ress
Y PE
x E
NAM E
' ,<
F orm
Ġf ield
pe at
and ard
qui re
ge titem
"] :<
time out
00 5
(" %
mo oth
static method
ĠM y
att ribu
Ġlog its
Ġkw args
> __
P i
me mory
Ġr pn
c enter
cle ar
By tes
arg v
pl anes
c rop
m ul
Ġp arent
t lene
tlene ck
C lient
p lace
sig moid
M S
t ar
in valid
Ġf i
num ber
an chor
IN TER
ac c
T RA
Ġh andler
Con fig
back bone
00 7
B lock
Ġh andle
Ġreturn s
ĠM ARK
w s
Ġde st
S O
x ml
it le
DAT A
x D
Ġc lip
RA BIC
P AC
Ġdi ffe
pi ckle
ĠAC UTE
ĠA RABIC
S h
Ġs kip
teg er
Se quential
x ff
skip Unless
B u
Ġme mory
Ġsub process
u id
la ted
ti tion
Ġa ug
ES IS
mo st
3 5
Ġw as
Ġs ig
ĠD ata
ĠI t
Ġi ts
O ption
Ġ[ ("
Ġ_ ,
Ġbe am
Ġch ange
Ġ" {
Ġc ase
pl atform
] ):<
a ded
a il
Ġ12 8
lu sh
end ing
Ġty ping
I ds
] ),<
m m
bench mark
pre sent
Ġste p
st ream
Ġy ou
net work
ERT ICAL
ĠDi ct
f lag
t ree
Ġ layers
de cay
Ġbox list
R o
b l
f fix
Ġobject s
g ate
Ġ lib
sing le
Ġcol lections
> )
u int
Ġ Key
ra ction
ĠV ERTICAL
] ),
i mp
peci al
Ġutil s
im um
n own
Ġd t
fa ce
stage s
0 7
ĠB ox
Ġcall back
re al
he ther
um ber
==== ====
( ?
> ):<
f er
Ġ1 1
Ġ1 5
a fter
c n
con st
ber t
ĠP O
k er
se ek
Ġth an
d one
p attern
con vert
Ġst yle
"] ),<
Ġmask s
UL T
KE Y
Ġc ap
Ġs ome
to ols
8 1
P re
Ġc at
\ <
Ġe mpty
e lement
Form at
h ook
Ġpar am
transform s
redu ce
Ġro i
( ["
D IR
p adding
Ġre quest
mport Error
con trol
ĠF or
reg ion
Ġsign al
re en
he lp
M ask
9 5
Ġ" ",
fe ct
c cess
d at
resp onse
9 0
C ON
r ary
re ader
li ce
Pro cess
Ġ J
jo int
11 11
Ġne ed
L ayer
s o
ad j
ĠCon v
de v
stride s
Ġclo se
po w
ar Down
add Cleanup
OR IZ
MA X
OW N
E V
un til
Ġd own
hel lo
Ġt itle
Ġch ild
t adata
dir name
ĠR un
dec imal
o U
Ġlo sses
Ġarg parse
gra ph
Ġax is
a fe
Ġf ull
E val
Ġth en
Ġ rank
Ġn s
Ġreturn ed
f ul
Ġm aster
Ġw a
Ġde t
Ġbe fore
call s
V ar
us ter
Ġf ind
99 99
Ser ver
pro posal
sh ort
ĠP ar
me di
... ,
Ġite ms
" >
c p
de t
Ġde bug
Ġnorm al
ONT AL
ORIZ ONTAL
) ",
= '
ize d
able d
sh ow
bu iltin
Re ader
wa y
w arnings
Ġre t
Ġpack age
Ġt ra
( __
c ent
ter min
ht ml
dict or
glob al
pk g
a ction
2 6
Ġcon n
Ġt k
Ġcl asses
ĠH ORIZONTAL
Ġdate time
ur tle
con tain
n b
Ġ QU
f lip
Ġg en
x A
Ġre quires
one s
man ager
sy m
I f
h er
l at
v l
Ġm at
3 6
B U
ati os
ĠT uple
f inal
eval u
9 4
w arn
de coder
de lete
Ġa u
p are
Ġ" ../
Ġdi ctionary
Ġ""" \<
Con tent
co s
ne g
process ing
I X
e ction
Ġt ri
el l
ath er
Ġl ong
se ction
ING LE
resp on
CO L
FI LE
n an
Ġin dices
un ct
Ġco co
state s
ust om
CN N
Ġc enter
sh ift
exten d
f older
Ġm y
F or
f y
s q
Ġt rue
ĠL o
Ġtemp late
Ġattribu te
Ġpar ameters
read y
Ġpl t
Ġ sel
re l
function al
ti gu
Ġd f
Ġh ost
Ġfa il
tigu ous
P L
ra ise
Ġw armup
ĠT o
oft max
: ]<
S ION
Ġi p
il der
me tas
Re LU
2 1
Ġ IN
Re size
Ġstr uct
Ġbu f
als o
Ġco mple
00 1
â Ģ
as sign
read line
tail s
Ġx ml
F L
qu ery
Me ssage
w riter
ch unk
Ġw indow
"] ["
ct x
Ġm ore
) "<
h andle
il ity
me m
Ġb et
In valid
Ġtime out
Ġdete ctron
. ")<
b b
e q
E lement
w idget
le ep
ĠC h
to m
sen tence
S C
Lo gger
Ġ10 24
SS L
__ ",
Ġcontain s
Ġstd out
: .
L ong
P o
E nt
M ulti
Ġ arch
ol y
0 8
Ġb eta
Ġpo ol
] ]<
um n
ĠĠĠĠĠĠĠĠĠĠĠĠĠĠĠĠ ĠĠĠĠĠĠĠĠĠĠĠĠĠĠĠĠĠĠĠ
Code c
W ith
56 78
pi pe
ast ype
Ġgroup s
si tive
line ar
ĠAn y
7 6
C TER
d t
Ġp attern
__ .
C UM
P UT
s ure
or age
RA CTER
HA RACTER
load s
PAC E
I ter
r dered
or ds
we en
extra ctor
h i
alize d
Ġf n
ĠNotImplemented Error
Ġ },<
Ġa p
Ġex ten
Ġ also
W riter
ĠĠĠĠĠĠĠĠ ĠĠĠĠĠ
uff le
[ ...,
al lable
AB LE
P C
W OR
} ")<
Ġa uth
Ġpi peline
header s
Ġ Q
ĠS INGLE
Ġt ransport
di ms
OR T
Ġre present
00 8
2 9
f fi
or ed
Ġs ampling
=[ <
Str ing
O bject
te x
Ġpar t
exec utable
v ed
Ġf rozen
ĠL IGHT
plo t
V er
Ġfor m
Ġst derr
ĠH T
b ranch
y y
ĠF ile
) ")<
D oc
ut or
Ġpro tocol
m aster
st yle
i cal
ut put
con tiguous
ap ter
per m
py torch
g ress
Ġst at
Ġcon vert
assertIs None
be am
B N
in f
g le
annot ation
rdered Dict
; <
E P
N S
s ort
ay load
2 7
g ener
b ind
con f
cate d
> \
c r
ĠC HARACTER
att ack
Ġr c
Ġcontain ing
ET S
ĠU P
output s
Ġsample r
IM E
F PN
g or
op tim
ĠAr gument
av g
3 1
cl one
ate s
ca st
() [
h en
Ġ[ ])<
l on
ĠT EST
ap er
ĠI mportError
stri ct
po licy
ment um
AS E
trans pose
Ġ right
di ent
Ġdiffe rent
B O
s ome
ver se
Ġg round
pre cation
av ed
Ġurl lib
hel per
on ent
sub process
p us
LE X
dataset s
Ġthread ing
4 0
Ġ ).
Ġp ort
ES S
are a
idx s
s v
Ġac tivation
e ps
ER ESIS
() ),
ĠD IA
ĠP ro
Ġro is
dump s
ĠDIA ERESIS
Ġ1 000
ri es
Ġr atio
Ġver bose
c ancel
se pose
ith er
Ġwor ld
4 5
n ow
s cheduler
Ġsh ow
f mt
- +
tern al
Ġinstance s
N o
O UT
ĠP ath
Ġse n
Ġch unk
Ġ.. .<
Ġgra d
N UM
t ransport
change d
ker as
wor ds
IC E
clo sed
event s
T ime
v el
in ner
Ġs o
Ġin itial
Ġadd ress
Ġpro vide
Ġi denti
I oU
d type
d ar
Ġre l
} "<
Ġbu ffer
Bytes IO
Ġex ist
Ġchann els
9 8
Ġ ),
Ġp as
pro tocol
b ig
d m
>< /
Ġt ag
he d
la in
ver y
our ces
Ġcor respon
` .<
w b
de st
Ġ[ ],
ĠD ist
Ġpre v
Ġmodel s
Ġv is
vis or
F LEX
P AT
h and
re set
da y
IR CUM
IRCUM FLEX
P IP
ex cept
com mon
Ġca che
Ġre quired
im gs
Norm alize
precation Warning
p ri
Ġa st
C all
op s
app ly
G E
s leep
de ep
pe ed
Ġdef ined
ar ge
lo cale
si ve
Ġpo licy
Ġle ft
> ",
di date
He ader
Ġpredi ctions
m ary
w arning
ĠC IRCUMFLEX
out ine
ub le
S u
or s
end s
check equal
Ġf d
33 3
b g
Ġ li
lo cation
Ġ" *
att n
LO CK
Ġchann el
di ff
Ġframe s
r pn
po ly
Ġt able
Ġ[ (
M an
t z
re cv
Ġcomp ile
tr uth
or k
pro to
un icode
fi er
form ation
OU R
Ġvar iable
E CT
t f
} ".
Ġ lineno
as yncio
en coder
Ġv ocab
n ume
r ng
ta ch
child ren
Ġc m
ĠRun timeError
r gb
il y
map ping
Ar gument
Ġbet ween
ĠĠĠĠĠĠĠĠ ĠĠĠĠ
Ġe mail
Ġg rid
Ġ3 0
ĠB ert
jo b
ver bose
oi ce
Ġd one
ĠT ensor
Ġal ign
do main
alo ader
stru ctor
M ax
Ġ vi
si d
00 3
>> >>
Ġro w
ĠPO INTER
A l
Ġ: ]<
Ġmask rcnn
ww w
A n
u sed
AT OR
/ ",<
O K
mp t
atch er
mb er
ool s
R CNN
T rain
EX T
PRO TO
Ġmm cv
L S
i b
As sign
in s
Ġdi lation
12 8
AS K
Ġb est
Ġd b
len o
[: -
ĠC o
ff ff
AP I
predi ctions
8 8
D efault
a uto
Ġ zero
ent ries
N O
r up
Ġi mp
In ter
( ("
string s
Ġheader s
Ġ[ -
Ġtemp file
P ose
w n
in dent
Ġm apping
Ġnet work
work ers
lo sses
) "
O C
P Y
u age
Ġ5 12
ang uage
fl atten
Ġ RE
Ġ[ [
ord in
A F
A d
l vl
y ntax
he ll
Ġa bs
end swith
Ġte arDown
P ER
di lation
es cape
Ġu s
spa ces
Ġhas h
b asic
Ġb ody
Ġqu ery
i denti
se quence
Ġme m
std in
f lo
Ġg ot
Ġpro posal
ak ref
) ]
6 5
a ter
s m
fi ll
In cremental
AS S
Par allel
ri c
fa ke
example s
Ent ropy
n one
la mp
pos it
disp lay
c ro
i tion
Ġ" (
con nection
4 8
F oo
L Y
Ġc ate
Ġd st
par tition
Ġstring s
ross Entropy
ide o
coun ts
Ġthe re
Ġmethod s
set up
ab stract
ste ad
En coder
s ame
ĠS U
Ġid le
5 12
key points
T rans
m is
Ġinter pre
UL L
assertNot Equal
9 3
si mple
Ġrep lace
Ġweight s
At t
assifi cation
ense Pose
C om
v en
re size
fi ed
fi den
per i
pi ck
Ġal pha
De coder
conn ect
Ġredu ction
te red
Ġst ri
Ġse arch
Ġdoc ument
> ")<
B B
Ġi ds
ste ps
2 34
la ps
ĠP er
scale s
se conds
Ġ1 3
iou s
pair s
[ <
an ti
th is
ĠĠĠĠĠĠĠĠĠĠĠĠĠĠĠĠ ĠĠĠĠĠĠĠĠĠĠ
Ġname d
di re
run ning
AB C
TRA IN
V alue
m ar
Ġht tp
O ver
Ġ" [
Ġex it
ct ype
ĠS h
FA ULT
ar se
an s
Ġpro b
embed dings
Man ager
am ma
M ix
U ser
p id
q dm
Ġin spect
get value
Ġco un
ci sion
Ġcal lable
Ġ( (
trace back
c m
Ġin clude
es c
FF FF
Ġfi elds
P ool
Ġwork space
) ).
h y
ro t
it ch
Ġg c
Ġset up
Ġsp atial
S OL
Ġ1 4
unct ools
c er
Ġin teger
Ġfollow ing
Ġ" )<
is h
F loat
in itialize
fa st
Ġpo st
Ġcharac ter
A RE
par ts
AT E
ir d
ic s
fa ctory
b reak
c li
p an
ur ing
nd array
UT F
CO M
PO INT
ĠKey Error
a ce
e g
l s
me tric
di rectory
D is
s lo
Ġ question
Ġsample s
CK ET
Ġpas sed
E vent
ch at
ĠG RA
F rame
i ck
add le
inter val
9 7
G enerator
b utton
Ġdi men
Ġpoint s
P U
Ġin formation
pro j
Ġpar ts
1 333
2 000
in stall
le g
Ġlo ck
ĠO F
Ġdisp lay
rossEntropy Loss
A dd
Ġ ET
me trics
un link
au dio
sym link
oly gon
re peat
Ġb ad
Ġd ropout
ba z
d st
ĠD OWN
ic ro
thresh old
Long Tensor
: ",
t b
__ ()
Ġoper ator
/ "<
> "
u ter
w er
de tach
Ġres ource
Py thon
S cale
Ġpl anes
stat s
S G
di visor
ca pi
AC K
ok ie
ĠAt tributeError
T uple
> ...
le s
Ġf ut
ge d
Ġe lem
Ġ2 55
Ġd rop
Ġstride s
ĠGRA VE
Ġt ree
si s
es ted
I nt
al f
pt s
In dex
Ġac c
r atios
in clude
model ing
Ġmodule s
F unction
c b
__ .__
ER R
tra ck
PROTO COL
G ET
00 2
Ġde n
Ġse cond
Ġiter ation
Ġpredi ction
P ad
y ear
Ġin v
di g
Image From
D ist
an y
pre c
Ġdist utils
ĠArgument s
C reate
CO S
Ġsu ite
assifi er
B C
as on
Ġun i
p age
an swer
b r
f lush
s ampling
cate gory
Ġtk inter
ImageFrom File
= _
in es
Ġf ix
Con f
R L
__ ":<
DE F
date time
Ġadd r
OT ATION
su ite
Ġav ailable
6 6
Ġ ass
Ġd at
box list
reg ression
sign atures
Ġare a
22 22
posit ory
I VE
se mantic
Ġt qdm
Ġe ither
li cation
Ġ< <
ure d
Ġin stead
ĠM ock
sub Test
] ).
s afe
w ar
sid ual
B utton
n c
Ġ" #
Ġf mt
Ġin dent
reg istry
skip If
st ds
Ġt urtle
fi leno
Ġst op
Re g
Random Flip
M IN
R PN
i al
Ġin itialize
par tial
ĠM e
Ġsup ported
iter ator
col lect
default s
Ġfunction s
IS O
yntax Error
C C
T YPE
b la
d ummy
Ġre move
to list
pre v
, ))<
A nn
B Box
Ġf lag
Ġre cord
doc ument
seg m
medi ate
c wd
10 24
C heck
p lain
Ġe qual
data class
Ġpar ameter
201 4
Ġpredi cted
Col lect
I AL
re st
Ġt p
Ġb oun
ver ter
Load ImageFromFile
_ ,
Ġ" +
op er
Ġsh util
ĠU ser
iv ed
P ORT
al pha
fo und
Ġ". /
stribu tion
Ġattribu tes
PAT H
C rossEntropyLoss
Ġw riter
Ġbe en
Ġ: :
has attr
top k
orig inal
mk dir
Ġimple mentation
ĠHT TP
deep copy
code cs
Ġkey word
Ġexample s
ĠRes Net
I F
l st
Ġse nt
ar ange
(" _
Ġst andard
ĠN ote
xy z
si lon
po six
Ġmulti ple
comple x
: ]
al low
Ġin st
Ġ2 8
Ġpro gress
ĠQU OTATION
st amp
an sion
wa ys
ca ption
Ġ{ },
k v
Ġt z
er o
Ġun ion
ĠH E
Ġevent s
Ġgener ate
Ġact ual
D A
L I
f ont
Ġb l
Ġim gs
Temp late
ork space
Assign er
5 3
} ",
co ords
Ġw hether
ĠU N
04 8
Ġau dio
de scription
sh ared
epoch s
wrap per
Ġmo di
E xt
M E
a f
test capi
Ġwith out
rand int
Mix in
si m
Ġnd array
s pecifi
token ize
cu st
ĠEx ample
Ġtrace back
d ot
com ment
o id
r in
or ary
vi ous
oo lean
bin ary
b est
me d
he x
Ġimport lib
indow s
Ġfil ter
attribu te
Ver sion
: %
m issing
v as
al id
Ġw rit
ĠB y
ef fect
Argument Parser
re lease
ub class
Ġun der
back ward
char s
Ġdel ta
F e
o od
ten ces
ĠD ensePose
ces ses
cs v
cust om
() ))<
ĠF oo
Re quest
lic it
Ġbyte array
5 8
O F
a z
Ġ" :
' \
S IG
ĠW e
Pi pe
f raction
get attr
ĠE n
arn s
Ġencode d
auth or
fiden ce
O utput
Ġ annotations
max size
Ġdataset s
9 1
p ayload
in ition
ro y
Str uct
re t
it ys
Ġ1 7
Res Net
itys cape
ol ute
Ġraise d
Ġsign ature
6 0
M eta
c ert
un ch
Ġ* ,
bo und
Ġt b
c d
ra g
attr s
Ġ5 7
Par se
mean s
******** ********
Y P
in st
name d
Ġan swer
Ġ8 00
P er
T LS
an k
ĠF ORM
Ġme tric
Ġbu il
EN D
ag ic
3 7
O per
u ted
lo gging
par ameter
cal lable
coun ter
H I
ra ises
qu ote
AR T
Th read
) (
3 8
R ET
in itial
Ġc annot
ma ch
po lation
ite space
Ġfeat map
u sion
pro x
RE G
Ġevalu ation
Ġsel ected
b stract
Ġp ri
Ġchar set
X X
m id
get Logger
DAT AS
f s
or ter
Ġre al
Ġre mo
yn am
Ġsh ort
ef ore
g ts
re ater
Lo g
Ġreg ion
uni form
s pecial
Ġsys tem
sys tem
A sync
li ed
ĠT O
ĠO rderedDict
ac quire
cu ra
Ġallow ed
f ut
or al
ar ies
Ġ2 4
ca p
Re ad
am ily
) ],<
c tive
c lamp
co pe
extra ct
d om
Ġ link
de tails
Ġp addle
Ġm ark
Ġ[ ],<
ces sed
M ap
W arns
Ġper form
Me thod
sq rt
f rozen
s che
s oftmax
Ġcontain er
host name
dat aloader
" [
_ /
z one
Ġ ve
re cur
Ġin valid
ce ived
Ġth resh
) ])<
ser tion
th ree
ten ded
Ġse ction
Ġpy torch
Ġbin ary
Ġmat rix
v oc
re q
ue ue
int o
par ator
Ġboun ding
= %
Ġde c
iter ation
Ġdoc test
aaaa aaaa
Iter ation
agic Mock
S ign
Ġs ide
Ġmo mentum
INF O
Ġfil ters
PIP E
) """<
B ASE
Ġ" '
Ġ- =
50 9
doc test
ax is
row ser
D B
G ener
j p
log it
Ġcor o
slo ts
Ġb oth
cl uster
Res ource
{} ".
Ġmemory view
" '
w rit
race back
cate n
Ġmeta var
M ASK
W rap
ro is
cu late
Ġwor d
u tes
Ġf ill
Ġre set
ĠT h
Ġco ordin
ĠN ame
Ġblock s
assertNot In
F ORM
Ġc types
Ġra te
clo ud
the class
fe ed
zz zz
dete ction
ter al
quen ces
un ding
ĠT H
DE FAULT
if ts
ĠCO CO
ĠC om
Ġlo c
Ġde scription
Ġrun ning
Ġiter tools
su ffix
fail ure
attribu tes
N T
] :
Ġsp am
Ġapp ly
lat in
ERR OR
ï ¼
assert Warns
po inter
RE D
ter m
int s
ĠB RA
Se quence
Key board
Ser vice
Ġattr s
Ġcorrespon ding
S mooth
V AL
Ġp ix
Ġbu iltin
rap h
Ġcol umn
A X
Ġre port
Ġex pect
out s
pi x
Ġ8 0
: -
o ted
ce ll
-- -+
Ġ* <
Ġcon st
Ġh igh
ĠUn icode
ĠSt ream
Ġcharac ters
Ġwrap per
Ġdimen sion
ityscape s
B ad
i of
op tic
Ġ5 0
Col or
ch oice
up per
Ġcon f
ne ed
poly gon
g re
Ġc ustom
flow Error
> """
[ [
e dit
j ump
al ign
Ġ1 8
perm ute
Ġcate gory
cura cy
5 00
O p
m ix
Ġn args
Ġre q
ĠN umber
Ġmatch ed
f old
on ce
ar row
Ġtest ing
ver ted
ĠD E
Ġname space
back ground
Token izer
O S
Ġzip file
ĠBRA CKET
an ts
ot tleneck
ab el
cor outine
Ġal ready
exten sion
FL AG
) }
ver ify
Ġlo cale
mb ol
Ġen viron
encode d
ĠData set
" }<
. *
4 7
N G
Ġme trics
Ġsu ffix
Ext ra
, )<
O n
W R
Z ip
Ġin di
Ġg enerator
ĠA P
sh a
reg ular
Ġlog probs
Struct ure
A ug
E num
b i
g pus
Ġa verage
Ġme r
Ġme tadata
In put
pn g
IoU Assigner
Ġse nd
Ġpo sitive
exp r
AG E
abstract method
S imple
V IS
k g
al k
Ġn ow
si te
Ġw in
um ul
Ġatt n
Ġexp ression
ang le
dition al
N OT
Ġt gt
en g
time s
ac tive
( \
Ġh and
ten tion
sw ers
rel ative
C R
X ML
me tadata
ĠC allable
file obj
tensor s
ak es
Ġnorm alize
abc def
Ġfa iled
TO P
Ġ"../ _
S PACE
Ġ" |
Ġin ner
op ts
bu cket
for k
Ġcomp ute
Ġassign er
5678 9
" },<
C ENT
d le
g at
ro ken
Ġan s
base name
valid ate
object s
ug h
arch ive
Ġtensor s
Ġcom mon
char set
Ġcor rect
sen tences
over laps
S ize
U RE
c f
c ross
f cs
u ally
Ġe ps
ma g
ent ropy
Ġcode c
var i
oi ces
Sub class
> "<
s cape
se cond
IN PUT
all back
pro xy
Ġsub class
Ġsm all
le t
Ġpar allel
Ġsize of
Ġfa ctor
del tas
e lem
ti p
Ġthe y
Ġ2 3
pre cated
Ġpro gram
ĠW hen
5 4
L R
b efore
ĠE ND
Ġglob als
a gn
d ge
n f
p r
00 9
set Up
() )
Ġwe akref
embed ding
Ġ\ <
can didate
e ce
Ġtr uth
C lo
c ut
o b
IN ED
Ġse ed
Ġsh ift
TH ON
D esc
F E
li gn
Ġdi re
ffe red
orig in
Ġsm tp
u ation
} /
li te
(" __
Ġ- --------
"] )
At tributeError
Ch ild
Oper ation
Wrap per
h ist
po o
ĠIn put
Ġcreate d
C l
i ted
te ll
Ġb ranch
Ġpo six
assertIs Not
Ġbase d
Ġpl atform
Run timeError
8 7
b c
pro c
pre dictor
ci es
CL ASS
Ġelement s
C RE
h a
Ġ* =
Ġ"\ \
py test
riter ion
. ,
7 2
A nd
f ds
in ation
is dir
line Keyboard
Par am
av ing
Ġite rable
ĠPar ameters
: ])<
e ded
st ar
di alog
ri er
el se
ĠP o
RE AD
Ġscale s
Instance s
nume l
" }
c leanup
Max IoUAssigner
ynam ic
Smooth L
L L
` ,
Ġre ference
12 7
den sepose
pu sh
Ġip address
Ġauth or
Ġus age
( **
S pec
b eta
de compress
re cord
Ex ample
char map
Ġ limit
Ġf uture
pre dict
comp are
Ġneed s
Ġwa it
E E
G G
ch ron
is file
log probs
Ġne ck
Ġdo main
De precationWarning
ook ie
US ER
! !
, ),
S ocket
d uct
Ġi ss
Ġe p
ot ations
01 234
IL DE
Ġpy thon
WOR K
C at
O SError
S M
] (
b order
ur i
Ġcon nection
ab ility
av ailable
ok up
abs path
pk l
Ġevalu ate
Ġht tps
flo or
b lob
in el
Ġre cent
ca use
Ġop tim
Ġmask ed
cur ses
S p
` <
l t
Ġ( '
ĠT ILDE
-- <
Ġma il
Ġpath s
HO ST
most Equal
M ET
S ER
r pc
ĠS tr
RO UP
Ġnode s
SO CK
Al mostEqual
Ġ joint
ĠS et
ĠA s
Ġse conds
ĠM agicMock
Ġro t
`` .<
Ġcoun ter
M y
m icro
Ġ Error
Ġ queue
or i
ĠCon fig
Ġsen tence
7 0
R I
Ġin stall
Ġ4 0
CT ION
compile r
h igh
v a
ro ugh
name space
vi sible
ak y
B RE
le ctor
Ġo c
ati st
Ġto k
AL F
ĠP IL
LE D
' ))<
Ġ like
is hed
stance s
sub class
Ġac cess
loc ations
gener ate
F in
I I
f name
in place
Ġf ont
res olution
ĠB ad
") ),
Ġ{} )<
Di vision
En code
RES S
alid ation
D O
z y
Ġ" ",<
id le
Re pository
Ġsize s
sertion Error
p db
Ġ ]
sp an
oo gle
ost ic
Ġstate ment
To Tensor
Ġrc nn
A U
se m
st mt
bu ilder
Ġset attr
De te
ribu ted
task s
handler s
: ")<
Ġ â
Ġp olygon
ĠA d
22 4
Module List
Ġad ded
thread s
ĠST R
gat ron
Ġ entries
la tes
ach ed
ĠIn dex
VER SION
V ideo
} .
Ġ ONE
Ġre cur
(" {
Ġdi ff
Ġlo aded
Ġ| \
feren ces
Ġpair s
' )
g i
ma ps
Ġh ow
ĠD EV
Ġtext wrap
ear ly
Ġav g
A ND
M AP
u ch
Ġs w
Ġbu cket
Ġreg ister
agn ostic
ro ad
Ġdi stributed
Ġh ook
AT ED
ĠI D
info s
do uble
Ġexp and
S U
p d
Ġ annotation
Ġm on
res ume
Ġ2 00
() ):<
ĠH e
Ġcom ment
Ġgener ated
BU G
Ann otations
A pp
S ource
in v
Ġc re
tion s
ĠS ig
list dir
Ġres net
Ġdefault s
AR ATOR
Ġother wise
? =
B ert
S ET
d uration
v es
st orage
vi ces
call y
Random Sampler
Ġinterpre ters
T ransform
in ject
Ġp d
Ġb ound
ĠI P
Ġse e
= ("
D o
b oth
d r
g a
q a
s d
Ġc ell
Ġ"" .
ĠL e
ĠS EP
00000000 00000000
const ant
contain er
Ġprovide d
8 2
_ {
m g
m al
u c
in p
li cate
sp atial
Ġrel ative
ĠCo mp
ri ption
sup er
exten sions
Ġmm det
U E
w are
w here
se en
Ġ" {}
Ġre ader
Ġhe re
ci ent
LO C
uff fe
script or
ĠSEP ARATOR
" ")<
C P
g h
ver s
ub lic
Ġsh uffle
gra ms
sup ported
OU ND
ĠSe e
OUR CE
Ġse p
---------------- ----------------
ccess ful
b os
e led
k nown
p ending
u lated
ut down
key word
unk nown
1111 1111
0 9
S ingle
y cle
re mo
Ġg amma
Ra w
ĠE ach
Ġtoken ize
3 00
O P
g in
Ġc b
Ġb r
ĠT ext
res sed
il ar
pre pare
ite rable
Float Tensor
X Y
n ull
mo di
lib rary
St atus
be ams
uni que
Hel lo
Extra ctor
C ERT
F UN
c id
in planes
() :
ĠF ast
Ġres cale
Ġcontent s
6 7
B OX
D P
P open
f ree
u late
Ġ view
in ery
or iz
ON LY
Ġdefault dict
Par ameter
ĠDEV ICE
' '
M apping
Ġf name
Ġd uring
po ll
sor ted
Ġun icode
cor o
Ġpi pe
over ride
Ġoper ation
Ġimple ment
gor ies
i fe
CT YPE
struct ures
ĠCO M
- >
D et
o ot
et ch
Ġget args
ĠN S
make dirs
peri ment
Ġ ser
Ġm issing
Ġex ists
() ")<
ĠD AT
us age
CO CO
Ġwor ds
d l
l arge
Ġf unctools
di gest
un changed
ri ver
ex ist
Ġgra dient
Ġstat s
oper ator
b all
s he
u uid
Ġ( -
Ġ1 9
argument s
Ex ec
Return s
Ġneg ative
({ "
N E
V i
ch ain
di us
si b
RE AM
") ]<
Ġconv olution
Ġdoes n
Ġredu ce
] ",
_ "
g ather
u sh
} ",<
norm alize
Ġtime delta
mer ge
MS G
A UT
W orkspace
g y
en c
Ġs ort
Ġs lice
Ġin ds
si st
for ce
AM E
De fect
IA lign
M ode
] +
c ar
al ization
Ġf l
Ġs im
Ġset ting
Ġsu ch
stru ction
4 1
D S
Ġ( )<
Ġcall s
tr unc
Ġnon local
ĠUn ion
3 9
J o
a wait
f r
h ot
s ur
"] ))<
ann el
Ex it
ĠCon tent
Ġle arning
Ġbuil t
= ",
Q u
V OC
p layer
r ong
s chedule
Ġtime s
AS C
Ġwork ers
fil ters
C ore
G reater
in ference
Ġs imple
Ġdi g
Ġ2 048
ĠB u
Ġpre ds
Ġy our
St art
ffe cted
Stream Reader
dest roy
F COS
b ook
t c
x iv
Ġthe se
Ġsup p
node s
Ġspec ify
Ġman y
Ġbot tom
Ġstri ct
Q ueue
R ON
W S
b ed
Ġb utton
sh uffle
ĠB LOCK
") [
") ),<
und le
late nt
cor ding
kw ds
ĠEx tended
xx x
disp atch
Ro I
ĠTo ken
N umber
e of
g c
ar xiv
Ġp oo
ing s
ca sed
ĠF e
ĠN orm
Ġl m
Ġj ust
Ġ... ,
local s
pen den
Ġman ager
bot tom
her it
e mail
v ol
Ġt akes
def ined
ĠL INE
Ġde coder
ĠM odule
Ġatt ack
Ġro und
Ġseg mentation
HEAD S
enti ty
ĠBox List
' ]
8 9
E mbed
v t
se c
Ġp kg
Ġre size
Ġh y
block ing
men u
C CE
h ing
t v
ĠT ime
Ġor d
sign ed
Ġnew line
Data Parallel
IP v
oriz ont
4 3
P S
h alf
m i
st rap
me mber
Ġc sv
Ġb ig
Ġthe m
Ġpro c
mb ers
UR L
Division Error
S L
s aved
{ "
se mb
ac ter
byte code
Ġcrop ped
dire ction
FORM AT
I denti
w armup
Ġp op
un pack
Ġw ant
ĠN o
IP T
Pro tocol
QU AL
Ġfrozen set
ero DivisionError
CCE ED
, )
h ome
i ce
or a
ti ty
Ġp aper
Ġs tem
Ġin te
di ffe
Ġcon struct
Ġr and
Ġbe ing
Ġpi ck
select or
sy ntax
Process or
ĠSU CCEED
Over flowError
atist ics
S yntaxError
j it
ar is
__ ",<
Ġ{ :.
St age
Ġcomple x
caten ate
- <
> (
> }<
P RE
p onse
re po
Ġtorch vision
Ġse mantic
ĠE X
with out
mon th
Hel per
ĠExtended Context
5 7
A Y
W O
_ <
i ma
p a
sel ection
Ġt l
Ġs aved
Ġre peat
Ġe very
Ġe dge
pro g
Ġpar tial
ĠN UM
Ġtime rs
MO D
Ġtop k
depth s
Ġseg ment
Ġcoordin ates
F IG
v g
Ġ ^
Ġ" ?
ge ome
Ġs he
co me
ĠC AR
ac tivation
config s
0000 00
Ġmatch es
predi ction
builtin s
W e
r strip
Ġt a
Ġf lush
ut c
ĠU RL
Ġsp ace
Ġsample d
vis ual
ĠRes ource
Eval u
Su ite
G B
a ut
c mp
en s
Ġthe ir
cl Error
Ġdi v
il ing
Ġde coding
ff set
Ġop code
AR N
trans former
package s
p aper
z ma
} )
IN ET
ĠB atchNorm
time r
comp ute
FF D
Ġover ride
Ġassign ed
Ġnormal ization
Ġp p
Ġsh ared
Ġcur ses
Ġconfig uration
PO S
Ġdis able
======== ========
an e
Ġs qu
Ġm ost
po ds
Ġto o
ĠC ode
mat mul
ĠIn cremental
ok ies
Ġfa ke
Ġchange s
Layer Norm
some thing
Ġabs olute
C allable
[ '
n a
pro mpt
Ġcl assification
Ġr ng
read lines
for med
Ġiter ator
track er
Zip File
' .
/ ",
} "
Ġt xt
Ġm lvl
ca m
Ġde lim
ten sion
ĠF FFD
Ġpre cision
Ġan gle
method s
Ġkey points
split lines
xx xx
non zero
pass word
SOL VER
polygon s
I tem
m ixed
s lice
ame ra
ĠS top
Ġde tails
Ġu ses
St op
work spaces
err no
skip Test
local host
neg ative
g ain
ĠC ol
init y
Ġ% (
Ġk ind
ac ross
CO D
meta class
nb sp
Ġexten sion
Ġidle lib
5 1
6 1
N N
h id
me sh
ch o
Ġn ume
si an
ĠT RA
ĠC ED
is c
Ġres olution
ST REAM
Ġal ways
ILL A
rup t
ĠCED ILLA
B asic
Ġ termin
in k
le ar
me th
Ġc nf
po late
oc i
AR CH
RES N
âĢ Ļ
Ġoc cur
h our
l ang
Ġ join
Ġs pecial
Ġm ix
ĠS ub
IN D
com m
AN CE
NAM ES
dar win
Ġthresh old
8 3
_ %
g er
o bs
le ction
le arning
=" ",
Ġ: ]
Add ress
! ")<
B ER
E C
T IME
U SE
Ġ service
at al
ance d
Ġpre dict
context manager
ĠIn lineKeyboard
Ġdete ction
Incremental Decoder
Ġpytorch video
SM TP
L AR
p b
in spect
Ġt ake
Ġb n
Ġo sp
ys tem
Ġden sepose
aris on
e mb
ct ave
Ġ(" ",
qui va
xy wh
Ġmulti processing
7 4
D ropout
O pen
Ġd ump
ĠD oc
Ġpre vious
Con nection
doc s
dig its
' ),
S ome
le nt
Ġf lo
Ġo b
co mb
get text
ĠC lass
ca ffe
ff ine
Ġma ch
own er
man ual
Ġback ground
wh ich
sm all
SG D
c atch
d ll
h o
p at
s tem
en e
Ġre lease
(" ",
cl assifier
Ġg raph
ĠR andom
den se
De code
Ġerr no
PT ION
__() "
C ESS
de dent
re r
ex pect
att ach
per ties
TH AN
Format ter
CLASS ES
L INE
] *
] ")<
] ])<
Ġ" &
Ġp id
di a
assert AlmostEqual
Ġdi alog
im ing
DE BUG
OR S
cor ator
sub net
Ġnumber s
Ġann o
du ce
Incremental Encoder
ĠStr ing
( ",
= {}
p df
en abled
ch apter
Ġ' %
sh ake
ĠN OT
ac tiv
Ġpos sible
Se lector
Res ponse
ĠCon text
HA I
wh en
serv ed
' .<
A ction
K EN
f alse
s n
Ġ INF
Ġre st
li er
ĠT k
con cat
Ġth rough
yn chron
ac cept
Ġmax imum
Ġload ing
M ENT
P attern
T ree
a it
r al
te rable
re ward
Ġn f
Ġs che
ct r
qual ity
Ġcl uster
ĠI SO
ĠW indows
ĠG et
St ate
Ġreg ression
Net work
Le vel
enti ties
Ġfull name
Ġalign ment
: ],
D ir
L en
c ityscapes
t ab
ver sed
ĠP re
we ek
Ġl st
Ġtar file
specifi c
6 8
H ex
h u
assert Greater
Ġfor ce
ĠT HAI
con catenate
Ġex act
Ġde sc
the me
Ġdown sample
" ",
N ew
Ġin ference
Ġ1 16
ma c
Ġdi rect
ex e
Ġme n
layer norm
ĠM ulti
base s
ĠTH REE
H ook
b ird
s qu
tri p
yy yy
road cast
/ "
G roup
L ine
c ing
d cn
in ce
in ator
Ġp h
Ġs q
ith ub
Ġde lete
fo ur
Ġco okie
ĠH ALF
Ġne eded
Ġspecifi c
Ġcv pods
Ġembed ding
orizont al
6 75
w ri
~ ~
Ġi mplemented
Ġc ut
() ]<
Ġme th
ta gs
ĠR FC
Ġchar s
At tribute
iss ue
Ġign ored
poo ler
F ound
r aries
v ing
as array
an swers
con verter
ĠC UR
Ġcon structor
ĠA BO
ĠN E
bo ot
Ġsc reen
Pro xy
Ġexp ansion
Hel p
regular izer
" ^
a N
m time
m lp
Ġf alse
Ġin clu
Ġo k
up licate
ĠDe precationWarning
Ġab out
DEF INED
) ',
a ctions
r fc
ar r
en ce
co gn
Ġ"" ",<
ca de
ol ve
am l
ĠO n
ĠV ar
EST ION
ren ce
Ġ6 0
Ġpy test
Ġposition al
PY THON
ĠBy tes
FLAG S
/ ")<
3 84
} \
Ġc lean
Ġcon trol
Ġ3 6
Ġy ear
Con trol
ĠR O
ĠG PU
split s
ĠRe g
56 7
multi ple
contain s
Ġuni que
B undle
D I
Ġ job
Ġc f
ati ble
is instance
ex act
fg Node
ou se
ĠG ener
us ters
exp ression
mt ree
ĠX ML
Ġsig moid
A bstract
w alk
Ġs k
Ġst atic
Ġcon verted
sh ot
Ġhe l
cal c
Ġl arge
ĠAC CENT
Ġab c
evalu ator
eps peed
Com mand
ĠABO VE
5 2
> ",<
T orch
g ithub
n arrow
Ġs n
Ġin side
ce il
Ġcon sist
ĠF ake
Ġme gatron
color s
Ġmail box
S P
en sure
Ġs hell
", ),<
Ġme mber
Ġpre pare
ĠN ode
ctor ies
inter pre
var iable
={ },
Doc ument
B AL
N EL
U ID
co okie
RA N
Ġsys config
multi processing
tz info
DATAS ETS
ife st
P RESS
] ],
lo aded
Ġm lp
Ġd ot
ĠS H
Ġwith in
py c
Ġma de
Ġpro xy
train er
Ġsh ifts
ĠR o
99 9
pc p
Temp orary
ĠIP v
il ter
ca pt
Ġlo w
ĠA l
ĠF rame
IT E
ĠO ther
ac y
tra st
CH AN
Stream Writer
Ġarch ive
) ],
W idget
i dent
n ers
lo t
Ġin d
Ġb it
ma cro
ĠT rain
Ġlo wer
Ġde precated
ĠI d
us r
ume d
Ġbatch ed
Ġstart s
Ġle t
Ġstd in
Ġver tex
Ġsy ntax
mach inery
Cat alog
Fin der
oci ated
" })<
n al
r p
Ġ ES
Ġo uter
Un icode
content s
Ġsig ma
ĠDist utils
eg gs
LOC AL
A ll
B ACK
T T
a ctor
re quired
un ix
Ġa ut
Ġde ep
ĠB asic
Con st
run time
19 2
Ġty p
plo y
mar ize
quiva lent
# #
C S
d p
s mooth
Ġd ummy
pt r
ĠĠĠĠĠĠĠĠĠĠĠĠĠĠĠĠ ĠĠĠĠĠĠĠĠĠĠĠĠĠĠĠĠĠĠĠĠĠĠĠ
Flip Aug
Multi Scale
jp g
( %
G N
S end
] ],<
le x
ar ly
Ġi ous
fi o
qu oted
"" ",<
ect s
ĠP ost
ĠM ask
are st
iz ing
Ġ12 3
Format Bundle
ĠSh ape
BBox Head
B E
F D
N OW
W E
g ot
as cade
ro gate
un ic
IN ES
ise ct
Ġcon d
Ġse par
Ġen coder
Ġ| <
option al
Ġ12 34
wrap ped
Ġclo sed
Le ss
Po int
C ookie
G ROUP
S up
ti cal
Ġ[ ]
IN AL
Ġan other
sc al
ĠO P
cor rect
spa wn
Ġmatch ing
Ġtr unc
9999 9999
ĠUN DEFINED
Ġpix el
F ail
O RE
u v
Ġp ts
Ġe dit
ap tive
IT Y
fre q
Ġbot tleneck
M D
Ġ tes
__ ":
Ġd raw
Ġdi stribution
ve c
pro file
ĠĠĠĠĠĠĠĠĠĠĠĠĠĠĠĠ ĠĠĠĠĠĠĠĠĠĠĠĠĠĠ
tain er
assi c
Ġtar info
MultiScale FlipAug
4 6
4 9
b its
Ġ( ),
la zy
ĠT WO
row s
ĠĠĠĠĠĠĠĠĠĠĠĠĠĠĠĠĠĠĠĠĠĠĠĠĠĠĠĠĠĠĠĠ ĠĠĠĠĠĠĠĠĠĠĠĠĠĠĠĠĠĠĠĠĠĠĠĠĠĠĠĠĠĠĠĠ
Ġmean s
down sample
window s
boot strap
I mg
at map
di stribution
Ġb g
__ "
Ġa uto
time stamp
cy cle
us sian
St ack
seg mentation
TH RES
, \
al t
Ġb asic
ra ps
__ ")<
ĠS QU
ase s
ow er
inter p
Load Annotations
Default FormatBundle
ĠSQU ARE
- %
g z
s k
x p
con structor
Ġg rb
Ġde que
Ġpro mpt
ĠU se
AC T
Me ter
Code r
={ "
THRES H
L ock
c pp
h am
Ġ" @
Ġt ab
Ġf ast
ca ched
ET ECT
sh ould
Ġse quences
ac cess
AS H
doc string
tk inter
mm lab
AU G
6 2
A uth
S kip
d raw
Ġ" ,<
le aky
ro id
Ġp e
Ġp age
di rect
len dar
ve ctor
Ġwh at
ĠIn stances
Ġinter polation
Node s
Op timizer
6 3
C AP
L D
L M
r v
se e
ut ation
set ting
ĠC oun
ON G
bo ve
Ġsp a
exec utor
Ġdete cted
Image ToTensor
Ġlocal s
ctype s
Ġass ociated
unch er
Ġdec imal
eng ine
ĠCode c
/ %
O rderedDict
] \
c python
Ġ" ^
Ġa bove
ri ve
Ġ2 5
Ġse m
Ġpro perty
ep silon
ok ed
Co unt
As sert
Comp ose
STR ING
Ġboxlist s
Ġcap t
Ġvis ual
FE AT
Ġâ Ĩ
. %
: ,
N e
O f
_ .
n ested
p ag
se parator
Ġ2 1
back end
byte array
tmp dir
Ġidenti ty
A vg
D ep
re port
Ġ" $
Ġb z
val s
pre process
Ġl anguage
25 0
Ġcan didate
Ġqu ote
Ġdecode d
Ġupdate d
ffi c
plot lib
Ġground truth
auto grad
C A
] "
p ip
in ary
Ġf cos
def orm
lo gs
ur al
Ġa ffected
type code
ĠA ll
ĠA sync
pre ss
sh utdown
Ġr atios
") ))<
vide os
En coding
fin ished
identi cal
i er
k s
on ic
co Dataset
ou gh
gra dient
ĠV alidation
bar rier
Ġscale d
Di alog
can vas
CON FIG
Ġidle Conf
) '},
B ar
L P
V is
b ag
se ct
con tinue
ER S
In itialize
Mask s
Fe ature
ĠInlineKeyboard Button
u dio
ro ll
Ġp db
cl r
=" ",<
Ġas pect
token ization
Con vert
Ġun til
col lections
pl us
Ġinter face
send file
Ġpair wise
Sh ared
C rop
D ate
b pcp
Ġs cal
ur rent
ĠL abel
Ġg db
ĠS OL
ĠF E
ĠN AME
length s
mon ot
mark s
rand n
Ġfol der
Det s
" "<
C F
c annot
se titem
an et
er ature
Ġp lace
Ġb s
Ġ( [
Ġst ar
ĠC l
xy xy
win api
String IO
Ġvariable s
M T
P ri
} }
Ġ $
ro ute
Ġin p
Ġm id
Ġe st
ĠL Z
sp arse
mo mentum
Ġch apter
da ys
IG H
ĠG PT
seg ment
Ġcomple te
CHAN NEL
ĠâĨ ĵ
7 9
G R
P ost
e mit
f amily
h n
v oid
Ġdef ine
(" #
um ns
Ġ2 2
Ġ> >
Ġpro cessed
[: ]
Ġch oices
Ġbu ilder
Ġac cept
ĠDe te
Run ner
Desc ription
mal loc
a iled
f aster
l n
Ġc li
Ġin sert
li es
from Hex
Ġse en
log ical
AR Y
client s
AUT H
Ġfl atten
G AN
` :
a graph
e e
u x
de le
re ceived
ĠT raceback
Ġdi vision
dict s
mask ed
ff ers
ip v
batch es
Ġbase s
MA G
iss ubclass
imp l
HI FT
ĠVar iable
o om
p time
de penden
Ġc lear
(" [
() "
Ġx y
key words
[: ]<
Ġwh itespace
ĠV ideo
ref count
Ġback ward
ĠHE BRE
YP ES
ĠHEBRE W
5 9
H andle
c ip
f unctools
Ġe tc
qual name
ed u
ĠL O
() .<
ĠE OF
RA M
sum mary
UN K
glob als
Ġcommand s
Ġkeep dim
1234 5678
Ġtrans former
evalu ate
mis sion
lst m
Ġep silon
ĠStop Iteration
ĠCoun ter
M on
g hi
j ust
o cal
p ot
Ġ levels
in teger
def inition
Ġb la
Ġb ert
ma y
Ġd ay
ER O
ile r
import lib
check points
DE N
Not Found
bot tleneck
) ".
+ ",
B ottleneck
e ff
p as
lo okup
ut ing
res ses
il inear
ĠF raction
Ġco ords
RE QU
Ġon ce
torch vision
inter polate
Ġ". "
scri be
ĠY ou
fore ground
Ġexception s
Ġcase s
Ġhttp x
Ġmer ge
RoI Extractor
IGH EST
I DE
I STR
P db
f usion
s ten
re tin
ti ces
Ġd on
pre cision
work er
Ġread line
Ġdisp atch
Option al
evalu ation
rin si
ASC II
. ",
g r
g ame
Ġ= ?
at ter
Ġt ail
Re f
ĠP L
range s
mb ols
Ġra ises
") ])<
Ex p
LO AD
B LOCK
F ix
S ON
W ID
f time
g o
s a
Ġ mp
in a
an h
Ġp an
Ġ( %
um b
ĠL OW
Ġde bu
key point
cal ler
da le
([ [
us ing
sig ma
PO ST
ĠTEST FN
ĠMe ssage
On ly
ĠDAT A
* \
P P
a verage
k ind
re w
Ġ" ;
ar p
Ġp t
Ġs cope
un ion
Ġw ay
size of
ĠA dd
ĠN et
Lo op
Ġac curacy
Ġac cording
Name d
Ġcor ner
child Nodes
memory view
Ġlib rary
ISTR Y
H IGHEST
T EM
t n
t gt
Ġre main
ĠC N
Ġ3 1
ĠĠĠĠĠĠĠĠĠĠĠĠĠĠĠĠ Ġ
Ġbe cause
Ġrun ner
Ġle ast
OL ON
Ġ", ")<
200 7
ha vi
Ġmen u
1 0000
d temp
ti cs
ĠT EXT
ĠE QUAL
Ġline ar
exp ansion
position al
Ġenviron ment
Clo se
Ġ--------- -<
high light
/ *
3 75
l vis
te arDown
Ġp ol
Ġs mooth
arg max
ver tex
Ġfile obj
") ):<
temp lates
pi ece
command s
sy mbol
recur sive
ĠCAR ON
C OR
M IS
g amma
m ult
de lay
set state
ĠA verage
ĠA NG
we b
ĠO R
sample d
ne ck
abc d
Ġopt s
Name s
exception s
Ġz lib
Ġvar s
An chor
ins dale
REG ISTRY
ĠAP I
Raw IO
D ef
U DA
d n
h d
i ke
__ ,<
ma ble
ĠC reate
ex ternal
Ġfe ed
Ġover lap
FC BBoxHead
center ness
Ġexist ing
Ġwrit ten
hist ory
" .<
D ec
W indow
s cope
de lim
Ġs cheduler
Ġb b
Ġ( ))<
la ces
Er r
max imum
col umn
Ġ10 3
Ro IAlign
onent s
Ġvi a
Ġbuiltin s
candidate s
B L
Y T
n args
v ate
Ġc am
Ġe scape
Ġ: -
Ġconfig s
do es
match ed
Ġapp end
mit ted
edge s
bla ck
re quire
Ġs ure
Ġd y
is nan
() ),<
Ġpro j
Ġen sure
RE MO
ĠO ver
Ġcom m
OL LAR
tra j
Ġext ract
Ġtask s
Ġste ps
Ġembed dings
ffi cient
2222 2222
RESN ETS
: /
r mtree
Ġd ll
ĠC heck
Test Suite
Ġpre sent
cor ds
Ġcal culate
Ġexec utable
mk dtemp
Ġstri p
POINT ING
ĠANG LE
" +
A IL
{ {
Ġc riterion
li sh
to k
ĠS PACE
Ġde p
Ġout s
Ra ise
ĠO utput
Ġpass word
base d
pth read
Not Implemented
Ġreg ular
mail box
Ġhead s
redu ction
so le
initialize d
ARE N
F ilter
a iming
j or
n l
al anced
he ap
Ġm u
con fidence
Ġh ol
pro ject
Ġ3 00
ST FN
act ual
full name
Ġcal ler
Ġsy m
Ġwrap ped
ĠCh ar
ĠCom mand
WORK SPACE
Ġhel per
) }<
T YPES
W H
Ġg zip
Ġtrain er
Ġdel tas
bin ding
Ar gs
ĠLo ad
assign er
hand shake
Dis position
ĠCUR LY
V ICE
a e
s oft
in te
re ason
Ġp at
Ġ1 0000
str ptime
lab eled
Ġpy tree
Ġreg istry
Ġinter val
find all
Ġfeat s
Ġmessage s
over flow
Ġwa iter
Ġrepresent ing
Ġrepresent ation
Ġsent inel
) '],
L ib
S H
al ias
li ties
IN AN
Ġth ree
Re cv
om inator
Ġ4 8
ĠE N
ĠO bject
cor ners
qui et
04 4
"\ \
Ġsupport s
row d
Ġzip fp
Ġmap s
thread ing
ĠST ART
branch es
Ġtz info
RET INAN
WID TH
AREN TH
RETINAN ET
> `
G oogle
I ST
M et
R PC
] ",<
l anguage
w info
y ield
Ġf allback
Ġb oolean
Ġdoc string
sl ash
real path
Const ant
ĠSOL ID
ARENTH ESIS
M ark
T clError
t l
re ference
st andard
al ler
ra cket
get cwd
nt path
ĠT rans
ĠĠĠĠĠĠĠĠĠĠĠĠĠĠĠĠ ĠĠĠĠ
IT ION
Ġ/ ,
ĠW hether
ĠO pen
Ġpy re
LO BAL
su ally
At tention
environ ment
lap sed
WOR D
sv c
ĠSU B
Att Model
zzzz zzzz
Ġindi cate
7 3
un e
um ulate
Ġst orage
is tered
code c
ĠP ARENTHESIS
os pec
read ing
Ġdete ctor
By te
pow er
cancel led
ĠNUM BER
WE IGHT
ĠSOLID US
8 00
= \
V AR
f etch
u ard
Ġ" !
di an
Ġo bs
set s
set default
Ġen um
func s
Key Error
Ġcurrent ly
Ġthread s
Box List
Ġoper ations
Ġup per
BatchNorm alization
EV ENT
SC R
aaaaaaaa aaaaaaaa
pix el
I TER
] .<
m u
s in
y es
te ms
Ġin place
Ġdef inition
ter als
po sed
ĠT urtle
Ġ(" -
ty p
St ore
Ex tension
sum marize
Tests From
Ġexec ution
Ġsum mary
Ġmat plotlib
pan optic
Ġ:: =
mid dle
ĠBytes IO
monot onic
F IL
i an
Ġ ge
re aded
Ġre sidual
fi cation
res ources
ap shot
ve lo
temp dir
wa ter
MO DE
function s
Ġper m
wh ile
Bu ffered
Ġremo ved
3 95
Ġt cl
Ġf amily
Ġc leanup
Ġ( {
assert Less
ca ses
Ġlo cation
ĠM AX
foo bar
Ġcontext lib
Ġad ditional
patch es
EL L
frozen set
remo te
Evalu ator
" ;
Ġf our
Ġf bpcp
Ġc ert
lo st
Ġb order
Ġo w
ot or
ĠS yntaxError
ĠF OUR
Ġy min
Ġ/ =
RA CTION
Ġbu fio
EN ABLE
FUN CTYPE
Ġdig its
" ',
- \
C an
T EXT
T raceback
o ke
u i
v id
y aml
re gex
st on
def ine
to ur
Ġcon s
Ġ{ !
sc reen
ac me
Ġpath lib
db m
ref ine
LO W
match es
PO SE
Ġdown load
Ġmem io
---+ ---+
sur rogate
Embed ding
scal ar
r ator
in side
Ġc ached
di sc
(" ")<
we akref
([ ])<
clo sing
... ")<
down load
ĠPath Manager
anti ze
ĠID LE
geome try
ANCE L
B atch
N on
h at
m ro
u do
or ity
Ġf lat
en um
Ġe quivalent
li teral
arg er
sp li
pro duct
ic ally
fa iled
Ġwe re
process or
Ġcomp ression
ffe ct
{} '
rand range
Ġexec uted
ĠHT ML
Header Defect
pick ler
. ".
7 1
A K
F ast
P ass
S ame
g ree
l and
un it
ĠD ep
att y
Re move
). """<
Ġpro cesses
Ġlist s
Ġ5 00
cs r
Ġkey point
no ise
filename s
match er
Ġinter mediate
mark up
OL D
Ġar ound
Ġorder ing
ĠDefault s
HO D
ĠData Loader
bl ue
Ġprob ability
Ġfix er
Per m
Ġmon th
Single RoIExtractor
C ONT
S um
T ask
Ġin ternal
el y
up sample
to l
Ġh alf
Ġor i
In f
Con struct
Ġtime r
Ġno qa
right ness
IM IT
position s
EL INES
UR N
ancel led
fin ite
Ġsel ection
identi ty
Async Client
sche me
" (?
$ ",
se udo
at om
Ġt s
ro le
Ġe ven
__ ),
ri b
Ġd s
Ġst ored
list s
ĠD o
bu s
app lication
Ġpar tition
Ġpro ject
ĠM et
ĠN O
gra ds
Ġcom b
\\ \
At tr
Ġchange d
ĠHE AD
Request Handler
Ġiss ubclass
ĠIndex Error
SCR IPT
N ON
g pt
s ted
Ġ ~
sel ected
Ġs low
ser ve
Ġw ould
get ter
Ġthe me
ĠP IP
ir c
Ġpo se
inter nal
ribu tion
su ccessful
Me mory
Ġseg m
Ġht ml
dete ctor
ĠBox es
G T
g an
h s
m ime
u de
ar oot
Ġs afe
pe t
", )),<
op ener
ĠS Y
et ina
ĠP Y
norm alized
ĠRe quest
Ġwe ek
LO SS
AA AA
Option s
BB OX
B OT
D C
I terable
O r
W ARN
b roadcast
e ver
or tion
le arn
ti fy
Ġm s
Ġe arly
gg reg
Ġch r
format ter
LE FT
Ġ5 6
sub g
Se g
the ta
Co coDataset
Ġcenter ness
ĠPer m
CAP E
spli text
B IN
j k
Ġs ci
Ġin planes
Ġb o
ue ss
Ġ- ----
ver ts
Ġx min
str ftime
ĠB ottleneck
ĠM O
gg le
Ġ"< <
min ator
Ġarg val
IZ ER
viron ment
wh itespace
Ġ"_ "
As sertionError
number s
Trans former
Ġnamed tuple
Ġdirect ly
unic ate
NotFound Error
REMO VE
! "<
G AR
U se
b z
l ations
re c
Ġt d
ar b
Ġf ree
ur m
ur n
Ġw r
Ġst atistics
ĠS HA
ĠA bstract
Ġhe x
Ġop name
load TestsFrom
Co mple
PO OL
200 1
Ġdir name
Ġevalu ator
Ch annel
enti cation
acc umul
Ġcompile r
Ġsw itch
attach ment
Ġconsist ing
" ',<
W indows
a res
a len
Ġ ]:<
re name
Ġ" >
en able
def ects
Ġre ct
Ġre ward
ĠS HIFT
ĠD OT
ĠM odel
mo unt
AR G
Ġ[" -
AS N
Data Loader
Ġfunction al
man ifest
33 33
Ġrep ly
TO KEN
aug ment
dis able
Ġaug mentation
const ra
ĠDist ributed
MIN US
sche ma
O M
T EN
W rite
w atcher
ã Ģ
Ġn b
Ġs peed
di c
ad ing
Ġa gain
ĠS imple
ĠS SL
ap ers
pro pri
ac counts
min i
work s
Ġcomp are
14 7
fir m
over lap
ĠAt tention
Ġab stract
gate way
ĠConv Module
âĢ Ŀ
Ġprovide s
symlink s
Ġaut om
ĠPL US
propri ate
. "
F P
Y Y
_ =
a ws
Ġf ig
Ġre ason
and s
ĠT emp
=" \
Ġ* ,<
ĠS O
path name
Ġcon cat
Ġcon fidence
fo cal
ĠIn valid
Ġcall ing
Ġzip f
UL ATION
Ġvar ious
igh ted
Invalid Operation
Sign ature
rpc lib
Jo in
Avg Pool
> -
U til
i alize
k ing
} :
de ploy
Ġ" ("
ĠT AB
Ġg o
Ġlo ok
ĠN ULL
ĠW ith
Ġset s
shape s
ĠH el
Ġit self
Ġsub set
Pi ck
joint s
Ġve ctor
TIME OUT
Ġlet ter
Ġtes ter
M o
N AN
T k
f b
s hell
ro unding
pe ar
Ġe mit
one d
ĠC FUNCTYPE
ĠP AT
temp oral
)) ),<
Ġac tive
Py Object
script s
FI X
Pi ckle
CON ST
mem test
Ġpool ing
pick led
Ġpolygon s
Ġmach ine
ĠOn ly
" ><
N um
R FC
S UP
f rag
p lier
r unc
s ug
in c
ra c
Ġ1 15
Ġst ore
ĠA T
ĠM IME
Ġl zma
map h
AR D
Ġuse ful
SE POSE
HE CK
uff fd
Pre dictor
DATAS ET
Identi fier
ĠCol or
ĠES CAPE
! \
+ +
> .
C opy
F OR
H R
L ab
M ain
P ack
_ ()<
f un
ar ds
Ġp ayload
di stance
", ))<
qu it
cl ar
Ġg iv
Ġg reen
() ["
ten v
Ġth ing
Ġme sh
Ġu sually
Ġpro file
Ġch at
IC T
RO P
IP V
Ke ys
multi part
Ġvalid ation
Ġdest ination
Ġau x
mem io
ĠPro cess
An y
Ġmem use
leg al
writ ten
Ġdire ctories
Len gth
D ETECT
F rozen
F ocal
I ENT
N C
f ol
i ed
m ust
s low
Ġf g
co st
Ġ' {}'
ĠT ON
ĠC fgNode
ĠS UP
ĠB ar
ĠB utton
Ġpre dictor
ly ing
Ġy max
ist hing
Ġne cess
Up date
tiv es
Ġexec utor
Index Error
Dist ributed
war ds
Ġmodi fy
Ġ": "
ĠStream Reader
ĠPo int
ĠAs sertionError
ĠAverage Meter
Ġsci py
ĠTON OS
" (
L C
T R
b ilinear
c nt
g it
de ts
at in
Ġp print
ra se
Ġ"" :<
Ġh ist
Ġx max
Test Result
ĠM eta
[: :-
fix er
Ex c
Ġcol lect
Ġmin i
Ġarg repr
Ġfilename s
return code
Ġvalid ate
KEY POINT
dig it
war p
ĠFast API
Ġta gs
successful Set
C V
c x
k es
re verse
ra dius
=" %
Ġh ard
Ġme ms
ĠE num
Ġwh ose
und o
tic le
Ġurl s
Ġ"/ "
Ġdir s
optim ize
ï¼ Ł
Dete ctor
Ġgradient s
) ;
+ "
4 00
A c
D D
c lock
z lib
in herit
de scriptor
Ġa i
ate way
IN K
ET E
IT IAL
Ġpre c
ĠR PN
ĠU p
-------- ----
Ġcomp ress
Pro to
Ġread ing
trans late
offset s
Ġkw ds
dete ctron
Bu ffer
SC AL
Ġiss ue
Ġsupp lied
ĠTRA NS
havi or
C ustom
D F
E mpty
I LE
J ECT
R el
T able
U ND
b ri
m ing
Ġ( ?
ul ong
cl usters
po sitive
ĠC ustom
Ġde scriptor
we ak
DE P
rep ly
". \
tri e
Ġ"- "
Ġfa ctory
ĠĠĠĠĠĠĠĠĠĠĠĠĠĠĠĠĠĠĠĠĠĠĠĠĠĠĠĠĠĠĠĠ ĠĠĠĠĠĠĠĠĠĠ
ĠâĨĵ <
ĠTAB ULATION
Focal Loss
" %
N aN
i ases
k ill
o ctave
de p
re call
re sidual
ch r
he s
arg in
Ġdi stance
ĠA CK
Ġde v
att ing
Ġth ose
ĠB lock
read able
OR Y
ne arest
tin uation
ĠPy Torch
Ġinter p
`` ,
Text IO
Pre di
Ġcoco Eval
Ġap prox
Ġwrit ing
LED GE
ĠOther wise
NOW LEDGE
ĠACK NOWLEDGE
C annot
H EN
P LE
Y ou
[ _
g ood
or sel
ti d
ti fi
ch mod
Ġp ush
Ġre call
xt ure
Ġdi sc
ĠF unction
sh ip
im read
Ġpro g
Ġco arse
AD D
Name space
Un ion
user s
Ġq kv
Ġwork er
assign ed
vers al
PRESS ED
ĠFE ED
D ummy
G t
s age
t abs
u fe
or mable
de sc
st uff
Ġin f
Ġre d
ap prox
Ġcon version
sh al
Ġdata class
ĠI O
time delta
Ġstart ing
ref s
LO G
Ġtemp oral
Ġback end
exec ute
rt ual
Client s
element s
allow ed
bound ary
VAL UE
Ġpoo ler
: :<
E H
G ra
G uard
R IGHT
S ystem
Ġ Equal
Ġf ixed
Ġdef orm
is ing
ĠA c
Ġpar sed
Ġen c
ĠH YP
Ġcolor s
Ġhandler s
big memtest
MIS SION
ĠTRANS MISSION
ĠHYP HEN
6 9
_ )<
a w
d y
g reen
r u
t cl
x fc
in teg
Ġc p
Ġs ince
pe er
__ :<
un der
con s
Ġcon dition
ĠF RACTION
Ġtime zone
ST D
04 2
Ġexp licit
Ġorig in
Ġapp lied
gu i
ĠQU ESTION
Inter rupt
Event Loop
Ġmodi fied
}/ {
' "
* .
N ONE
S AM
_ ):<
b ow
c en
c ri
c time
c us
c riterion
d w
d ont
d insdale
r m
al Dist
Ġi x
Ġp ut
assert Regex
co ord
nt l
path way
pro gram
ĠI nt
ĠB ack
lock ed
Ġen ti
ST ART
04 3
ĠIn struction
IP S
decode d
PE P
ript or
PRO CESS
mm ar
dat as
Ġchunk s
bg r
LI B
Gener ic
maph ore
? ",
E nd
F B
F ailed
L abel
b d
e os
r split
de coding
Ġf un
ro utes
Ġs l
he el
Ġb its
Ġre ceived
", )<
arg types
Ġd x
AT CH
Ġget opt
Ġk p
ĠV ER
no te
Ġclient Id
Ġver ify
PT Y
Ġsy mbol
Ġtra ck
Ġfail ures
Temporary File
ffic ult
M atch
R ng
Z eroDivisionError
r find
s b
Ġg pu
str ong
ĠI SOL
Ġ(" (?
ĠN on
Ġobject ness
ĠThe se
Ex pected
pl at
Di rectory
ĠsetUp Class
Ġcap tion
Su bject
mis c
Exec utor
Ġdelim iter
may be
ĠISOL ATED
R F
V P
W A
a ussian
b oolean
d ra
f atal
n py
or ing
Ġn ested
Ġd ry
Ġd cn
ati cally
Ġex periment
Ġbe gin
sc an
Ġk nown
ite ct
load ing
Lo cal
Ġ| =
cate gories
Pro gram
Ġapp lication
Ġflip ped
gor ical
Ġidenti fier
Parse Error
"[ \
exist ing
Ġsim ilar
' ")<
N ORM
] }
f tp
u ck
| <
Ġf out
Ġre verse
Ġfor e
th row
Ġd w
po pen
ex periment
Ġh aving
Ġde scri
ĠD ummy
ĠF PN
Ġcl assifier
Ġse ver
num s
ĠW orkspace
cur sor
Ġcur r
Ġtuple s
amp width
hook s
Ġtri grams
rest ype
failure Exception
Ġrecur sive
Ġcapt ured
* ",
/ {
4 56
> '
T ransport
e y
h or
n or
p w
p ted
Ã ©
de epspeed
Ġc u
ch oices
Ġw arning
od ay
vi er
Ġout file
Ġen able
") ],<
com ments
AR GET
comp atible
)) ]<
round trip
Ġsu c
Ġpad x
ĠZ ERO
SSL Context
Doc Test
Ġdocument ation
Ġhook s
Decode Error
retin anet
rinsi cs
B A
C IAL
i ms
Ġ âĢ
Ġc ar
ch dir
Ġm ixed
Ġ"" ),<
AT SS
fo cus
pre vious
Ġr ule
Ġse ek
Ġun it
RO KE
IL ON
Ġsp an
03 3
20 22
sw ap
Head s
sent inel
au gs
ĠST ROKE
Ġrequest s
CON V
Ġcate gories
LI ST
Qu ery
ĠString IO
sug gest
I mp
I mport
L ike
S Y
b et
c ript
re lation
Ġ" **
Ġc la
(" >
to wer
len s
ĠS ource
ET A
sh are
code s
Ġbe low
Ġcan vas
Ġno ise
bin s
post s
Ġ"/ "<
bit rary
Ġskip ped
Ġap propriate
gor ith
Ġinterpre ter
Ġcoun ts
Log probs
fut ures
edit win
Ġmer ged
ĠLZ MA
' ",<
G LOBAL
M ake
b ic
c lean
h op
k p
de que
st ock
al lo
Ġb az
Ġ2 01
Ġde cay
Ġme mbers
ses sion
head ing
cur dir
zip file
Ġcor outine
clu sive
Ġread y
fin ally
div m
Ġchild ren
BU F
Ġcorrespon ds
Ġnetwork s
Ġdat aloader
specifi ed
assertIsNot None
Vi ew
NotImplemented Error
2 96
> [
C D
G EN
P AR
e very
Ġc c
en u
ro u
Ġb ind
ad ow
Ġw ell
fi sh
con firm
ĠD esc
ĠF ULL
ĠP RO
Ġpro duce
ĠSM TP
Ġformat ter
Ġat temp
tribu tes
Ġar r
Ġtri al
Ġremo te
POOL ER
B ack
C HECK
a ffine
b rid
f path
t t
y m
ä ¸
lo pen
per son
Ġse parator
Con dition
ec tive
ĠO K
Ġl arger
ef ly
Ġ12 7
send to
1234 5
fl at
Ġsome thing
Ġexten sions
Ġinitialize d
BBox Coder
**************** ****************
ĠEX CL
activ ations
DEN SEPOSE
0 64
: "
N MS
P A
b ut
q p
al g
Ġi ters
ro gram
ad v
Ġd ynamic
ĠA BC
AT ER
ann o
ĠĠĠĠĠĠĠĠĠĠĠĠĠĠĠĠ ĠĠĠĠĠ
.. ..
__( *
") ',
ĠV UL
ĠG RE
client Id
Ġdete ctions
RES OURCE
addr info
dete ct
77 77
Ġcat Id
For ward
Ġhost name
Ġexten ded
ffi li
boxlist s
ĠStream Writer
01234 56789
Encode Error
Ġsche me
MAG ES
Ġ----- --<
ĠVUL GAR
' "<
: \\
> %
E OF
T op
h ide
p lay
s un
de li
me mbers
Ġf obj
Ġc ross
Ġp oly
lo y
ra ck
Ġd a
Ġde corator
Ġpro per
): \
ĠE M
token types
are n
wa iter
tri ple
url lib
(' -
Ġover laps
callback s
lap py
imp orter
pick ling
Ġinst anti
writ ing
aut ospec
Ġnume ric
Fail ure
dependen cies
C a
M ULT
e gg
o le
s peed
w r
se quences
Ġf re
Ġf pn
Ġc er
it or
Ġre gex
co ver
Ġd om
Ġst ds
con ver
res olve
ĠP olygon
ĠM apping
Ġco uld
Ġco okies
us ted
ĠThe re
ual izer
abs olute
crement alen
Ġsplit s
so on
Ġstruct ure
Train ing
Reg ion
abcdef ghi
Ġsq lite
Ġfast api
crementalen coder
Z IP
g ine
k it
o sp
t ran
t anh
w as
Ġp ending
Ġdef ines
Ġ' '
ol ved
vi der
Ġ(" \
Ġra dius
ĠN ew
av es
Ar g
Box es
Comp onent
CL IENT
serv ation
Ġfollow ed
Bu ilder
BACK B
Ġpan optic
; ",
L oc
W ait
b isect
d up
h ow
Ġ ?
Ġ latent
Ġc amera
Ġo ur
ut co
Ġre ce
co okies
ri ved
po l
od om
con dition
=" ")<
Ġlo okup
pro cessed
sh ifts
read into
run ner
EN COD
AM ATION
mail boxes
ĠUn ix
pair wise
UR I
iso format
Ġconn ect
button s
Ġaudio op
mach ine
Sp lit
bos ity
Ġpoo led
utco ffset
B ATCH
R GB
Z Z
b roken
d rive
x ac
Ġ Raises
Ġ" ="
ar range
Ġc wd
it ude
Ġ1 01
ati ence
Ġst ick
Ġg ts
ĠS er
() [-
ex port
Ġh it
form Conv
Ġdata base
lay out
ĠM ED
check Join
back ends
([ ],
)) ),
Ġ{} :
cate gorical
Ġcom bin
be gin
Ġassign ment
ĠZ eroDivisionError
Po licy
OUT PUT
ĠHe ader
ĠIncremental Encoder
roid b
arb age
ĠEXCL AMATION
% %
, ),<
E F
I mportError
O DE
[ (
^ \
o ise
t ls
Ġ xt
Ġs ources
Ġin teg
it ter
Ġo d
ort oise
get state
to o
() }<
pre p
04 1
char acter
HA VE
non local
(". /
Ġrepresent s
MET HOD
Skip Test
; "<
N ET
c ascade
f test
f sen
p ast
t ty
x ab
x df
Ġ lin
Ġ zeros
re main
re versed
ti le
Ġp r
Ġn one
Ġs s
00 10
el f
ĠS um
Ġx p
line sep
Test Base
Test Loader
qui ck
new line
ĠIn ter
Ġcomp arison
Ġac ross
Ġformat ted
PE CT
pad ded
expand user
Ġallow s
HO ME
Ġselect or
ending s
rup ted
RPN Head
recur sion
Ġloc ations
SU B
Ġdiv mod
ĠIncremental Decoder
Ġsepar ate
Ġnecess ary
= <
> ,
E B
G A
R ot
S ig
T ab
f ri
t ot
y te
ge tenv
Ġb lob
(" +
get her
ĠC or
ĠS ome
[" _
da e
ty ping
col s
ony m
IGN ORE
return s
Ġsu ccess
CH OR
au x
Ġpad ded
conn ected
Ġ'" '
EV EN
vel y
sm tp
Ġbl ue
interpre ters
Ġindicate s
bri efly
ĠLZMA File
C fg
F ixed
H ASH
O O
X Z
] [:,
c data
al ty
In ternal
ĠM AC
img Ids
Ġtime stamp
)) ))<
Ġdo uble
su ccess
dis abled
Ġconst ant
F uture
I mple
X t
w raps
{ <
in verse
me ter
Ġs ur
un cased
Ġa ctions
Ġtest common
Ġ2 24
ĠA S
ĠD EL
Ġme mo
ub yte
ber ta
St orage
RO UND
ug ins
)) [
Ġne ver
Ġ... ")<
Base Test
201 2
Ġtrace malloc
Ġ9 0
Ġepoch s
Ġselect ors
bl ank
flo ps
nc cl
Desc riptor
?= <
week day
Ġph ase
ĠReg istry
ĠMAC RON
" ):
' ",
4 04
A V
E poch
P IL
S ING
_ ",<
e vt
f it
t m
v it
} {
de scribe
at s
as semb
me ms
me ga
Ġp lot
__ "):<
li ces
get sock
ĠS ample
ĠS TOP
data gram
ĠI oU
ĠB e
sc ene
Ġ4 00
Ġ: =
ph ase
Se e
Ġreg istered
sy mbols
Ġbl ank
Ġunder lying
TLS v
sib ly
comm unicate
Ġhol ding
IPS IS
C or
T arget
` .
i con
s la
Ġc r
ra ctive
ot ing
=" "):<
Ġde le
pro cesses
pro perties
ĠB ACK
Ġun link
if c
IC ODE
sg i
Se ction
xb b
EX TRA
ense mb
Ġfail ure
Invalid HeaderDefect
Time out
dia lect
Ġexact ly
RAN GE
capt ured
! <
" /
5 000
> ]
G AT
M ARK
T here
W W
g id
w char
x ef
Ġ ,
de s
Ġs chedule
li ct
() ).
code d
Ġres ources
In stall
ĠM o
Ġhe ap
ou ter
LE CT
ac curacy
ĠG roup
url s
sw itch
assertNot Is
reduce d
ĠDist ribution
simple filter
macro s
Ne Xt
REQU EST
Ġcu da
2 048
: ]:<
= ?
A ct
D el
N OWN
T CP
b and
j a
m as
Ġ" ["
an a
Ġo mitted
Ġre ferences
Ġm ime
(" \\
th andler
ul thandler
ĠL ESS
Ġ2 7
"] ]<
ĠF rom
pro p
time zone
ĠN e
Ġassert Bad
ĠV er
Ġconfig ure
Ġarg v
bin op
`` <
1234 56789
Trans pose
Resource Template
Ġscal ing
ĠGRE ATER
/ <
A IN
e uc
h r
s pe
z on
Ġ light
Ġf ine
Ġc op
__ ))<
(" ../
th at
Ġst ill
Ġdi ms
ĠF ield
AT T
jo bs
comp ression
tri es
03 9
{} .
Ġann s
Set up
VER SE
Ġcal c
Ġbin ascii
ĠSe quence
Ġpix els
BRE AK
Ġbound ary
11111111 11111111
Ġconvolution al
vol ume
Ġsqu are
567 01234
TextIO Wrapper
tifi cate
fsen code
; &
O B
O ffset
m os
u time
| \
er ies
Ġc y
Ġc ycle
Ġm ar
co eff
Ġa m
Ġ1 92
set attr
ER SCRIPT
data module
Ġex port
() ",
ex clude
add resses
Ġr gb
01 7
Ġk now
min imum
cat ing
db l
Ġpi ece
Ġ16 0
tra ps
Ġdete ct
rol led
Bu ild
Ġxml ns
Ġxml rpclib
cli ps
Ġconstruct s
PTION S
regularizer s
Ġinclu ding
ĠSUP ERSCRIPT
I K
b dist
g db
i elds
p format
r ing
w rong
x l
mp ath
Ġp ower
Ġs ite
qu antize
Ġ' \
to ol
data base
Ġde lay
Ġde dent
ock er
Ġname less
Ġun less
Ġv oc
bo b
=[ ],<
ST AT
ne ctions
comp ressed
bs ocket
Ġsign atures
Ġfin der
Ġca ffe
Ġref ine
PAC K
ĠtearDown Class
sim ilar
VAL ID
SER VER
ĠSTR ING
ĠCOM MA
ĠShape Spec
Ġest ima
disc ard
land marks
itect ure
3 64
: ",<
d c
m ut
z d
on line
Ġin cremental
Ġre cogn
__ _
int ype
Ġcon side
ĠF P
Ġse s
Ġ(" __
Ġch ain
format s
ren der
][ -
parser s
Ġwork s
Ar ray
Ġspecifi es
As Ids
ĠZ ip
Ġar bitrary
Option Error
Ġli teral
ffff ffff
peri od
gre ed
ĠDE FAULT
SER VICE
pd params
PRE FIX
hour s
Ġstar ted
) *
. /
B ED
c ard
e v
h ard
m map
or ten
Ġ" ~
Ġo wn
Ġre quire
ur lopen
Ġ( ("
ĠT able
Ġto gether
"] ):<
() \
ys cale
bu ffers
ĠB ERT
Ġco st
12 0
Ġl t
reg entry
scale d
batch norm
inter mediate
Data Frame
MA IL
US R
xb d
Ġpad y
Ġtrans fer
(". ")<
ĠLo ss
Codec Info
ï¼ Į
MAP P
Ġcre ating
sib ility
trunc ate
ĠSHA DE
dae mon
Ġses sion
M IME
_ (<
x s
al ive
an ded
fi ers
ma jor
Ġd p
ĠS E
lin space
vi sed
Ġh our
fo od
per f
ĠE val
da Att
Ġline cache
Ġal ias
Ġcol umns
cat Ids
En vironment
200 4
lic ense
Ġpack ed
Result s
Ġlib raries
Ent ry
ĠQ u
Ad am
Ġinclude s
bla h
term ine
gre es
Ġautom atically
ensemb le
; </
I UM
R AT
i el
} )"<
de corator
Ġc ast
Ġp wd
args ort
Ġnot hing
import s
TER N
Ġpar sing
Ġget regentry
Ġan swers
max out
ci sions
Ġit r
Ġstate s
Di ff
ID LE
Co un
Ġasync ore
Ġbreak point
Ġvar i
Ch art
cn f
Ġbuf size
ABC DEF
star ted
assertGreater Equal
Ġspa ces
WARN ING
Pick ler
rou ped
ĠMED IUM
C al
D ES
d ynamic
g iven
s ources
} ),<
Ġp ublic
ce ed
Ġm ct
li ef
la ys
Ġto ol
Ġex clude
ab i
ĠP ER
Ġpar tic
01 0
Ġbe come
Con tainer
") [-
ir t
cu d
ef fi
sum s
aa a
Ġone s
wh at
ĠAt t
tar info
Ġaug mented
FL IP
Trans fer
Recv msg
S IGN
U V
f ps
g lass
h ave
m ore
n dim
Ġ ke
Ġ 99
at an
al th
Ġc s
Ġn t
Ġe vt
co ordin
get args
ox el
ĠC lient
is able
to ggle
Ġg ather
ĠS up
Ġde termin
ĠI ds
01 2
Ġbe havior
Ġpre process
RE CT
") )
Ġl atin
lib raries
Ġpath name
wait pid
Ġpy coco
Pro perty
Ġmo ve
serv ing
Ġstack ed
Ġbyte code
bl ur
Iter ator
NO DE
cli ck
COM PRESSED
free ze
Ġsetting s
Ġinte ract
yyyy yyyy
FIL TER
accumul ation
effi cient
" ')<
A cc
C AC
b rowser
g l
i ti
k aiming
r d
x FFFF
te rer
as y
Ġt tk
Ġc os
Ġp en
un used
Ġa pi
tur tle
con ner
ĠA M
ĠA pp
ist ic
oo se
ĠV alue
Ġnorm alized
CO UN
context lib
AN CHOR
print able
struct ure
EM BED
seek able
Ġtra iling
she ep
POS ITION
ĠDoc ument
C B
C urrent
F ield
H ER
I AN
S D
Z ero
_ ",
n x
in ing
te p
ch an
ser ial
Ġre store
un less
co arse
ul ary
set ter
Ġst uff
ĠS EM
ap tion
() "<
Ġde cor
bu il
per cent
Ġun pack
ĠO S
ir ror
ĠV AL
do g
Ġexp r
Ġver y
Ġav oid
Ġmeta class
Ġdis abled
div id
Ġap pear
Header ParseError
PER S
+" -
cen ters
H igh
M ER
T runc
V alidation
b ility
g ap
p in
w el
z oo
re v
re store
ch air
Ġp x
he atmap
Ġb a
arg name
op ri
IN S
Ġ2 6
text s
pro vider
Ġr b
py ston
ĠB ot
max Dets
oo ler
ac ing
Ġpo inter
bo unding
no tify
Ġcheck points
Ġal ong
File s
scri minator
Ġsc ene
Base TestCase
Ġiter ations
sig num
Ch ar
("< <
FA ST
76 8
Ġprotocol s
itch en
sis tent
Reg istry
XY WH
tot ype
Ġconside red
cud nn
+ \
U UID
b ce
Ġ uri
Ġ" ..
Ġt ransp
Ġs d
li sten
la test
ver tices
"] ),
ĠF ILE
AT URE
"" .
Ġcl r
Ġma cro
Ġpro du
Ġen abled
Ġch oice
are as
ac ters
Ġ5 9
ĠR ET
Ġversion s
xb f
oun ded
Ġtrans late
ĠBox Mode
chunk s
cro ll
ĠPer form
audio op
Assert Equal
UNK NOWN
TEN S
nor mpath
296 5
+"- "+
G C
L ast
R C
c nn
l us
o tes
r w
r test
v c
z oom
de bu
Ġre calls
Ġm k
Ġm ight
Ġw rong
Ġh i
am b
ĠB F
Ġhe atmap
DE X
feat map
new lines
Ġro unding
prefix es
AB STFN
Base Model
tar file
pattern s
CON N
ĠJ SON
mag ic
Cl assification
Shared FCBBoxHead
Anchor Generator
RAT IO
T ASK
b an
c ity
g gs
i k
r ule
v pc
x ed
Ġc tr
Ġp in
li ck
ĠL R
ĠL ab
ĠC ANCEL
il led
ĠS ystem
list lib
from keys
ĠI denti
py plot
Ġpre train
>> ",
clo sure
object ness
Ġcomp uted
ĠCon tainer
Ġle g
15 2
tra ces
trans fer
UN IX
Ġlength s
dit or
ROI Heads
Ġdest roy
Ġdiffe rence
pare n
unct uation
ĠQ ueue
Ġinitial ization
Ġcoordin ate
!! !!
diffe rence
ĠGPU s
gorith m
ENCOD ING
EXTRA CT
TENS OR
B n
D Y
F unc
F ine
H ash
M enu
or ies
en cy
Ġb rowser
pe ated
Ġre n
Ġ( :
Ġd uration
ĠT op
ĠC alled
par a
ĠF COS
Re pr
ĠI RF
Ġma g
Ġpro perties
Ġsh a
pi res
Ġcol late
skip ped
Ġrun time
Ġle ss
SE G
Ġqu oted
Parser TestCase
ĠRes ult
ĠCh annel
RET RA
CR IPT
Ġdire ction
IND IC
capt ure
Ġbit map
ĠPY THON
Ġgiv es
Ġstds cr
POSITION AL
ĠIRF Block
1 99
? <
B D
C UR
M issing
f cos
h ic
r st
ð Ł
at uration
ar th
Ġf s
lo bj
ma zon
ke t
ĠS IG
ca lendar
ol l
.. .<
12 5
ac cu
sition al
Ġac count
pp rint
Ġfa ce
cre en
ĠType Var
exten ded
Mock RawIO
ĠImage Net
fs path
vari ate
ĠInput Example
Ġsche ma
ĠAdd ress
Ġinteg ers
divid ual
; \
I FI
P R
P tr
R D
[ \
b f
h w
z ure
Ġ" //
Ġt t
si red
(" (
ri ch
is tent
ol ds
pro d
sh o
ub e
Ġpar agraph
Ġse c
sc atter
Ġco ver
ĠE lement
Ġen tity
AP P
>> >
if ted
ĠU T
Type s
us terer
sub mit
Ġcom ments
ĠTest Info
Ġper son
su ch
Ġcal cu
Comp ute
Ġmod name
Ġstack level
Le aky
short cut
PIP ELINES
Ġ"* "
nume rator
Ġdimen sions
Ġinst alled
ynchron ized
Group Norm
ĠValidation Result
CHANNEL S
Ġbla ck
GEN ER
RETRA INED
Leaky ReLU
" #
' {
2 04
I t
P rint
R UN
V ERT
] >(
c amera
s ity
x aa
me try
ce pted
it al
pe m
__ ("
test file
Ġw ri
Ġw arp
ati bility
IN ST
ca ch
ĠB Z
Ġfile input
Ġdict s
Ġ: ].
ĠE PS
DE NT
json l
EN CE
)) """<
abc de
link s
De ep
FF F
man tics
local time
ĠPy Object
match ing
Ġoper and
Ġfc ntl
Ġca use
Ġdis k
bit map
Ġwa ter
Ġvis it
ib ling
Method s
Vi T
Ġpick led
Ġow ner
SUP PORT
deli tem
A b
e cho
n i
s r
v core
or er
Ġt w
Ġc ity
ti ck
di vide
Ġre versed
test ing
Re cord
ĠI mple
Ġ"< "
img Id
ty le
Ġtoken ization
index es
Module Type
Ġac tiv
ĠCon vert
Ġsu ccessful
tra iling
xd c
dete ctions
Comp iler
Mask Head
SC II
pri vate
BB AM
CERT FILE
Stop Iteration
~~ ~~
similar ity
" '<
2 25
; ")<
D LL
T A
X T
k n
m AP
m utable
q s
x FF
di visible
Ġb roken
Ġo v
pe x
ra ys
ck pt
un register
qu ent
Ġ[ ]),<
ĠC all
ten cy
out file
sc r
ĠM ax
ĠE IGHT
ts df
Ġl ang
min us
valid ation
net D
(( -
exp l
exp licit
Ġpy doc
VE L
multi plier
Ġtmp dir
Ġscript s
final ize
leg ator
ĠWe b
Ġhigh light
umul ative
Ġflo ps
aptive AvgPool
Vis ualizer
Ġdebu gger
ĠTrans former
fol low
SAM PL
G ER
G ONE
N ote
U RES
j ection
n bytes
o v
q kv
re load
re pository
st it
le ak
le ph
er d
Ġc pu
Ġo ps
si vely
Ġ( {}
Ġreturn ing
ĠL inear
ĠC an
il li
ĠS IX
lin alg
pt cloud
Ġcl one
Ġr v
Ġv ol
ime n
Ġpy game
Ġsc an
Ġtemp erature
Ġtransform ation
SE LECT
cre t
clu ding
Ġq k
quee zer
UN ICODE
struct ured
Ġposition s
ĠSt ack
Ġbot o
Ġsy ms
sq lite
-+ -+
ĠRE VERSE
Ġreplace ment
ĠUnicode EncodeError
COR D
tour s
ĠMet adata
ĠDesc ription
Ġpycoco tools
hic le
A ST
P art
S core
U LE
c rc
t al
w ed
Ã ¶
Ġf print
ro uter
Ġin crementalencoder
Ġm uch
con sole
=" /
to bytes
ĠS ame
ĠS EVEN
Ġcon verter
Ġde ts
Ġde rived
ry pt
Ġ< /
OR CH
sign als
ĠG iven
state ment
scale r
sub type
start tag
inter face
IL D
IS K
FF IX
side bar
xc d
Ġerr msg
dist utils
]] ]
gram mar
Ġup sample
Ġdisp lays
Ġsm aller
region s
need s
Encode AsIds
schedule s
Ġdeep copy
Inf inity
! ",
C alled
S HA
S IM
W hen
] "<
d ora
e ven
f allback
i ble
l strip
n op
r l
x n
Ġ quiet
re hen
ti t
Ġs parse
Ġ( _
Ġst ores
ĠT ix
is ode
ĠA SCII
Ġh am
ĠD is
ĠF IVE
om o
ĠB IN
nn er
ĠR ING
den ominator
Ġpos sibly
IP ool
do ctype
Res NeXt
Ġ9 6
true div
Le af
Multi byte
Max Pool
Ġinv oked
Fe atures
initial izer
let te
Ġshe ep
Ġsk learn
ĠDete ction
Ġxy z
ĠChar acter
etina Net
Ġfore ground
STAT US
ĠRET URN
8 22
B ot
D OLLAR
F BN
M in
P VP
d x
d ry
g zip
j unk
p atience
t func
v gg
Ġ ys
te t
Ġ" )
al ity
Ġp s
Ġs oft
ur izer
Ġe s
un seen
(" {}
ati als
Ġdi gest
[" __
ĠA B
Ġh s
Ġh app
Ġh ref
ĠP atch
Ġun map
ĠO GONE
LE VEL
fa ces
ĠG enerator
ĠG ROUP
sub widget
0000 000
oth ing
Ġsub classes
][ <
width s
Ġinter section
MA GE
Ġz info
ground truth
acc umulate
Bu cket
Ġpackage s
Ġcomple ted
Ġuni form
Check pointer
posix path
Clo sed
Ġdig it
jit ter
We ak
ĠFFFD x
TEM PL
Mark up
Ġenti re
Ġstick y
FBN ET
ĠOGONE K
* )
A VE
G RAM
L ONG
N ULL
S ync
a mazon
n ative
x de
x be
in crement
st udio
al y
Ġs ync
ce d
si ted
Ġa ggreg
el low
Ġreturn code
ate n
Ġis n
Ġdi visible
ca ps
Ġcon trast
par as
ip s
ĠN INE
Ġun known
Ġmax size
Ġpath way
CO DE
Ġro ws
Ġcomp iled
Ġwor n
Ġ7 0
char acters
]) ]<
IR ST
Ġsu it
PO P
xa e
xa vier
pool ing
Ġmean ing
:` (
ĠLo g
bb bb
Ġpattern s
Ġbuffer ing
Ġvocab ulary
Com ment
rot ate
track ed
Ġbutton s
transformer s
Met ric
clar ation
Ġdescri bed
: **
A I
I E
M M
S cheduler
S OURCE
g oogle
n channels
p ly
v il
x ce
se par
on ical
def s
ra isable
Ġe fficient
un ame
ĠC urrent
ĠC UDA
vi ation
ĠA uto
AL LE
ve red
ann er
Re lease
Con verter
ĠO UT
Ġ5 000
Ġkey words
De lete
Ġcreate s
En tity
Ġver b
io class
pen alty
Ġprocess or
Content Disposition
pytorch video
dest ination
Ġimp orted
Ġhash lib
WR ITE
Ġindi cating
poo led
Ġob tain
Ġinclu ded
Ġsn apshot
ĠTrain er
setting s
Mon th
surrogate escape
Bn Act
imen sion
A W
D T
J ar
O PT
b ell
d h
d river
l legal
Ã ¡
å ®
Ġ INT
Ġ labeled
re ams
st ick
ch ans
Ġs oftmax
di fficult
Ġo ctave
(" *
(" //
(" ::
Ġd river
res cale
ann s
IC OLON
ag ain
Ġcomp uting
create d
OU S
Ġno te
14 15
Ġoffset s
UP LE
compress or
response ContentDisposition
break point
leg acy
Ġfut ures
Ġve c
Ġ--------- --<
Dete ction
Ġunicode data
Ġoccur s
interpre ter
THRESH OLD
Pri ce
Ġmid dle
Ġts df
ĠSO FT
DEP TH
abi lities
ĠSEM ICOLON
bce bos
1 80
A uto
B AD
B YT
R Y
W IND
g us
g uess
h orizontal
re ferences
ar gest
Ġs sim
Ġre lated
Ġre arrange
ad min
ĠS p
Ġas cii
ex ce
Ġde epspeed
out ines
Ġ3 4
ĠĠĠĠĠĠĠĠĠĠĠĠĠĠĠĠ ĠĠĠĠĠĠĠĠĠĠĠĠĠĠĠĠĠĠ
Ġout side
ĠB it
ĠB atch
Ġun expected
back slash
ign ored
inter polation
AD ER
ute x
Se arch
loader s
dist s
ĠSt andard
fin der
ĠBase Model
Ġact ually
div mod
buf size
Ġlong er
ĠBert Config
Ġgot o
48 364
ĠMe thod
ĠHTTP Exception
Gener ate
SU FFIX
Do es
Jo hn
Ġrand range
xxxx xxxx
rp m
Ġ"@ "
Fix er
Ġdebu gging
ĠOver flowError
ãĢ Ĥ
getsock name
Del ta
PERS AND
WIND OW
% (
C ycle
P K
S ibling
d an
f an
h in
i map
m c
m mt
m otor
x z
Ġ ):
or dered
de comp
de vices
as ctime
Ġm icro
Ġe ffect
__ "<
(" $
set Level
Equal Sign
op a
ĠL IG
assertEqual And
res next
ĠC OLON
Ġdi vide
ment ations
ĠA E
() ])<
pro gress
sh orten
TER ISK
Ġ3 3
01 00
In clude
Ġprint s
ĠH y
us ually
St andard
ĠRe sidual
inter sect
Ex ist
md b
Ġj itter
Ġad dition
Ġfa ulthandler
user name
tuple s
ple x
Ġprocess ing
Ġte ll
Ġpatch er
ĠKey board
ĠPar ameter
Po ints
fiden ces
ATE G
Ġass ume
Ġ"+ "
Ġpri or
WR IT
NE W
Workspace Service
isc rowd
ĠRO I
constra int
Rel ative
Ġsever al
ĠPER CENT
ĠLIG ATURE
assertEqualAnd EqualSign
" *
) ?
C UDA
D ensePose
N CH
} `
Ġ æ
Ġ videos
in str
at maps
al ways
ar c
Ġf use
Ġp seudo
Ġs imp
ser vices
ra dd
__ [
get addrinfo
th n
ul ation
ul ator
Ġ' __
=" #
=" {
ĠS ingle
Ġ2 9
ĠI ter
Ġres olved
Ġ(" _
Ġk lass
DE V
temp erature
ĠH ash
gt Fine
ST ATE
Ġ[" ",
22 1
Ġwe b
Ġcomp onent
File Name
Ġ7 2
ook up
Ġrandom ly
long long
200 2
gen et
Ġgra mmar
AA A
Ġhandle s
ĠIN PUT
EP S
nume ric
dire cted
User Dict
writ able
Ġresize d
Some thing
Ġstatic method
ELL IPSIS
ĠDep ends
ey e
Ġcla use
ĠAS TERISK
ĠKeyboard Interrupt
= (<
B rowser
C lip
C AN
C LO
I ES
O ne
] (<
b at
f ed
f resh
p ublic
z ation
ä º
Ġi dent
Ġf etch
Ġf vcore
pe g
Ġd h
um sum
Ġ"" ))<
Ġdi visor
ap s
sh adow
ĠB E
Ġres ume
time Warning
able Test
ou te
Ġl d
reg rtest
ine se
log in
Ġmax Dets
group ing
Ġerror Tab
prefix len
QU ESTION
factor s
ĠZ IP
Ġbin ding
imple mentation
Ġfollow s
help list
dat aroot
Call back
align ed
(\ )
Ġ"\\ "
ĠNE W
Ġspa wn
ier arch
rew all
Batch Sampler
147 48364
ĠPAT H
SCAL E
iel ded
ĠIdenti ty
dan tic
> =
B F
S PE
l net
n frames
p apers
x ad
x fe
x min
ð Ŀ
Ġ term
se quent
Ġc id
Ġp ow
Ġs ynchron
Ġin dividual
un ds
un expected
test func
Ġ- (
vi sibility
ten d
ĠF ix
ĠF AIL
Ġ4 5
cal culate
Ġmax len
Ġcur sor
Ġcomp onents
pack ed
Ġload s
Ġover flow
pen dent
ENT ITY
Ġfin ish
change s
MS COCO
ĠIN ITIAL
alized RCNN
Train er
Ġrot ated
ĠFe ature
Ġ1234 5
Ġedit win
ĠAsync Mock
Google Map
Predi ction
Ġproper ly
conver ters
assertNotIs Instance
Ġmar shal
ĠAM PERSAND
ðĿ Ķ
: {
F red
P ie
W h
Z A
f ine
i a
j is
Ġ" `
as ing
Ġt ran
Ġp ur
Ġn c
Ġin herit
un raisable
ul der
Ġ' |
um an
Ġg pus
Ġg reater
ĠS ize
ĠS cale
ĠA POST
ĠD I
ĠD OLLAR
ĠD imension
ĠF uture
01 01
os sible
RE F
check Param
gra de
sub layer
sub module
16 0
exp at
AN Y
Ġtemp orary
Ġj ump
Ġle ading
SE M
su bject
xe b
Ġ"_ "<
xb c
fore ver
bot tle
Sh ort
Ġform atting
recv msg
Ġexit code
Ġ"# "
ĠExample s
pix els
Ġsmtp lib
EE E
Ġoptim ize
geome tric
calc size
ĠEOF Error
ĠEQUAL S
ENABLE D
Ġfree ze
ROP HE
CAC HE
ĠAPOST ROPHE
( {}
> {
F ind
N CE
T ra
g f
g if
v our
re ce
re et
re mission
an other
Ġf ps
Ġc ancel
ti e
Ġp ast
Ġin str
it r
Ġb isect
pe p
li k
ue st
la uncher
Ġa pex
(" :
Ġis o
ĠT clError
ĠC ookie
Ġg ood
() )[
ON ES
gn itude
ĠE Q
ĠO PTIONS
Ġim mediate
ic ity
Type d
ĠV is
ĠH ow
ĠH AM
wa ke
wa ited
000 2
Ġla ter
inter section
Ġbase name
OT A
ns ure
ĠX P
Ġgener ic
Ġstage s
Ġimple ments
Inter face
hy p
IF Y
ĠDensePose Data
Ġ"| "
vari ant
inv oke
Pattern Error
integ ral
Ġmag ic
Ġcalcu lated
) [-
: ],<
D OWN
F R
F OUND
J P
L T
S creen
W hether
a ffili
h older
r r
v stack
} _
in sum
Ġf ew
Ġf ood
Ġf rag
ge s
Ġn ull
Ġb rightness
Ġw arn
Ġa mp
get opt
Ġto l
ĠC L
ĠS u
et une
ĠA LL
pre sen
age s
ect or
Ġr le
app le
ĠP i
Ġy et
Ġsh ifted
** -
check PatternError
ine tics
Ġcomp utation
AM MA
FF ER
\\ \\
Di ctionary
CT X
Ġper tur
Ġlayer norm
Ġover rid
Ġ", "
Load ing
ĠAt tributes
44 44
Ġ'" __
KEY WORD
WOR LD
gener ic
micro seconds
ĠLe arning
ĠDAT AS
bytecode c
NN TP
Ġflo or
hu ge
## ##
edu ce
12345678 90
CONT ENT
ancelled Error
Distributed DataParallel
PAR ALLE
coordin ate
WRIT ABLE
thn icity
PARALLE L
' ][
) `
= "<
F UT
[ ,
b oo
c and
h ints
i fied
ar ing
od ulated
int ain
is y
lin ux
from array
ĠA R
ab y
par sed
** *
Ġl on
Ġop ener
bo at
000 3
sub set
sub dir
comp uter
Ġline sep
Ġsp atials
Ġlog ic
row n
lr u
Ġ"% "
script ors
mer Month
Ġclo sure
(? :
tz name
Ġvi sible
Train ed
Ġdb m
ĠName Error
Ġcre ation
0000000000000000 0000000000000000
diffe rent
ĠResource Type
Ġdiv m
Ġtyp ically
FEAT URE
Ġcli ps
TEM P
Ġremain ing
Ġdep ends
inherit able
Ġsuc cesses
Ġincremental decoder
GENER ATOR
Ġsuit able
Pie ce
B inary
E mail
H AS
I OU
M C
P lease
U sing
h m
p ce
Ġ ><
de mo
re lated
di sh
Ġb ench
Ġdef ormable
un supported
Ġw m
Ġ[ ".
ma de
Ġ' {
cl assification
Ġ"" ),
Equal s
con version
=" +
sp in
Ġx s
Re port
ĠP ool
ta pe
01 5
ĠU sed
col umns
ĠG ra
ĠG MT
10 2
comp arison
Ġal lo
ph i
av a
Ġconv en
Se maphore
ĠEx tension
support s
thr s
make file
Ġwidth s
Ġmulti scale
CH AR
EX IT
igh b
Ġevalu ated
predi cted
("/ ")<
medi an
94 96
pri ority
ĠBert For
rin ted
SIG INT
Ġhand ling
ĠCOM MER
ĠNorm alDist
smooth ing
22222222 22222222
ĠOutput s
ĠUp date
Ġrule s
Imp orter
ditor Window
uest ion
FUT URE
ĠCOMMER CIAL
; "
A E
A H
B IT
O bj
P atch
T XT
h it
h int
i alized
l zma
r ation
s ampwidth
t re
x fa
Ġ ask
Ġ" >"
le ave
Ġf it
Ġre cv
Ġre trie
Ġ0 0
Ġm is
Ġe ggs
ame tri
ri cs
Ġd uplicate
ĠL ine
ĠS AX
ca ped
Ġcon tinuation
Ġ{ :
sh ards
Re p
ip address
Ġpro p
In it
ĠM IS
Ġ: ],
Ġen er
ind ptr
LE N
syn chron
ĠG round
ĠG CN
Ġbu ffers
write lines
Ġare as
ĠRe ad
ph rase
AN G
Ġread able
xe a
Ġver tices
Ġ\ "'
mpu tes
Sh ift
Ġ"{ "
contain ers
SSL v
EXT EN
ĠPer son
fast api
cap it
sd k
ĠAl so
Auth or
Ġ"; "
ynchronized BatchNorm
amazon aws
ametri ze
) ;<
B in
G rid
M utable
S elf
T ARGET
_ [
b io
e b
i ver
u ous
me ters
Ġf r
Ġc type
Ġc ore
di men
Ġ[ "<
od o
att rib
). \
Ġpro ble
Ġpro duct
ĠM S
gn ore
we ather
LE NG
Ġl n
back up
ps ample
shape d
zip File
Ġmethod name
Se lect
Ġrun s
exec ution
IM AP
Ġany thing
={ <
pass wd
Stream Handler
Ġfi leno
final ized
lon gest
now ait
ECT ION
Ġreplace d
ME AN
Ġconst ants
Stage Detector
Ġ"? "
Ġ"$ "
Ġscal ar
Ġslow fast
ĠTemp orary
XYWH BBoxCoder
! ",<
: ].
= ",<
F irst
L d
M AN
] "),<
g cs
p m
t w
w an
w sgi
} }<
Ġ" ]"
al arm
Ġf tp
lo ts
li terals
Ġa ffine
fi c
Ġ' /
ĠC lo
par ametrize
Ġr ather
Test ing
ĠE vent
Ġen gine
Ġ` {
ST AGE
level name
ust ar
Ġpy c
extra cted
Ġresp on
tiv ely
tmp name
medi um
Ġtra cer
IX EL
rel path
ĠIN VERT
tex it
Ġvi rtual
((" ",
Ġdisplay ed
Ġass umed
az y
cell s
Ġhand led
DO M
direction al
ĠTRA IN
Tree Item
ĠCommand Token
ĠSUB ST
WEIGHT S
rm dir
bet ween
remain der
wake up
ĠMIS SING
ĠINVERT ED
2 03
C ost
E arth
G REE
J SON
U sage
\ (\)
d on
e ma
t tk
x ec
x attr
Ķ Ĳ
in et
Ġf ds
Ġc en
Ġc ent
ro c
Ġp ce
ser ialize
Ġa texit
get int
Ġthe ta
ss lobj
Ġ"" )
op code
ĠC H
is link
Ġlo gs
ĠA LE
ĠF orm
pro du
pro actor
ĠB N
Test Mixin
01 02
In lineKeyboard
ĠM atcher
ĠE nt
que sted
DE D
reate d
ST EM
comp type
11 1
File IO
Un ix
Ġend note
]) [
Ġglob s
Ġsign ed
xf b
Context Manager
"][ <
1234 56
ĠBase Exception
Ġref er
Text Logger
folder s
ĠFile s
ĠSh ould
Ġden ominator
bla ke
Pipe s
ĠDE GREE
VIS ION
XML RPC
Ġsmtp d
ĠBu ild
ĠGener ic
BIN ARY
Ġfre quency
cach es
ĠALE F
TextLogger Hook
* <
C fgNode
D INAL
M IC
M ail
N eg
P IXEL
W or
a ware
c up
r as
y min
de ad
ar ily
me tic
er min
Ġc au
ro berta
Ġb pe
Ġ1 80
Ġ[ _
ul ld
set timeout
con struct
ction aries
Ġcon t
sp acing
Ġx x
ĠI terable
Ġor g
ip pet
ĠM SG
ĠN aN
[: :
ĠO p
ir cle
ĠR ot
with draw
ĠH R
ci al
base ball
IL INE
Ġcomp atibility
Ġexp onent
ang ing
PO INTER
Set s
Ġexec ute
gu id
BU FFER
Ġli sten
Scale r
XX XX
Workspace Repository
RoI Head
mi tit
Ġta ken
Ġtermin al
Ġtermin ate
Sup port
Ġ"^ "
FEAT URES
delim iter
Google Earth
zzzzzzzz zzzzzzzz
Pack age
ĠâĢ ľ
Loc ator
GAT IVE
56701234 56701234
ĠMetadata Catalog
Delta XYWHBBoxCoder
2 32
D IM
F lags
H ALF
R S
W ITH
b racket
e m
g arbage
n av
w heel
Ġ lim
or ange
de rer
le cted
Ġc ancelled
Ġs leep
Ġre cords
ra ctions
fi xture
(" =
Ġfor get
con t
ith metic
ĠC F
ran ce
par agraph
est art
str s
Ġdata classes
IT UTE
ĠM IN
Ġl it
Ġpass ing
norm case
ĠV OC
col late
AR TER
Ġwe bsocket
ĠIn ception
Ġcomp atible
De formConv
AC CESS
np z
LO AT
Ġj j
wh ite
TO M
Ġ"/ ")<
hash lib
ĠDe ep
auth ors
EM PTY
Token s
ĠQU ARTER
Ġarch itecture
Trans late
proj ection
Ġ"' "
Input Example
Bert Model
Do uble
Identi ty
Ġ"& "
Ġmini batch
Ġpartic ular
ik i
ĠSUBST ITUTE
C re
D IC
E A
G ateway
I g
M EM
P OL
R ight
W IF
] ]:<
a ff
d uplicate
u als
al loc
Ġf usion
Ġc lock
Ġp layer
Ġm map
Ġe di
ad am
li cies
id b
nt p
th readed
Ġdi dn
ation al
Ġg w
ĠS ign
ĠS CRE
ca ke
from hex
Ġde penden
ĠF unc
ĠF INAL
pro totype
py doc
am fer
Ġu int
ĠP I
Ġ% .
Ġma kes
Ġpre ce
ĠM in
check raises
Ġl no
25 1
25 2
25 3
rep lic
cor ner
=[ ],
ST O
04 5
view s
)) ])<
open ssl
iz ations
Ġtemp dir
IO Error
Un i
comple tions
multi scale
ĠAn chor
HO P
cos x
76 7
Ġidenti fy
resize d
Ġwrit able
Output s
cf ws
modi fy
Ġreduce d
Start ing
activ ate
squ are
ĠSH ORT
Ġ"! "
deploy ment
relation ship
Ġda ys
ResourceTemplate Repository
opa que
NCH RON
ĠSCRE EN
replic as
> ',<
D ay
G PU
I RED
M ixed
P e
T otal
d ash
e a
e lapsed
g ent
l lite
è ¯
as ure
Ġc e
ch own
Ġin ception
si cal
test r
qu eries
ate llite
ĠL azy
ĠC a
ĠC ON
il s
file path
ĠA daAtt
Ġde tail
ĠM ake
Ġk v
net G
new axis
Ġconfig parser
Ġopen ed
ome try
item size
Un able
Ġad min
]) ),
HE IGHT
mod ulated
xc f
xb a
seed s
EX IST
Ġlocal context
Sub process
imp licit
Ġcap s
ĠRE G
ĠRE CORD
identi fier
ĠUnicode DecodeError
Ġspecify ing
black list
Ġhist ory
recursion limit
Coun ter
Cal culate
COUN T
plex ity
NCHRON OUS
$ ",<
/ .
3 86
4 80
> &
? "<
O ps
V IDE
c rowd
i mag
p ub
Ã ł
å ¤
or n
ur ther
__ )
la ter
(" ".
get pid
Ġ[ {
set locale
Ġg ap
Ġcon caten
() :\
Ġh ome
Ġde termine
end point
line len
Ġr tn
ĠĠĠĠĠĠĠĠĠĠĠĠĠĠĠĠ ĠĠĠĠĠĠĠĠĠĠĠĠ
ĠB B
ta ke
Ġen ough
Ġv s
Ġv il
([ (
wa iters
22 9
Data gram
Ġsub type
ĠIn itialize
doc strings
ok ing
Not Exist
Un supported
Ġad ap
fc n
Ġq a
Ġseq Logprobs
Ch ain
PRO G
Pre fix
COL OR
rup tion
Parallel Linear
ABC Meta
ĠMe mory
Ġmark er
eng lish
Cat s
modi fied
ARCH IVE
logs oftmax
Named TemporaryFile
>` _
assertLess Equal
---+---+ ---+---+
1 50
2 10
4 01
4 03
> """,<
? \
A fter
F lag
I V
I MAGE
Q A
W rit
b pe
b are
i re
m st
ä ½
re calls
Ġin ject
ra m
Ġm time
Ġm svc
un safe
qu ip
ri cal
Ġ' -
=" ""
Ġ2 000
ol ver
Ġ{ {{
ĠB inary
Ra ising
Ġget text
ĠM PC
Ġco verage
Con n
ator s
Ġ"< %
Ġl c
conv ex
ĠG CS
alle li
Ġla uncher
Ġal tern
iter tools
ef t
File Loader
pp ing
Ġpy dantic
gging face
AB S
ĠEx ec
mod name
tra cer
PO CH
pen ame
Ġitem size
ai ve
Ġadj ust
ĠSt atus
Ġar c
Ġstream reader
Ġinfo s
const ants
show warning
Ġtri m
rot ation
CRE ATE
comb o
={} ):<
variable s
ĠBasic Block
ĠValidation Error
ĠLO AD
inte rest
Ġ'{}' ".
ADD R
abcdefghi jk
BACKB ONE
ĠDEL ETE
ĠAB STFN
presen ted
' ]<
+ )\
. )<
C ASE
F inal
F ull
G en
G CC
I m
S W
a iter
h dr
m utex
o be
r index
r partition
Ġ serv
Ġ" )"
Ġf resh
Ġf old
he st
(" @
ĠL VIS
ĠL INK
Ġdi d
Ġ3 5
ĠB AR
ĠE mbed
max len
") ]
ĠO ne
Ġsup press
RA ND
Ġl b
Ġl vis
Ġl bl
04 0
22 31
Ġsub dir
frame rate
rate gy
ĠCon nection
cre ase
bone s
Ġwhen ce
`` .
xc b
xa f
Ġfin ished
tag ged
EX CE
meta var
Ġstream writer
cc cc
TRA NS
dev null
Ġtra j
Ġtri ple
ĠIN DIC
Time r
ĠUN IT
ĠName d
ĠCom ment
vari ance
floor div
Ġoptim ization
RI B
RI AGE
eled Video
hot o
ĠBu ffered
ima genet
ĠCAR RIAGE
ĠDoc Test
ĠNE GATIVE
Ġ([ ],
ĠOR DINAL
traj s
Ġagain st
ĠHel p
ï¼Ł ",
PECT ED
ĠBACK SPACE
ĠVer sion
DES CRIPT
Ġprodu ces
ĠBIN INT
LENG TH
ĠINDIC ATOR
( ...
) [:,
A udio
M AC
S oftmax
W ork
] [:
m argin
n diff
s at
x dd
æ ľ
Ġ ul
Ġ Raise
re search
Ġ" }"
Ġn gpus
di ag
Ġb el
Ġre use
Ġm ouse
__ }
fi d
get attribute
name less
Ġg u
ĠS w
() """<
Ġh r
Ġde sired
ĠB ELL
Ġpre p
oc us
DE C
ler t
com mit
min utes
cor nner
RO OT
Ġtrain ed
Ġal gorithm
)) )
Ġmin utes
cat alog
the type
trace d
patch er
QU IR
xc c
fil t
ĠOption s
Ġseg ments
dd p
Ch ange
question s
(". ")[
0001 04
Ġref s
graph y
hand led
peri ments
az ure
named tuple
ĠNorm alization
MOD ULE
ĠClass Var
(", ")<
wri testr
Ġbs z
Lib rary
ĠEN QUIR
Byte code
Attr s
ĠHEAD ING
ĠSY NCHRONOUS
croll bar
ĠContainer Instance
SAMPL ING
omo graphy
ĠDI VISION
dimen sion
ĠENQUIR Y
" },
> '<
A p
B Y
C ES
E K
L IMIT
M sg
P RED
S tem
e od
e lif
i i
k f
n ce
s size
u ses
x max
y max
de pendent
st and
Ġ" ::
Ġf low
Ġs la
Ġre named
Ġ( )
Ġe lapsed
ad aptive
ul ly
ĠC PU
is inf
pre view
pre fer
ĠI MAGES
Ġpre cisions
Ġget context
Ġ: :<
we ar
Ġch o
Ġ"< /
ac ency
RO M
)) ],<
frame work
34 5
Ġmulti part
xe e
Ġmap ped
Ġ42 9496
exit code
Ġmay be
parent s
fin ish
Temp oral
dis assemb
Ġvi sited
RCNN Conv
ick ness
gre y
Sp ace
dr one
override s
SP ICE
RAN K
Ġsepar ated
pot he
ĠSUB STR
Construct s
frag ment
System Exit
ĠQu ery
IFI ED
Ġimmediate ly
2 12
B e
B OUND
C ancelledError
D LE
E max
H WA
M ON
P ix
P END
S ave
T race
V PC
Z X
d ts
f lappy
g cc
j peg
m ouse
q rst
s of
s alt
| {
sel ine
al iases
Ġt reated
Ġc te
Ġp listlib
Ġn l
Ġb p
Ġre c
Ġm bc
Ġm orsel
un quote
int r
ĠT cl
is coroutine
ĠS ocket
ig hest
lin ic
ĠA nd
() ."""<
Ġde gree
Ġde grees
Ġcl usters
ĠĠĠĠĠĠĠĠĠĠĠĠĠĠĠĠ ĠĠĠĠĠĠĠĠĠĠĠĠĠĠĠĠĠĠĠĠĠĠĠĠĠĠĠ
In te
sc roll
gn et
ĠH i
min ute
net scape
CO RE
HT ML
ren ti
obj s
Ġac cepted
Ġ6 55
Ġlog it
ml vl
ph erd
(' "
Ġsocket s
Ġpredi cate
send all
send msg
Ġwork ing
The me
06 7
ML P
Ġraw data
Element Tree
Ġtable s
'\ "
SIG USR
Ġexpression s
bucket s
Ġcorrect ly
let ters
Ġjoint s
}. {
Ġser ial
Ġpick ler
RESN ET
cogn ition
ĠDete ctron
aaaaaaaaaaaaaaaa aaaaaaaaaaaaaaaa
Ġborder width
DETECT ION
Ġbegin ning
MAPP ING
ĠUT F
rehen sion
ĠDATAS ETS
ĠEnt ry
Ġmsvc rt
C ID
F ake
F IRST
H orizontal
J K
O ut
P os
b p
c rolled
r x
} -
Ġ er
re served
Ġ" ...
as hes
ar ize
me mo
Ġc Pickle
lo ver
Ġre served
la vour
fi re
Ġ' :
size d
to c
file list
Ġex e
() ]
Ġu uid
ĠP lease
Ġma c
Ġpro d
Ġmodel ing
we ighted
mo te
ĠR GB
ĠU UID
ci pe
([ -
lip sis
Ġla unch
AS TER
Ġcol s
Ġ{} ))<
sup press
Ġ... ".
Ġindex ing
Conv Transpose
Un known
201 8
Ġper cent
{} _
Ġexp anded
ns wer
Me an
optimizer s
---------------- ------------
Th r
Th rs
Ġ"* .
Ad aptiveAvgPool
Ġdat aroot
ĠEn tity
Ġbuil ding
edit or
vari ants
ga ussian
Ġhy per
AY ER
Ġpe er
Post Processor
velo per
Ġperm ute
ookup Error
Ġsynchron ize
" @
2 80
B ERT
C mp
C ascade
E mp
F ont
N L
T wo
f rac
o unt
w ant
w xyz
x ca
å Ĳ
Ġ \\
Ġ utf
in cluding
de gree
Ġt up
Ġc x
Ġp laces
Ġs rv
ing IOError
Ġm d
get refcount
Ġ' ,
set blocking
con trast
=" .
ĠC opy
ĠS end
ĠA L
ĠA ction
ĠF L
ann y
Re set
ĠI E
am ount
Ġname spaces
ĠW h
Ġresult ing
Ġv pc
ĠR at
ĠR oute
RO W
ill ation
Ġne arest
man y
AN T
Ġ) [
Ġover all
vis it
Set Up
au dit
order ing
Random Crop
UP DAT
Ġgener al
ĠJ o
chunk ed
Ġwindow s
BO DY
NUM BER
Com mon
ĠTh readed
Ġ"? ",
LOCAL E
Feature Extractor
Exp ression
Fast RCNN
ĠDistributed DataParallel
Mo di
Ġexplicit ly
hr net
greed y
Ġ"~ "
ï¼Į ",
EXTEN SION
2 11
4 22
F TP
G I
G P
O VER
T ORCH
U AL
a ffected
c get
k o
l an
w m
w ind
x fd
al len
Ġt abs
Ġt urn
an te
an tial
en ame
Ġp apers
Ġp unctuation
Ġp rinted
Ġin tended
la teral
Ġ1 20
(" :",
po ses
Ġst oring
=" ../
Ġg cs
ĠD DP
Ġme tal
ĠB Box
Ġpre vent
Ġpro pag
Ġsh are
RE EN
mo tion
Ġl vl
IC ATION
lev ant
Ex act
Ġpy op
tr uck
ĠPy BUF
Base d
seq n
Ġformat s
python test
Ġpadding s
spec s
RES OL
HTTP Connection
("< /
Ġtrans pose
Ġtrans lation
ĠImage List
Ġbar rier
face t
Var Guard
ĠLo ader
BO M
BO ARD
Reg ister
ĠDensePose Chart
semb le
sn apshot
ĠPost DB
ĠHEAD S
irc ular
constra ints
mini val
YY YY
Ġcer tain
Ġcop ied
Ġnt path
shorten able
Author ization
Im gs
* ,
M ore
S ys
V ector
Y W
h ub
o ken
p x
s To
z A
Ã ¤
æ ĺ
se ctions
de cl
on al
le af
Ġt im
Ġf id
Ġp a
Ġo h
Ġre presented
assert Typed
ad ded
un fold
co o
Ġw raps
is digit
Ġ* **
Ġ_ ("
et ree
ĠA U
Ġth w
om b
Ġu id
ĠP ack
ĠB INPUT
In teger
mb o
ĠN N
ĠR OUND
ST ORE
64 0
Ġal iases
tain s
pth ook
Ġsub sequent
ren ces
Ġmin imum
Ġ6 3
Ġlog ical
Ġgroup ing
Ġcom ma
Ġdel attr
ID DLE
Ġindex es
Ġframe work
Ġle arn
Ġsign als
Ġver bosity
mer ged
glob s
checkpoint ing
Ġgra ds
pk cs
Ġbin s
006 1
006 9
Ġsy mbols
"> &
her ited
ĠIN DEX
protocol s
Al t
auto complete
Ġ[[ ]
super vised
FORMAT S
={} ,<
Ġcapt ure
Dec or
Ġstrip ped
augment ations
ĠAc tivation
cons umed
ĠBack bone
Ġ'' '<
Ġren der
Does NotExist
Ġ"` "
BOUND ARY
renti able
' )",
B AS
C FLAGS
F RA
F ULL
T ermin
W atcher
] }<
g nn
i der
k nn
k ps
m box
p ic
p late
t un
Ã ¨
re direct
as ible
ar ity
en dian
Ġp lain
Ġs yn
di lations
Ġm argin
assert Parse
co at
co vered
Ġ' .
up load
ĠL AM
Ġg encode
Ġg uid
Ġg aussian
Ġof ten
path module
Ġcon current
ĠA ug
Ġnot ation
() '
ex pires
ĠD ec
sh ard
Ġ3 20
Re cur
Ġme ters
ĠP EP
ĠP OUND
ĠB ASE
01 3
read only
ĠM IDDLE
ĠN AN
Ġfrom list
Ġwh ite
Ġsys tems
Ġ5 1
ĠR ES
ST ACK
000 5
tri als
net mask
ĠThe y
Ġ[" /
ag ent
Ġbatch es
msg obj
iou Type
Ġblock ing
IO Base
message s
To Eval
UM P
tra cing
fil tered
200 9
EX P
By Id
aug ht
ĠUn i
ash er
predi cate
Ġparse String
xF E
Sh ow
Ġaug mentations
ĠFile NotFoundError
Ġsen tences
IoU Loss
Inter polation
mis sions
dire ctories
war ped
document Id
req s
ĠTh at
Ġpipe s
mi tives
================ ================
Ġmach inery
ĠFake Socket
99999999 99999999
Ġcons umed
Ġweek day
ARG S
Ġ115 92
Ġtrack er
ĠVAL ID
amb da
backslash replace
ierarch y
Ġpertur bed
synchron ize
quip ment
antial ias
C RL
E POCH
G zipFile
M atcher
N ING
P l
R M
R W
S ampling
S tyle
_ \
b m
d get
f use
h ip
k oi
n oday
o lete
o dists
s ax
t ue
u u
u ge
u rable
| '
Ġ annot
in fer
di ctionary
si ent
si oned
Ġm v
Ġe v
Ġ1 000000
(" ^
get boolean
set trace
is abs
Ġdi stances
il k
vi te
vi rtual
from file
Ġcon nections
sp ans
Ġh op
Ġde ad
Ġde ploy
ĠD ate
Ġ3 84
om y
ĠB oolean
ĠB roken
Ġpar alleli
01 6
ry ing
Ġ4 3
Ġy y
Ġclass name
Ġpass wd
den ted
ĠH O
10 3
run s
UT ION
assertIs Subclass
Ġadd s
Ġcomp ressed
Ġstart up
Se mantic
Un expected
embed ded
OT E
ĠAND Data
Ġseq n
Ġ"% (
sy ms
YR IGHT
Ġ& &
gen der
Ġdepth s
filter warnings
(". ",
Ġwidget s
LU E
SO CKET
bl k
Ġfail s
mary Writer
Over ride
User Resource
hy per
sis tency
Ġdat as
Ġbl k
Ġrecur sion
AUT O
visual izer
ĠCl assic
cip her
ĠLO G
Exp and
3333 3333
Ġprofile e
experiment al
ims how
ĠSer ver
Ġbecome s
xFFFF FFFF
VIDE O
Ġgencode c
! --
" |
) ):
- ",
D OT
H D
I gnore
L anguage
O D
S tep
c ss
c umsum
i od
l stat
n y
n is
p g
p ace
y o
Ġ" =?
Ġi llegal
an ext
Ġn ative
Ġin file
ut ations
Ġ( ["
Ġe od
un defined
li dar
and as
ĠT ra
ĠT ransform
Ġdi scriminator
ran t
Ġg ame
file A
Ġh orizontal
ab ly
sh util
ĠM on
Ġsh utdown
Ġ** {
sub classes
kw arg
net s
new s
inter rupt
ach er
Ġcol lection
Ġro ute
cat Dataset
IP PROTO
IZ ES
user Cfg
SE EK
Ġnext char
comple ter
denti als
last id
first lineno
pop item
CN MaskHead
Ġman ifest
dis k
buf s
crop ped
Config Parser
network s
Ro ot
Ġcap ital
termin ate
pkg dir
bb rowser
gener ation
ĠPro perty
Ġpri ority
Ġregion s
Dep ends
dele gate
REQU IRED
ĠChar set
ui ded
hor se
ĠEM PTY
ATT RIB
chan is
TENSOR BOARD
ĠEPS ILON
ãĢĤ ",
ulld om
ĠCa ffe
Ġ{{{ {<
Raising ArgumentParser
) [:
/ \
> "],<
C ap
G CN
H as
H ost
L Z
N ext
T ri
U DP
U psample
V alid
` :<
c te
e ch
e thnicity
l al
m si
x db
} ))<
Ġ Ra
se cret
in line
Ġt ta
ar ante
Ġc and
Ġp w
di x
Ġb racket
ur g
Ġm ult
__ "]<
un ded
la m
Ġw alk
Ġ1 99
00 24
ĠL anguage
to bject
ĠS kip
() }
Ġde pending
ĠF rozen
im ation
ĠI OTA
.. ")<
che my
01 1
Ġy aml
Con fidence
ĠG rid
000 4
comp onents
batch grid
ĠRe al
22 0
ume ric
Ġwe ak
Ġdo ctype
ph y
Ġsc roll
mark ers
clu ded
Ġpl ugins
Ġexp at
sig mask
eta ils
En ter
Ġca lendar
Ġar ticle
Ġfinal ize
Ġte lnet
Ġparent he
real m
Mask RCNN
sym metry
raise d
assign ment
ESS AGE
Ġinitial izer
Ġdocument Id
Ġacc umulate
fork server
remo vals
pa use
Temporary Directory
Ġvisual ize
dependen cy
Ġcert file
ĠPIP ELINES
Seg mentation
Predictor Output
cript s
Ġrece ive
Ġrecogn ized
Ġleg acy
ĠDensePoseData Relative
ndiff AssertEqual
1 10
E dge
F S
F older
G PT
J E
L ink
P ASS
P YRIGHT
U F
[ ("
] ".
a o
b ing
b ile
s sim
v n
} )}
Ġ ri
def ormable
Ġo mega
Ġre po
__ ["
un ary
li de
00 11
(" &
(" ~
th u
ĠL ink
ĠS im
ĠS ECTION
ĠA LP
Ġh ide
Ġde cl
out side
om onym
ight s
ĠW or
Ġun signed
25 00
com ing
ĠV i
ĠV ec
fix ed
sub stit
Ġcheck ing
ren tid
Ġ{} ,<
Ġmin or
Ġ{" __
ĠTest ableTest
Un it
ĠEx it
]) ),<
bin dings
TH READ
over all
PE G
buffer ing
post process
EX EC
Sample s
ord inal
ĠSt art
generator s
006 5
STR IDE
0001 044
("/ ",
Ġembed der
adj ust
termin ator
Ġconn ected
Ġmy json
ĠCh ange
helper s
Ġli terals
mapping s
Pool Executor
ret ch
Ġreal m
Ġapply ing
CRE ATED
App ly
ĠToken s
COD ES
subnet s
ĠISO lat
Ġremain der
ĠTop level
ĠSIG MA
) '
+ <
+ ")<
> :
A ccess
E AR
F ACT
I MAGES
J PEG
N ight
P ress
R T
S IZES
b alanced
c if
f ct
g lo
j j
s we
s lices
y x
å ĶĲ
ç ļ
or test
Ġs pect
Ġs aturation
Ġin tern
Ġb i
ur len
Ġm ut
Ġ( !
Ġe ta
un re
co very
test data
Ġw s
Ġa ble
ot ation
th an
Ġ[ {"
Ġtest Assert
IN ITIAL
path sep
from timestamp
ĠA nn
Ġde vices
ĠD D
pro pag
im als
TER AL
Ġr t
os x
Ġpre processing
In variants
ĠW ill
ac le
25 24
lit tle
col on
call tip
AR P
Ġkey file
000 7
sub plot
Ġ[" --
iter ations
ug in
ren gth
)) ))
cat ter
be g
Ġindex ed
Ġend s
cre te
socket pair
last ic
total Ar
Image s
rand bits
src dir
gen ce
ATION S
lm nop
Ġchunk size
Ġquestion s
SG ateway
LI TERAL
Ġbl ur
ĠDataset Catalog
umul ator
cid r
Ġoccur red
Ġph rase
wri ters
calc ulator
Ġconsist s
ĠSH ARP
VAR S
ĠTurtle Screen
mini batch
bow l
ceed s
separ ated
14748364 7
odulated DeformConv
lal chemy
tobject s
çļ Ħ
totalAr ms
$ ")<
3 02
? ?
A verage
B o
D ow
D river
E min
G V
G ot
I EEE
L st
M agicMock
S ILON
T ortoise
V C
h flip
u lo
u FF
ä ¹
re use
le rance
al ving
as pp
Ġf atal
en der
en ded
ro om
Ġp k
Ġb roadcast
Ġo cc
Ġo dom
Ġre peated
Ġw ar
00 20
(" ""
ri g
arg parse
Ġd ora
Ġtest me
ĠC allback
is lice
Ġg row
Ġg ain
ĠS low
ex clusive
ĠD ETECT
ĠF loat
Ġme dian
read s
Ġ(" %
Ġ(" .
append Child
mb urg
Ġ4 4
ĠN x
Ġ: ])<
Ġ@ _
ĠO ME
lib c
>> "),<
pi log
ĠG raph
index ed
sub sample
Ġ[" _
cur ity
lob al
UT C
ĠIn stance
Ġcomp o
Ġmsg id
Ġad v
Ġper formed
Ġpl us
Ġq name
Ġmulti class
comple tion
raw data
Ġuser s
FI EL
Get Option
ĠSe arch
fin etune
xB F
Ġembed ded
007 4
graph s
Ġauth entication
ĠUP SILON
ECT ED
ĠBert Tokenizer
basic s
posit ories
Ġdat um
Ann s
inst anti
let ter
decompress or
Ġrot ation
ĠError RaisingArgumentParser
Ġbucket Name
trunc ated
ĠToken ization
ĠTime r
Ġoverride s
SMTP UTF
Ġcut out
Sup er
RawIO Base
SCAL ES
Ġapprox s
STD OUT
ĠSum maryWriter
Ġmime types
sho ulder
Ġobtain ed
ĠHash Key
="+ ",<
Horizontal Flip
chanis m
ĠALP HA
cif ar
ĠOME GA
' \\
+ -
4 06
? ",<
A RA
N ested
P I
P HA
T urtle
T UPLE
_ "<
a exit
a ifc
d umb
s ched
u la
ç »
Ġ ;
or tions
re try
an cy
an optic
Ġf ully
Ġc od
Ġre ally
", ),
un structured
li as
Ġ1 10
00 16
00 75
00 23
th ird
Ġ' {"
Ġd ue
cl in
Ġ* (
ver bosity
ĠS RE
IN Y
ĠA uth
AL O
AL RM
ĠF irst
im it
per plexity
ĠP HI
Ġnum Of
key set
Ġres ample
Ġres pec
fig ure
gn u
ĠW i
RE NC
RA RY
feat urizer
min or
=[ (
000 8
Ġcheck ed
url parse
Par ams
Ġ6 5
peci alized
ĠTest Case
Ġcontain ed
Ġinter polate
ĠX XX
Ġencoding s
CE PT
ĠĠĠĠĠĠĠĠĠĠĠĠĠĠĠĠĠĠĠĠĠĠĠĠĠĠĠĠĠĠĠĠ ĠĠĠĠĠĠ
Ġutil ity
fail ures
Ar n
75 4
coun tered
006 8
007 2
Ġret val
Ġbet ter
Multi ple
rot ated
Ġsetup tools
COM PL
Ġuni versal
oper ation
dot ted
]+ )
diffe rentiable
Ġpp im
hu ggingface
Ġ1234 56789
Ġcandidate s
require Attrs
ABCDEF G
EXTRACT ORS
Ġhapp en
hin x
Ġoverrid den
wan tobjects
Ġarc name
qrst uv
RESOL UTION
Ġcod ing
RENC Y
+ )
. ")
1 12
3 04
5 44
> |
B l
B alanced
D CN
K IP
L eft
P RETRAINED
R ect
R educe
T ag
Z E
` ):
c gi
e fg
i ent
k a
k lass
m v
o ve
p laces
s rv
Ġ vision
or ation
re positories
st atistics
er ce
Ġf list
Ġc umulative
def ect
Ġo up
", "
Ġ( "<
test me
Ġw t
00 22
00 18
Ġst mt
od b
is Train
Ġdi c
to string
il la
Ġg old
par dir
bu ffered
Ġr nn
py cache
am i
ĠM IC
train val
ĠR etinaNet
rep points
ĠG N
log lik
([ ^
ĠRe f
Ġobject Name
Ġal ph
sys config
Ġcall Lst
pl ugins
rid ge
ID ES
embed s
Ġle x
mon o
pect ing
enter Crop
bin ascii
HA ND
US TER
wh o
sen sitive
total refcount
multi bytecodec
hash able
Ġuser name
Ġnet loc
77 7
Ġtrans formed
ĠSe g
004 0
004 5
xE B
007 0
Pre trained
Mask List
show error
sq r
conf lict
optim ization
Ġinv oke
ĠHTTP Status
caption s
ï¼ ģ
ĠComp ose
OP EN
modi fication
Ġshe ar
DI RECT
etina Head
Comple te
Ġsl urm
allo cated
Sig moid
OB JECT
TEMPL ATE
exce pthook
WINDOW S
ĠCL ASS
Ġlon gest
Day Night
abcdefghijk lmnop
EXCE PTION
BAS IC
ĠMIC RO
C ANCEL
C ROP
D DP
D ICT
G raph
I B
L AB
O w
P M
a lect
b old
c la
e ach
f ault
t cp
è ¿
Ġ Raw
Ġ quick
in file
in cremental
re weight
re factor
re trie
on omy
as pect
Ġc are
mp c
mp up
Ġs in
di visibility
Ġre try
ct s
Ġe os
00 64
(" '
get timeout
th rough
name list
Ġd up
Ġd rive
ĠL ayer
ĠL ib
con tinuation
Ġdi late
Ġdi ctionaries
ĠS ynchronizedBatchNorm
IN IT
Ġde signed
Ġde scriptors
ms vc
ten er
ĠD ef
"" "\
Ġcl assic
Ġr d
IT T
ĠN D
ĠW idget
gg r
OR N
Ġbu g
000 6
split list
new args
DEL ETE
Norm alDist
Ġconv s
Ġblock size
Ġcor outines
Ġz f
Ġkw only
Ġ32 767
UR M
equal ity
auth key
004 1
007 3
007 9
Ro le
ĠPar ser
linear ity
Ġimp orter
ven ue
__() ",
page s
Ġperform s
---+ \
---+ --------------------------------
ob ile
ĠAd am
ĠComp ute
VOC AB
Ġtimes former
Ġedge s
Ġsqu ares
mesh grid
wri tes
Ġcontrol s
Ġ36 00
ĠTrain ing
Ġedit or
Bottleneck Block
pas te
pas cal
Ġsym link
ĠPIP E
ĠMO DEL
ICT OR
INST ANCE
illi seconds
Email Base
ĠFL IP
Termin al
. )
A nswer
B GR
C MSG
D ET
P ure
P ublic
S ED
] """<
a co
a waited
b ang
d able
e se
e md
f q
g win
g cn
h air
i ties
p write
u it
w ill
y view
ar ound
an imal
Ġf lappy
Ġc aught
Ġs r
ser ted
Ġre quested
ur pose
co late
00 25
00 28
00 36
id t
nt h
name spaces
ate ver
-- -
Ġg id
Ġde tach
ĠD uring
ĠD IAL
ĠF ailed
Ġ3 7
ĠĠĠĠĠĠĠĠĠĠĠĠĠĠĠĠ ĠĠĠĠĠĠĠĠ
Ġma jor
Ġpro te
ĠM ac
Ġk aiming
ĠE mpty
RE PORT
Ġun pickler
Ġun compressed
ac er
25 14
Ġtoken type
ne ar
no isy
cur ve
Ġatt ach
Ġ8 000
Ġadd resses
Ġstate ments
copy file
Ġbase size
pl ane
replace ment
Pro actor
Ġback up
return ed
IR W
comple ted
hel f
30 7
UR IZER
stru ctions
Ġar rays
Path Equal
Ġupdate s
("/ ")[-
Ġpatch es
Ġiou Thr
ĠCO PYRIGHT
xE F
005 3
Ġ"{ :
Ro IPool
ĠBox Coder
Ġ15 2
ĠPar allel
Ġ"../ ../
Ver ify
Inter section
none x
Att Core
mar shal
Int Enum
hex digest
ĠDE BUG
Cl assifier
ĠPo sitional
border width
idle tasks
Ġâ Ķ
FUN C
Exec ute
MOD UL
Ġmix up
Ġob servation
ĠNOT E
squ ad
Ġtes ted
FIL ES
NORM AL
Ġke pt
Ġdetermin ed
SUPPORT ED
ĠHAM ZA
Wor ker
allen ge
ĠNN TP
ĠWor ld
' re
: ])
A re
B ool
C MD
D ER
F CNMaskHead
K C
M ac
P red
S he
U IT
[ ^
] .__
g w
l f
n def
p il
v oxel
x da
z h
de termin
re ap
Ġ" ****************
:< /
al izer
al tern
as hed
ar ded
Ġf ru
ti ce
ch inese
Ġn an
pe ek
Ġdef ects
si tives
Ġ( `
Ġe tag
test case
Ġw atcher
Ġa mount
fi fo
00 50
00 34
el t
ss ue
cl assic
Ġ# <
Ġto ols
ĠC lip
to ff
Ġg r
ĠS pecifi
et ri
ĠA WS
ex periments
ab ort
ET ED
fo ot
ub ic
Ġse mantics
Ġpre serve
Ġk ill
Ġun quote
>> ":
com men
Type Equal
Lo gging
Ġtext s
"), ),<
no fix
work ing
EN V
Ġla test
Ġnorm ally
16 8
default dict
tp p
Se q
AC CEPT
ref ore
man o
Ġ"- ",
Ġmode s
To Server
Ġclient s
QU E
exec uted
PE AT
sl urm
Ġqu anti
Ġup load
Ġ64 0
Ġgener ation
stru cted
Ġte e
004 8
005 7
tar ball
invalid ate
const s
ĠPO INT
ĠPar ams
termin al
Call Stack
Su ccess
003 9
User Warning
Fe ed
ĠEn coder
RET URN
Ġshort cut
cut off
ĠPre di
ĠCUR RENCY
Ġcli ck
retin a
rinsi c
YT IK
Ġbo ard
loy ee
ĠPolygon Masks
tran sition
BACKB ONES
Fixed Offset
debu gger
leak s
Ġproble m
Neg ative
Ġgu arante
assertParse OK
LZ MA
ĠDIAL YTIK
ĠDIALYTIK A
( '<
6 55
C r
C msg
D ense
[ ]
h ers
p wd
r le
u test
x DE
x ED
z ing
Ġ }}
as tern
Ġt pp
Ġs a
Ġs catter
Ġo ct
Ġe ig
assert CallStack
un bind
00 12
00 99
00 56
00 42
00 55
00 84
00 44
00 26
qu opri
id om
Ġfor k
tur l
po licies
ĠT wo
to wel
Ġg ym
list box
vi a
ĠA ra
ĠA cc
Ġex pl
"] },<
() ],
Ġu v
Ġen ter
max pool
Ġun ix
Ġun do
Ġv oxel
Ġwh ole
ts v
Ġl argest
25 10
25 34
25 02
ic ense
with in
Ġint ro
Ġon error
ĠU SE
IC ATE
alle st
000 9
net loc
== =
ress or
(( (
version s
22 2
TestCase s
ree k
Ġro le
var args
Par tial
][ _
IS E
Ġarg max
De precated
ref resh
Di re
Pro file
85 7
node Type
left Img
sent s
rand perm
]] ]]
EL ESS
HTTP RequestHandler
006 7
normal ization
uni versal
004 3
004 7
005 1
Block Base
ĠPO S
Var iable
ĠBert Model
hy ps
COM MA
Ġarea Rng
SIG ALRM
ĠWe ak
ĠTh read
ĠUnicode Error
[[ [[
align ment
mg r
Ġimplement ations
Qu ote
ĠFe atures
Ġevery thing
ĠResource Template
ĠGener alizedRCNN
Ġtrunc ated
MD F
Dep th
PP PP
Ġfeed stock
Mark down
Ġcomb ine
ĠDistributed Sampler
ĠInvalid Operation
Util s
ĠPAT TERN
slow fast
Ġcompress level
PROCESS ABLE
Environment VarGuard
RD ONLY
Ġvol ume
SIM PLE
Ġinstr ument
ĠHow ever
mst rain
" ",<
' m
) "),<
C M
C ould
C ancel
C PU
D t
D OC
D GRAM
E nsure
F ore
J ob
M AD
P air
S aving
T AG
U BIC
a les
b mm
i ff
m irror
p ure
q k
x AC
y ellow
} '
Å ĳ
å Ń
de tail
at ype
at ss
Ġc nt
Ġc um
Ġp lay
Ġp andas
Ġn gf
di vision
Ġb ag
pe tition
Ġdef ining
Ġre lief
ing er
Ġ0 8
un install
co w
00 33
00 14
00 77
00 21
00 97
qu otes
Ġ' +
), )
po le
ati ves
Ġst s
ĠT AG
=" :
to uch
Ġg rp
Ġcon sole
ĠA N
ĠA fter
Ġh old
Ġh uman
ĠF ind
ĠF ail
Ġ3 9
Ġma intain
In Response
ĠM atch
ĠM ix
our nal
Con structor
Ġun its
ime zone
25 18
}< /
for get
comp at
ĠRe cognition
ag ers
)) ):<
bs d
Ġac quire
use Cats
\\ "
Ġshape s
ĠEx p
En abled
trans lation
UN I
UN PROCESSABLE
Py Torch
fn match
]] ):
Ar ch
byte order
006 2
006 3
CL U
lap ped
Path s
Ġraw io
ud c
debug level
005 2
005 4
005 8
005 9
acc ard
007 1
xD C
Ġsig num
mm det
Pre Trained
CUM ENT
ĠPro tocol
Ġcorrespon d
ffff ff
Inter mediate
Map per
sche mas
feed stock
Ġ40 96
XY Z
ĠRo I
>` _<
BOT TOM
Ġgo es
Gra dient
cri tical
DocTest Runner
Ġdele ted
Ġam ong
1415 92
ĠCookie Jar
Ġbench mark
Ġlit tle
hrnet v
Decor ator
FRA ME
) ["
4 85
6 00
> +
C ls
C IF
D IS
G RA
H i
H it
M P
O FF
Q uestion
T RE
U I
V GG
` ,<
f as
g p
h stack
l bl
n os
n anny
o ct
r n
s z
s al
u ro
w iki
x AA
} :<
å Ĵ
ç Ķ
Ġ ].
Ġ 999
re sis
re cords
re gnet
on s
st one
an ted
er ing
Ġf h
Ġf ri
Ġf raction
Ġc ityscapes
Ġp ub
Ġn x
Ġn or
Ġs ns
Ġ0 9
__ __
assert PathEqual
un set
00 32
00 78
00 29
00 27
po in
ĠT CP
ver b
Ġg i
ER ENCE
ile nt
ĠD etails
AT ES
"" ),
Ġth ird
Ġr fc
ĠP E
ĠP ick
ĠB ear
ip ant
ĠM M
Ġhe atmaps
lib s
cor pus
no tes
Ġatt ached
Ġ. *
Ġro idb
ĠAr ray
File name
File Handler
msg id
Ġcan onical
peci ally
ast imezone
Ġblock ed
Se ason
IO D
He re
tra ct
over write
encoding s
Ġapp lies
raw io
Image Net
Ġ"/ ",
pad x
---------------- ----
zz y
006 6
Sub set
004 6
004 9
xB B
255 7
light ning
tar name
007 6
Sh ape
flip ped
BU ILD
ĠLo gger
SSL Error
Ġauth key
checkequal nofix
Ġli sted
Ġalign ed
PER IOD
pan e
document Element
Ġperform ing
Ġwin reg
bucket Name
FUN CTION
Ġser ialized
Ġhy dra
Some Class
hd lr
ĠVER IFY
DocTest Finder
ZZ ZZ
Imple mentation
ĠTemporary File
qrstuv wxyz
Ġ}} }}<
ĠAra bic
/ {}".
3 000
> *
E l
E q
F a
F aster
H h
L K
R ID
T a
V el
b ble
g ar
h k
h its
h ref
l b
l int
n grams
v p
z info
} )\
å ı
Ġ ._
se cs
st rength
Ġn bytes
Ġre ach
ra tes
si gs
Ġm otor
Ġa ffect
00 80
00 15
00 19
00 13
00 17
00 92
00 86
Ġ' \\
il t
ĠS OURCE
vi se
Ġex ternal
"] }<
ex istent
Ġde scribe
ten sity
form RoIPool
"" ")<
Ġ3 000
ĠI s
ĠĠĠĠĠĠĠĠĠĠĠĠĠĠĠĠ ĠĠĠĠĠĠĠĠĠ
ĠP open
Ġres olve
Ġma gnitude
Ġfile path
ĠM an
ĠM isc
Ġ4 7
ĠN L
ĠN MS
til ing
Ġch atty
ac count
Ġpo in
([ ("__
AR M
Ġ` "
clo thing
St d
Ġnew lines
22 34
Ġmin ute
IS TER
be ar
256 0
24 0
Ġ... ]<
Ġfloat ing
Base Fix
Ġcor pus
Ġsu f
trans formed
Ġfunc s
command line
hel ve
Ġspecifi cation
fore cast
Run ning
dete cted
Comp are
00000000 00
006 0
FA IL
255 4
xC D
xE A
Ġcap tions
Ġcat Ids
Format ted
([" -
ĠPar se
003 7
Ad j
ĠtearDown Module
flo p
partition s
leg end
Ġoperator s
Int o
ĠEn code
ĠEn coded
ret val
Ġthresh olds
suffix es
Ġrot ate
vers ity
Ġinte rest
Basic Block
LAR GE
owner Document
TR UE
ĠIO Error
WA IT
bic ycle
Ġattemp t
brid ge
Ġcr ash
aption Model
Ġmacro s
Ġener gy
STO RED
ĠBB AM
PRED ICTOR
Ġcho sen
AUTO AUG
ATTRIB UTE
uFF FD
Ġrespec tively
ĠSeg mentation
2 19
K RA
L A
L F
M si
R IC
S pecial
T oo
U ST
Y X
c df
j ar
o g
p addle
u D
| |
Ġ" }
Ġf as
Ġf ocus
ro les
Ġin correct
Ġin finite
Ġo l
Ġre levant
Ġm b
ad apter
la unch
Ġw anted
Ġ1 12
Ġ1 44
00 100
00 30
00 96
00 35
00 95
00 90
00 94
00 31
00 98
00 91
ul ating
arg count
ss a
ĠL ONG
ĠT IME
assertEqual s
assertEqual Call
IN IAN
all s
Ġh mac
par sing
pre ter
lab ility
bu fio
Ġth ings
per tur
). "<
In struction
Ġ(" --
[: ],
Ġsh ard
Ġwh y
25 50
Ġ5 3
ci der
Ġtime it
vide s
Ġcheck s
Ġcheck pointer
Module s
Ex ists
wait able
Ġ". "<
Ġdo ing
Ġarg name
be low
Ġ7 5
mode s
ĠTest ing
256 3
256 6
256 9
Ġend ing
201 9
reak point
ated Boxes
find file
su it
Ġfunc name
Ġapp li
Ġ\ (
Ġnon zero
aug mented
Box Transform
Ġoper ands
Ġpack dir
:: /
Ġsum beam
expand vars
expand tabs
ĠDe lete
Ġheight s
ĠImage Features
ud ge
255 1
xC A
xE E
xD F
Process ing
cos ine
008 3
008 8
008 9
Ġidenti cal
003 8
basic Config
ĠPer mission
Async Iteration
ĠTO DO
Ġve hicle
bi an
Ġdire ctive
ĠInput s
micro second
Ġdiff lib
LOC ATION
SL URM
Stage sTo
}) ".
sn ippet
Ġdesc ending
pooler s
GN U
Img Ids
CF G
Ġ$ {
Description Template
LOAD ER
ĠNet work
column configure
Ġ:- )")<
Ġhol ds
Ġcaller s
Sum mary
scan dir
Imple ments
ĠassertBad Split
High light
listen er
debu gging
Ġwri ters
Ġsuccessful ly
Ġcau ses
ĠCON FIG
Ġ': '
GP US
rig inal
Ġfru it
tiling ual
KRA INIAN
assertEqualCall Args
ĠImageFeatures H
$ "<
) ()<
A lign
C ent
C ROW
D uplicate
S F
T ry
T ear
W in
_ (-
c se
f m
f used
k pt
l c
l ator
q id
s hed
v ox
w t
w hether
w BnAct
x or
x AD
x AB
} _{
in ations
re con
al ph
Ġt c
ar Info
Ġc atch
ti ally
Ġp c
lo cs
Ġs b
Ġin c
Ġin fer
Ġin verse
Ġb gn
", ",
co pi
co verage
Ġw info
Ġ1 50
fi rewall
00 85
00 81
get frame
get trace
Ġ[ ["
ma intype
Ġd co
cl t
cl ang
od ometry
ĠL ITER
-- +
is abstractmethod
Ġ* __
Ġ* /<
Ġh ue
Ġde claration
AL PHA
ys hell
ĠF EM
form ance
im ator
Ġ3 8
01 23
In i
ou ch
RE NT
Con trast
Ġch art
25 84
low res
pi cal
ĠH andler
IC ES
ĠG AN
=[ ]):<
start Test
ep isode
tin uous
Ġsub mitit
Ġoption flags
File NotFoundError
Ġother s
pp r
char ref
ĠTest s
ĠEx c
IGN UM
user base
cre ating
HE LO
Ġtrace d
Class Var
EX PECTED
Ġqu otes
non ascii
By Zero
Ġclo sing
can on
AG ES
disp atcher
ĠK inetics
ĠDe code
ĠDe formConv
Ġfil led
istr ation
BIC UBIC
xB A
xB E
xE C
mul tilingual
Process Error
termin ated
warn s
PL AT
Ġfn match
008 2
008 7
ĠUP PER
BO SE
flatten ed
lamp ed
break s
XX X
Ġcommon s
Ġposix path
ĠAs sign
DO CUMENT
Ġmon o
Ġpkg util
POS IX
squ ares
Attribute Node
Ġpol l
Comple x
LIB RARY
Ġcer tificate
mega Conf
yyyyyyyy yyyyyyyy
ĠApp ly
buil t
ĠSystem Exit
Ġactiv ations
leph one
Bucket Name
Fixer TestCase
ĠCF WS
Ġdependen cies
Pl atform
JPEG Images
CANCEL LED
formRoIPool ing
Tear Down
ĠLITER AL
8 000
? ><
E cho
F INAL
J OB
L imit
R ule
S INGLE
Y EAR
\ .
a enter
c w
e quipment
f ro
f stat
g rb
i B
i j
i um
j ected
k itchen
q name
x CE
Ġ entropy
Ġ layout
Ġ" ),
le e
ar ct
er ived
Ġc ud
ti lities
Ġn dim
Ġre stri
Ġm ro
__ *
00 93
qu ad
get file
po on
um ing
qual ified
op ath
ĠC ENT
is tener
Ġdi fficult
Ġg reek
ĠS PE
ĠS oft
ĠS ubclass
all close
ĠA ss
sp ort
Ġh ighest
ĠD ense
ĠF in
ann ed
Ġr mtree
ĠI tem
Ġor dered
IT EM
IT ICAL
Ġme ter
Ġme chanism
ĠP rint
ĠB Y
ry p
Ġpre tty
sc orer
ĠM ay
ĠN ested
ĠW rap
ĠW ID
tes ter
Ġch oose
Ġun finished
Ġprint ing
DE VICE
ir th
25 80
map per
rep licate
ĠG T
ĠG HE
log num
ST OP
run e
EN E
by pass
cur r
Ġla zy
Ġwe ighted
iter al
Ġ{} )".
Ġdo g
:// "
ĠTest M
Pro duct
SE P
ling Error
(* ,
Co mputes
ous ands
Ġq s
Ġmulti p
ĠType Token
Ġover write
linen umber
RES SION
au di
Ġnon linearity
aug mentation
Ġsum lognum
equal s
PRO JECT
pc m
ĠDe coder
CL USTER
xB C
xB D
xC B
xC C
xC F
xD A
Option als
Ġcallback s
Pre Training
xA F
PL IT
SC ENE
Po sition
ĠArgument Parser
pri ce
Ġcm ds
Ġdocument s
pan ed
COM P
icro soft
suite Class
DA Y
voc ation
Simple Namespace
Fin ish
Ġsw ap
Bert For
Ġ"{} .
sec ure
atistics Error
Decode Ids
ynchron ous
Send file
got o
hn son
dele ted
ĠLOW ER
Ġproject or
accumul ator
Lab els
Ġgiv ing
SY NC
ĠPRO G
CHECK POINT
Ġlin estart
Ġestima ted
ĠEval u
ĠLab eledVideo
Ġaggreg ate
Ġsimp ly
ighb or
DEC AY
000104 27
FACT OR
ALO ADER
arct an
4 24
D one
F raction
F ields
L a
L INES
M ESSAGE
] ].
e compressor
g k
g cd
h test
h oo
i or
l num
m n
p ax
p ora
s an
t ransp
v ote
w atch
Ġ license
se ti
in ate
in complete
de co
re ti
re ed
ar s
Ġi con
Ġf t
Ġp il
Ġp ure
Ġp lease
Ġs light
Ġs atellite
Ġb len
ut s
Ġre tain
Ġre direct
ct hw
Ġm isc
__ "))<
fi es
qu ot
get newargs
th en
Ġ[ ])
Ġ' *
um ask
Ġst reams
ĠT INY
Ġdi lations
Ġg ar
Ġg ive
IN VALID
der flow
ca fe
ĠA F
"] ).
ten nis
ve hicle
ĠF F
Re place
Ġout fp
Ġout come
Ġan aly
Ġk s
mo ving
12 4
col ator
ĠG ET
ST M
Ġal t
03 38
view er
Ġconfig ured
iou Thrs
be an
av y
Ġ"- ":<
color izing
iss pace
au sed
fail fast
ai lability
height s
async gen
Ġsum marize
assifi ers
Col umn
oun ce
oun ding
Ġssl context
auth entication
CL S
STR INGS
STR IDES
fl ash
Ġparent s
Sh ortest
Ġtra iler
Ġexten d
optim ized
ĠTEST MOD
pri mitives
Reg ression
ĠCOCO eval
Ġplatform s
ĠPIL CROW
Ġrecur sively
ĠTime out
scal ing
Vis itor
Ġbla h
Ġproj ection
Ġcons ume
Ac count
Buffer Error
Ġsever ity
rack er
Ġinstanti ate
Ca che
IGNORE CASE
CUR RENT
ĠCurrent ly
Ġfrag ment
Mutable Mapping
DIRECT ORY
Ow ner
ĠLayer Norm
MAD ecompressor
reti zation
Shortest Edge
) (?
2 30
J UMP
L ES
P RI
Q R
\ '
b ra
b rightness
d oll
e asy
f list
g old
h one
w rt
x r
ä »
å Ľ
Ġ utcoffset
in vite
de conv
as cal
as uring
Ġf ron
Ġc mp
en umerate
mp o
Ġs an
Ġs lot
ce ler
Ġb io
Ġdef ect
Ġre ached
si l
Ġ( *)
un signed
la pping
Ġw he
Ġ1 13
id na
th ickness
ma cosx
ss cripts
ĠT LS
is atty
ĠS he
Ġh ad
Ġh its
Ġx range
am ing
ĠP G
Ġpar a
os mos
Ġpro x
ĠM A
mb c
Ġy es
** :
ĠE F
ĠE xt
gg y
Ġun used
AP E
Ġ"< |
reg istered
ĠRe cur
(( ((
inter n
Ex pr
03 8
ren derer
ĠIn te
Ġoption ally
De legator
Se cond
Di stance
LO Y
ID S
Un pack
Ġle ave
cre asing
mark er
mod ality
sig int
Ġsu bject
Ġurl parse
not ab
Py ston
other word
tag Name
param name
RES ULT
logger s
xD B
xD D
Ġlib regrtest
dev kit
9999 99
xA E
ĠLo gging
avg pool
Ġsen ding
Call s
Ġmapping s
ĠSh ift
Frame Info
Dist utils
stds cr
ĠEn vironment
Ġmark object
OS X
LR Scheduler
CRE AT
micro soft
idle lib
Ġrecur se
ĠLe af
oot strap
Ġdisable s
Ġprevious ly
TT A
unic ation
Ġdraw n
sk i
vector s
MAG IC
Sum merMonth
Or der
Ġfunctional ity
clar ations
Program ming
ĠWorkspace Service
ĠSer vice
sla ve
buil ding
Ġ".. ",
ĠLab els
RUN NING
ĠImple ments
DT D
ĠINT E
SUFFIX ES
aby l
TEMP DIR
capit alize
InlineKeyboard Markup
iscoroutine function
omonym ity
clin ic
retrie ve
fq dn
commen ded
RIC S
Ġcud nn
' )\
7 29
9 32
= /
> ".
C enterCrop
F low
F atal
G iven
G AG
H KEY
L ET
S can
W ALL
W idth
Z ERO
\ "
_ :<
a ggreg
b as
e ig
e ces
f ws
g mtime
h ull
j u
l urm
n est
s ound
} %
Ġ quality
se mantics
re lief
ar ticle
Ġi map
Ġc linic
Ġp aren
Ġ0 1
Ġm utable
Ġm irror
Ġe m
Ġe t
Ġe max
__ ),<
Ġw on
Ġa ff
Ġa ffili
get able
), )<
ĠC DLL
len et
Ġcon tiguous
"] [:,
ab out
Re al
ĠĠĠĠĠĠĠĠĠĠĠĠĠĠĠĠ ĠĠĠĠĠĠĠĠĠĠĠĠĠĠĠĠĠĠĠĠĠĠĠĠĠĠĠĠĠĠĠ
ĠP ooler
ĠB RO
ta x
ff f
Ġse cs
Ġpro bs
ĠM LP
Ġ4 1
Ġ/ *
lock s
RE USE
RE PEAT
RE WALL
oc ore
") ]),<
ac ute
Ġl p
Ġl zd
25 4
25 92
ty pename
den coding
Ġint rinsics
ĠH OUR
lif y
split drive
ĠRe move
no op
iter ating
inter net
AS PP
Ġsub parsers
20 20
update s
Ġcontext vars
Ġfa ces
]) ))<
Ġcontain ers
SE layer
Ġmessage box
ang ling
Ġmulti plier
lect ric
ĠĠĠĠĠĠĠĠĠĠĠĠĠĠĠĠĠĠĠĠĠĠĠĠĠĠĠĠĠĠĠĠ Ġ
06 2
Ġadj acency
PRO B
({ },
Run timeWarning
HTTP Handler
auth enti
Ġmod al
Ġfil tered
HO PL
Ġextra ctor
Ġbot ocore
dis position
Sh ould
Ġtri es
Ġcoco Gt
Resize ShortestEdge
Element Handler
SC REEN
ib ble
Ġindent s
CC ESS
Ġ"+ --------------------------------
Ġbuil ds
ynam odb
Ġperform ance
Ġconf lict
ob servation
blob s
ĠHe re
ĠNorm alize
Ġinte ractive
pa lette
visual ize
Evalu ating
POS AL
POS IT
Ġnume rator
NAMES PACE
ĠInlineKeyboard Markup
ho le
ĠRandom Sampler
Ġ"& #
BAL IZER
GROUP S
Auth Handler
Dep loy
ĠNet works
ae mon
loadTestsFrom Name
loadTestsFrom Names
overlap ped
Ġabstract method
oned ocker
DEP LOY
approx s
allo cate
Ġattemp ted
Ġcombin ed
Ġvari ance
Ġcos ine
HER E
Char acter
Ġblack list
ATEG ORY
Prediction Head
cand y
Ġlim ited
Pix els
ĠEntity DoesNotExist
ABCDEFG HI
544 42
ISTER ED
Echo Server
Ġprox ies
HOPL IMIT
$ (
5 01
; ",<
< <
B IGNUM
C AT
D ynamic
G lobal
P arent
T ool
Y ielded
_ ")<
c ream
e al
f lavour
i om
l as
l zd
m se
n frame
r just
s now
y ou
ç İ
Ġ" =
Ġ" ]
at o
at ur
Ġp b
ad der
Ġw ind
Ġ1 22
(" "))<
get totalrefcount
Ġ' ('
Ġ' ='
Ġd fa
), ),
Ġtest file
ĠT ask
con nections
is upper
Ġg a
Ġg arbage
ĠS ave
et c
Ġcon structed
"] ]
"] )),<
() [:-
Ġh ierarchy
add Handler
ĠD ASH
AL SE
ĠI dle
ight ning
Ġstr ong
ĠM ULT
Ġy ields
Ġsh adow
ĠE ditorWindow
Ġen countered
token ized
Ġun seen
Ġtry ing
25 88
gra te
ĠU sing
IC K
AR EST
for ge
ne igh
start up
by name
ak er
AS PECT
Data base
03 7
Ġcomp type
Ġcomp utes
Ġopen ing
Ġtensor board
IS H
Ġpy rogram
Ġ7 6
Un pickler
ĠEx pected
SE QU
Ġrep orted
At tributes
au ss
au roc
Ġhead ing
stop ping
sampler s
Ġ100 000
ord Piece
HTTP S
Comp ile
Ġmod ulo
Ġman age
dis joint
("% #
Ġcat s
final izer
ĠLo cal
With out
conf usion
45 2234
slo pe
Read Test
Ġwait ing
MET A
NE AREST
Ġhy pothe
ĠEX TEN
week s
ĠGener ate
Ġsk image
require ments
SH ORT
ĠDo es
loadTestsFrom Module
}: {
Ġenti ties
ĠNon Callable
Ġproduce d
EOF Error
tran sient
Rot ate
Ġschedule d
1111111111111111 1111111111111111
ĠSup port
SD K
CONN ECTED
lick r
again st
WorkspaceService Repository
ĠREG ISTERED
Exact TypeEqual
Ġthw c
substit ute
ITT I
Cmsg Trunc
Adj Norm
ĠTIME OUT
Exists Error
ĠPermission Error
Ġslight ly
452234 23
) +
) ._
, ",
- "
: "<
> ...<
F REE
F LOAT
H y
I FF
O PTION
S en
S im
S cor
S orted
S hell
T ix
Z W
c ra
c ers
h ar
h paras
n P
n gram
p seudo
q x
q as
w p
y p
æ Ń
se cu
de viation
re dencoding
Ġ" :",
le ading
Ġi da
Ġf urther
mp ts
lo ok
di scriminator
Ġb low
Ġre factor
Ġ( \
Ġe insum
assert All
assert ExactTypeEqual
un cache
Ġa ifc
Ġ1 11
(" :")<
get randbits
int y
ĠL a
ĠT S
ĠT IP
ĠT ARGET
ĠS yntax
Ġ2 50
() [:
() )"<
ĠD O
ĠD OM
AL E
ĠF ixed
pro duce
pre ad
ĠI S
ĠĠĠĠĠĠĠĠĠĠĠĠĠĠĠĠ ĠĠĠĠĠĠĠĠĠĠĠĠĠ
ĠP RETRAINED
ĠB ULL
mask rcnn
Ġse quential
In ception
Ġget s
Ġsh own
ĠW arning
ĠE mail
mo ment
format ters
OR IES
map Masks
rep l
10 7
son ly
json path
by e
Ġ[" __
ag ing
obj ective
De bug
(' ("
]) \
Ġread s
Ġread only
Ġmatch er
IR C
15 12
spec ter
Ġsocket server
node Name
sen sing
UN C
compile d
sock opt
200 5
Ar row
VER BOSE
Ġprefix len
Ġevalu ating
("- ",
ĠDi ctionary
92 1
Le g
Le ViT
handle s
widget s
ĠCo coDataset
Default s
Ad apter
65 8
Ġinterpre ted
Ġsearch ed
Value s
cer ts
Dis play
RL ock
Ġequal ity
prox ies
cap abilities
recur se
CR ITICAL
Child Watcher
decompress obj
Sp am
Ġbucket s
Ġsim ulated
fr uit
ĠBu ffer
ĠTime rs
cho colate
rer ror
ĠRO IAlign
exact ly
Count Equal
ĠLZ MADecompressor
Ġflatten ed
caller s
Ġpol ls
WH IT
Ġdefinition s
vid ing
DETECT ORS
Distributed Sampler
EH LO
MAPP INGS
ĠMax imum
ĠNEW LINE
'][ '
Self Attention
XMLRPC Server
Cre ating
Ġce il
Ġtim m
assertTyped Equals
OD BC
urlen code
Ġwar ped
ĠDETECT ORS
abcdefghijklmnop qrstuvwxyz
141592 65
ĠBRO KEN
iom ark
secu tive
ĠBULL ET
( .*
B G
C IP
G AMMA
H H
P r
P age
S cores
S afe
S ITE
V END
W D
a le
a head
b ath
f ba
g dbm
g rouped
i u
i add
k r
p ulldom
q size
s temp
v env
Ġ ter
re o
st ic
st rerror
Ġ" )"<
as dict
Ġt i
Ġf av
Ġf ish
en den
ch ld
ch flags
Ġn a
Ġn h
Ġn sp
Ġs ound
he m
si der
un labeled
co in
ort h
Ġa ws
Ġ1 19
qu anti
Ġ' _
es h
ati s
=" +",
=" ./
is lower
Ġg uess
Ġimport s
Ġcon tours
ĠA ccess
Ġ{ (
() ],<
ab b
Ġx xx
AL G
ĠF un
bu st
Ġ""" .
Re quires
sion Error
ize s
om ial
Ġme asure
app a
ĠB M
che ma
Ġco me
Ġco eff
Ġ5 5
Ġimg Id
gra y
com ma
ĠH as
([ '
Ġ` --
start s
start ing
ĠRe port
no cls
run k
inter rupted
Ġcur dir
Ġsub g
Ġsub module
Ġcomp act
bs z
File Error
File Type
Ġlog in
Ġconv ex
ffe ctive
ĠPy torch
embed der
HE L
Tests Mixin
ang les
resp lit
keep ends
IM G
uff ff
Ġz i
DAT ALOADER
Ġvar args
dio button
Ġcopy reg
can v
ĠDi rectory
ting s
Sub Widget
Ro y
ĠRun timeWarning
Ġtri gger
With Fixed
deep lab
Inter preter
Att ack
Over flow
FFFF FFF
Ġdisplay name
Function s
Ġden se
Dist ribution
oper ations
("_ ",
Ġstandard Msg
custom ize
Sign als
MASK S
NT AX
ĠLe vel
Ġser ialize
Embed dings
SMTP Channel
DEBUG STREAM
tab width
Ġdraw ing
Ġpol ys
delay ed
Met adata
Gra mmar
ĠSome thing
ĠDEL TA
ĠNe ed
AIN ER
Ġmk dir
ĠValidationResult Code
204 7
ĠTix SubWidget
BYT E
ĠMethod s
ATEG ORIES
Ġftp lib
Ġlisten er
ntp lib
CID R
ĠThreaded EchoServer
COMPL ETED
LAB EL
Answer ing
nonex istent
Question Answering
åĴ ı
regnet x
sport s
Ġshadow ed
Ġpolls ter
WithFixed BatchNorm
) ]:<
* =
, "
/ ../
> --
A v
B ind
B IO
C ALL
D IO
E QUAL
G TT
G aussian
I AC
M N
M IX
M ASTER
N ow
N othing
R NG
S N
S un
S KIP
T E
T IM
V al
V IE
a vier
b om
d text
l ut
r ld
s re
s ink
t qdm
t odo
v s
x form
z omb
Ġ }
Ġ urlopen
in ux
de aug
de precated
on d
Ġi h
Ġc Id
ch amfer
Ġn ex
Ġs ilent
he at
Ġre lu
Ġre commended
si cally
Ġm l
Ġe as
assert CountEqual
li shed
la mb
Ġw heel
(" "),
(" ï¼Ł",
(" ï¼Į",
(" ãĢĤ",
ter ial
ot hed
get line
get sizeof
get ImgIds
and roid
xt ures
ĠL M
ĠT HE
ĠC M
is disjoint
il legal
ver sible
ver tical
ĠS crollbar
ER ING
path mgr
from string
ĠF inal
ĠF ilter
Ġth row
ĠI mport
ub utton
__( ),
ta inty
Ġbe g
In Create
Ġan cdata
ĠM IM
ĠM ain
Ġra ising
dex p
oc tet
mo bile
Ġun changed
IG RID
25 8
Ġ5 2
ĠH andle
ĠH EL
col lection
Ġmax linelen
net F
ĠRe mote
Ġline width
Ġnew er
ak ing
bs olete
exp anded
copy tree
Name Error
pl t
do or
AB ASE
201 0
To Token
Key points
lim its
mt able
14 3
14 4
su c
sw ish
Me gatron
select ors
pen color
Ġ\ "
Loss Scaler
au ce
Ġqu it
18 3
stop Test
("- "
ĠSt ate
Ġallow ance
Token List
mk stemp
Ġwrap ping
ĠMy TestCase
Bu iltin
ĠData base
([" --
Mask ed
ĠCh ild
domain s
rup tions
Ad just
lvl s
COM MENT
ĠET A
Ġinv oc
ĠUser Warning
Ġ:: -
rin k
upper Pipes
atist ic
Ġser vices
latent s
PRE C
comb ine
"^ \
cogn ized
Ġaut ospec
Ġtab size
GR AL
definition s
Ġsmooth ing
une ven
Util ity
ï¼Ł ",<
hor n
Ca lendar
MULT IGRID
TCP Server
ĠNe ural
Ġestima tes
Ġhour s
Ġtool tip
SIGN AL
Ġdecor ated
-+-+ -+-+
ĠLazy Loader
Ġconcaten ated
THREAD S
ĠGN U
QUE UE
Cr ash
COMMA ND
Hit mask
celer ator
ĠINTE GRAL
VEND ORS
) -
) ].
= (),
> ,<
? ")<
@ \
A lias
C HA
C lear
F MT
F ALSE
I LED
I tems
K Q
L ow
L istener
M Y
M MDF
O ther
[ {
b ul
e ss
e insum
g iou
j s
m all
m uch
n r
p aused
w ibble
Ġ .<
in finite
Ġ= >
re peated
st reams
le sh
Ġt ro
ro me
ro us
ti ght
ch art
Ġp ip
Ġp pc
Ġs i
Ġin line
Ġb c
Ġo id
ut ine
Ġ0 4
Ġe ar
la red
Ġw mod
get members
Ġ' (
Ġd u
Ġd Ld
Ġtest Get
ĠT hen
=" -
ĠC al
to s
Ġg pt
ĠS pecial
ca ble
"] ])<
() `
() ._
Ġh or
ms ra
ĠD own
ĠD IP
ĠD ONE
pre proc
pt y
ĠI MAP
ĠP db
time tuple
time rs
Ġ(" (
Ġ: ],<
Ġsh o
Ġsh orter
ĠW in
ĠE fficient
check er
") \
Ġun supported
Ġv id
ic ious
den ce
reg type
([ _
([ ("
wa v
Ġ** {"
ST FT
comp s
comp rehension
Ġcode s
CO PY
atio temporal
ren ch
tp lus
Ġ{} ),<
Ġ". ",<
Ġ". ".
IP L
ph one
IGHT S
Ġle ader
IZ ED
Ġper Image
Ġdoc s
bin ed
Ġcurrent region
Ġq id
long name
Ġver tical
over lay
post processor
stack ed
Ġbreak points
Ġqu opri
SS D
INT E
ĠK A
cmd line
HTTP Response
oun ds
00000000 0000
Ġdisp atcher
iso lated
FA ILED
ĠSe ason
Sub sample
Ġ"{ :.
mm cv
Ġlib c
imp ossible
ĠConv BN
ful ly
Ġfind file
BU CKET
Element NS
ĠFile Input
ĠPro xy
big ger
recv from
NO P
ABC D
Ġacc um
Ġacc umulator
Ġmodi fication
TLS Version
Aug ment
abcdef g
ori ent
Ġfont size
ane ous
Ġdump s
Ġsn i
Sup ported
ACT IVE
Ne ed
Ġpt cloud
Anchor Head
ĠSY NTAX
ĠHel per
Ġvector s
Ġseek able
7777 7777
MULT ILINE
prep end
onym ous
WW WW
ĠPerform s
ĠSp lit
ĠHy per
radd le
CLO SED
fed scale
parsed ate
Ġretrie ved
ĠForm at
ĠSign ature
Ġsla ve
prefer redencoding
mbo lic
FIEL D
ï¼ģ ",
determin istic
CLU DE
ĠEncoded Video
Ġfron t
Pr inter
ĠFun tion
! "
' ),<
+ --------------------------------
3 05
8 34
B it
B ig
B ounded
D L
D ump
M id
O bsolete
P AN
S low
W ed
Y H
] ))
a ys
c umulative
g m
k y
l mdb
n othing
o ti
t oday
u ary
Ã ¯
å ħ
Ġ atten
se ver
in y
te ch
te resis
te lephone
er ci
ch i
Ġp ag
Ġp open
Ġp ax
Ġn channels
Ġs aving
Ġs ampwidth
di ter
it ation
he alth
ra mid
la cing
get response
Ġ[ ]):<
Ġ' )'
es sion
int rinsics
op codes
ĠT ree
Ġg y
ĠS td
ol arize
vi al
Ġde li
Ġde mo
Ġde viation
par ty
par tic
ĠD ES
ys teresis
form atting
sh m
Ġth ough
Ġpro viding
In exact
sc i
nn pack
ĠM ail
Ġ4 9
ĠN INF
ĠW E
** \
mo othed
Ġun pickled
25 91
cept ual
Ġimg Ids
Ġmask Utils
ĠG LOBAL
([ ]))<
rc pt
Ġnew env
nd bm
22 3
22 7
22 48
11 3
-------- ---+--------------------------------
Ġsub pattern
Ġerror fileobj
][ '
Ġ6 6
Ġ6 7
De veloper
ĠTest Help
ĠCon struct
Pro mpt
Key point
SE ED
Ġshould n
mod al
prob ability
first name
Handler Test
pad y
Ġqu antize
Random HorizontalFlip
can onical
lic ations
Ġpack s
Ġprefix es
ĠK E
17 0
23 5
Ġtrans posed
Ġte x
xF B
ĠJ an
Eval uation
"> %
Ġnormal izer
cr l
Ġimp ro
cro ps
include s
ĠUser Resource
IF EST
ityscape sscripts
=% (
assertWarns Regex
USER NAME
DO CTYPE
schedule d
ĠISO num
Unicode Error
Ġtrunc ate
cip hers
Ġtransformer s
Mon ty
surrogate pass
NON LOCAL
deploy ed
ĠBlock ingIOError
******************************** ********************************
Top ic
Top level
!!!! !!!!
~~~~ ~~~~
kn ife
OPT IC
BYT ES
affili ation
EXIT ED
("= >
Chain Map
isinf inity
PEND ING
JK LM
Emp loyee
ĠRoute Target
EXTENSION S
phy sically
})} ),<
ĠPOS IX
ARM UP
PLAT FORM
Position als
+-------------------------------- --+
PAN OPTIC
% ",
' ll
, )))<
. {
A ware
B roken
C LE
H op
H ow
H RO
K itchen
L ay
M isc
O megaConf
P ON
P ayload
R U
W IN
_ ,<
` \
c art
d ual
h h
h mac
h ysteresis
l v
m cls
n u
s rb
s queezer
u ds
w file
Â ½
Â ¿
Ä Ļ
é ¢
or arily
te ro
te uid
de grees
de claration
on nx
al m
ar cs
Ġf o
Ġc gi
Ġc ityscapesscripts
ro ped
Ġp hi
ge odists
Ġn frames
Ġs we
Ġs ix
Ġs io
Ġs lices
Ġs queezer
Ġin herited
ce eded
Ġb are
ing button
Ġ0 7
Ġe ol
Ġe asy
__ \
(" (?
(" ?",
Ġfor ms
get size
get default
get node
get pw
th ough
Ġd ont
es caped
Ġtest name
op name
ĠT AU
ĠC rossEntropyLoss
ĠC Python
ĠC ityscapes
ĠC ATEGORY
Ġdi alect
ĠS a
ĠS ARA
Ġ2 147483647
Ġcon sistency
sp hinx
text ure
Ġh p
ĠD B
ĠD ynamic
Ġx avier
end of
ĠF ROM
im db
Ġcl assi
Ġr hs
ĠP UT
ĠP ART
fig size
Ġen semble
check able
Ġch n
Ġun available
Ġv gg
cfg s
LE MENT
Ġraise it
25 93
Ġ5 4
Ġ5 8
den sity
ĠU SER
ĠH A
ĠG ot
bo gus
ak ed
22 6
Ġ8 4
tin y
ION S
03 6
03 98
Ġcomp ared
ld flags
56 70
use ful
De cl
AC E
row configure
synony m
ĠCon n
Ġno tify
the re
UM N
SE C
En gine
Ġapp ended
CH ED
post rop
DAT ABASE
host s
)[ <
Ġ& =
ĠY H
NAM ELESS
HEAD ER
Col lection
HO DS
spect Loader
ud y
ĠBase Dataset
Config uration
xml rpclib
Sh are
Ġ"{ !
Ġcat alog
CON D
Content Handler
Ġbuf s
Po sitive
Ġinitial izing
Ġimp licit
OC AL
ĠRE PORT
Ad min
Value Dictionary
Ġpost fix
ĠET H
war ded
Ġ"+ ----------------
system Id
Ġmark ed
Cl uster
Cl assic
MET HODS
39 86
pa int
Ġflo p
ĠPre Norm
ĠXML Generator
/* .
delim iters
ĠOver ride
Ġsym links
AAAA AAAA
ĠMO CK
dic ator
SAM PLE
Ã© Ã¨
CONV S
Back bone
PA RA
adv anced
Ġcombin ations
blank s
fit ting
ĠSample r
Cor outine
56701234 5670
intype s
ffffffff ffff
Ã¶ Åĳ
Sync BatchNorm
Ã¡ Ãł
ĠBit mapMasks
4444 4444
5670123456701234 567012345670
>`_ .<
Conn ect
Ġ429496 72
Ã¤ Ã©Ã¨
pic Kitchen
tun nel
Bl ur
Fa ctory
forecast ing
QR ST
INTE GER
Obsolete HeaderDefect
ÄĻ Ã¶Åĳ
Ã¡Ãł Ã¤Ã©Ã¨
Ã¡ÃłÃ¤Ã©Ã¨ ÄĻÃ¶Åĳ
# \
' """<
' ."""<
) |
) })<
/ ?
5 03
8 75
C Compiler
D IGIT
E ditorWindow
G IN
L ookupError
M er
R etinaNet
R ational
S I
S V
S w
S PLIT
T ABLE
W ARMUP
_ *
b nd
b cd
c as
c math
c ircle
d yn
j unction
j ava
k d
m ilk
n v
p list
q q
w ine
Ġ geometric
in jection
in vocation
te men
te acher
Ġ= ",
re ction
st ft
as n
ar ser
me gatron
Ġc ri
Ġc msg
ch atty
Ġn digits
Ġb ook
assert Deprecated
li cated
Ġif f
fi cial
Ġ' ''
Ġd aemon
ati me
Ġtest Send
op f
con fi
=" *
ĠC ALL
ĠC lean
all reduce
from isoformat
Ġcon fidences
Ġex ha
fe a
ĠD rop
ĠD ora
ĠF IL
form s
bu ggy
). ",<
Ġu u
ub lish
ĠP ure
ĠB RE
ĠB OT
01 4
01 92
ES PACE
Ġfile system
read link
ĠM ore
ĠM lp
Ġy ellow
tensor flow
we bsocket
Con tains
Ġun cer
ĠO r
format ted
12 2
are p
Ġl and
25 7
norm als
config parser
config uration
config urable
col l
Ġtarget path
min max
ne eded
comp ound
comp onent
comp uted
tri al
ĠRe cv
Ġla m
ĠIn st
Ġopen file
Ġ{} \
Ġac cessed
sys temen
rank s
be ef
count TestCases
De le
MODEL S
std lib
Ġend pos
Ġmock ed
201 5
the s
coco style
(* (
fc ntl
ang ular
next Sibling
IM S
PE ERING
raw q
post args
table s
ĠOption Parser
30 6
Ġexec uting
Ġtmp str
addr s
Ġgener ating
96 0
Path Finder
Ġextra cted
0001 0000
Temp File
compress obj
Ġdiffe rences
present ation
face ts
EV P
Ġgen der
pipe lines
Ver ts
Doc strings
gener ated
cr f
Ġli qu
Argument s
ĠCo mple
slo t
chat s
Ġfix ers
Ġboun ds
Ġsystem Id
Ġhigh er
bi lenet
MET RICS
await able
Ġrepeat s
Ġshe pherd
Ġpredict s
Ġsq rt
wri st
DI ST
ACT IV
havi our
ĠCreate s
Met rics
Ġfig ure
Table Q
033 85
switch interval
FILTER S
RATIO S
ban ana
ðŁ Ķ
leph ant
ĠBit Masks
ĠIter ator
Ġallo cate
Ġrespon sible
Unsupported Operation
Ġdeploy ment
etri e
Fore ign
ImageNet Pretrained
Platform Error
ryp to
ĠMULT IPL
SIGNAL ED
ĠRecv msg
ĠMULTIPL ICATION
% ."<
* ?
+ )",
, )),<
4 02
= {}".
A daAtt
A zure
C ell
C lick
C ATEGORIES
D ot
G S
I AS
L IN
L ambda
S CHED
[ %
b mp
d fa
d uring
d Ld
h ouse
i os
l notab
m orsel
r hd
u short
v m
w est
y e
} ',
} |{
Ġ è
Ġ ],
se quential
in stead
or acle
te ts
re configure
Ġ" âĢ
Ġt m
Ġt re
ge teuid
Ġs lee
Ġin i
Ġin dented
he atmaps
pe dia
ur andom
Ġ0 3
__ '
assert List
co erce
(" )<
Ġd sp
Ġ"" ).
Ġst and
op le
op map
ĠT T
con verted
Ġto lerance
args pec
ĠC GI
Ġ* ****************************************************************
ĠS un
ĠS elf
Ġlo cated
path lib
Ġcon verts
Ġex posed
Ġex pires
Ġ"\ \\\
par rot
ack et
TER M
Ġ3 02
Ġ3 14
Re cords
ĠI OU
IT MASKS
am ble
Ġu Pipe
os ine
ow ParallelLinear
Ġ(" /
ĠM odulatedDeformConv
ist ory
Ġco efficient
Ġ/ >
ĠW rong
jo e
ĠE ither
Con verts
") ).
Ġim db
ac ity
Ġl mdb
ĠU ID
ĠV pc
ĠH ITMASKS
fix ers
sub parsers
kw only
(( .
Ġcheck Same
22 8
22 64
Ġadd ing
ĠIn ference
be havior
tr l
Ġrun py
ID DEN
Not Meta
Ġfa ct
Id le
Ġper iod
coco Gt
HA H
denti fier
Ġver sioned
Ġ"_ ")<
PE M
Ġz one
post proc
Ġdist illation
EL INE
AG GER
13 5
disp arity
ssl context
lap se
ĠBase Test
ĠMy Proto
MS RA
Config ure
======== ====
adj usted
Ġtra cing
40 96
Ġvis Att
day light
Parallel Transformer
Dis cri
ĠHTTP Error
DA VIS
Ġmodi fier
REG ION
Ġpri mary
Sequence Equal
ĠStream tape
NOT SET
WORK ERS
micro batches
idle Conf
?= \
'' '<
NE CK
VOC Dataset
ĠURL Error
Selector EventLoop
Help TestCase
ĠDistutils PlatformError
sk ate
Ġplace holder
cip ient
hd rs
scope s
Ġcomm unicate
inte ract
setdefault timeout
NON ASCII
Options Tests
undo buffer
previous Sibling
ĠSum merMonth
spe ction
Ġke eps
percent age
Ġsec ure
ĠWeb Driver
Ġes caped
TEMPL ATES
bbbb bbbb
ĠStandard ROIHeads
ĠIdentity Layer
2222222222222222 2222222222222222
WIF EXITED
Ġadap t
Writ ing
obe y
ĠEmbed ding
DESCRIPT ION
disassemb ly
Ġannot ated
propag ate
ä¹ Ī
She ar
Ġ'+ '
Faster RCNN
Vel Y
atur ization
Tix Widget
yp ically
é¢ ĺ
ĠcheckSame Dec
Discri minator
" _
' ))"""<
( ~
+ ")
0 80
A Z
B ound
B efore
C CT
D est
E LEMENT
F ree
H UP
H ANG
K ITTI
M ES
N args
P hoto
R B
R UP
S ession
\ ((.
a postrop
b t
d set
e di
e lephant
h g
h p
h qx
i ct
i ence
j ournal
l seek
n ul
n od
o ch
o ven
p ortion
r limit
r mul
v r
z i
} ),
} ))
æ Ī
æ ĸ
æ Ļ
Ġ ERROR
in o
in ferences
in dicator
de ps
re start
re cent
st b
Ġ" ("<
Ġ" ================
Ġ" ãĢ
Ġt odo
me t
er tificate
Ġf ive
def unc
ti g
ch ip
ut ch
pe l
Ġre pl
Ġre produ
ra di
ra ted
Ġm i
Ġe mb
Ġe of
li g
co ef
Ġw sgi
Ġ1 17
get header
get member
get peer
set sockopt
ĠL ock
ĠT E
is ys
IN INE
IN DEX
ĠA zure
sp ice
ĠD ARK
Ġx c
ĠF ound
AT A
pre serve
sh ap
sh ield
rain ed
Ġr w
Ġr fp
Ġr pc
dir Message
ĠP ASC
__( **
Ġma king
Ġfile list
ĠM ust
ĠM utable
ĠM ASC
Ġsh allow
ĠO MIC
Ġv ary
RA INT
ir on
Ġrange s
ALL OC
map ped
pi red
uple x
Ġmask ing
log o
10 22
AR RA
bo unds
base dir
gt cloud
ne e
tri m
tri grams
ĠRe size
string nl
cur frame
block size
Ġsub list
wait ing
Ġ". ")<
Ġmethod Name
iv es
update d
Ġ7 7
pl orer
mode ler
ref lect
ĠTest Optionals
\\ .
ĠCon dition
**** *<
Ġper mitted
OT ONE
Net mask
Ġpl at
UL INE
tic les
Ġfeat urizer
win error
exec v
Dataset Type
tra ffic
Py Long
du ctive
200 8
Ġmap per
stop ped
lic ing
ĠY EN
Get Highlight
ĠBase Options
bot s
Ġpatch ed
reader s
ĠConv Transpose
5678 90
27 4
Ġhttp d
Function Type
Ġinv ok
br ush
Ġdat atype
Ġindent ation
cert file
Ġlink s
Ġconf usion
mix up
XML Parser
rpc clt
Ġsentence piece
namespace URI
ĠHe ad
ĠHe alth
aut om
Ġsq lalchemy
CF WS
ĠCl assification
dele ting
BL IC
Ġge lu
Can vas
ĠWith out
Mo ve
CONST RAINT
DETECT RON
ulong long
ADD RESS
peer ing
Ġcondition s
cri tic
Setup Error
;& #
SIGN ED
UV W
wel come
Ġcover ing
Ġ({} )
SELECT ED
ĠTix Widget
Ġhapp ens
180 8
public Id
Ġallo cated
Ġconven tion
Ġmis match
WIF SIGNALED
ĠValidationError DescriptionTemplate
Ġbel ong
Ġlearn able
Ġparalleli ze
ĠExit Stack
OPEN SSL
IRW X
ĠWeak Set
petition s
pertur b
ĠFEM ININE
Ġgar ment
ABCDEFGHI JKLM
FREE ZE
WHIT ESPACE
ĠWE IGHTS
QRST UVW
ĠBRE VE
Ġ***************************************************************** *****<
aturization Info
\((. +)\
isys root
ĠPASC AL
ĠMASC ULINE
ĠOMIC RON
CONSTRAINT S
! ".
' ><
) ]))<
) }")<
- {
. ,<
/ _
/ ></
: ]))<
B ILINE
C md
C lean
F G
M od
N INF
P anoptic
Q Name
S HIFT
S LOW
T tk
W AY
a lert
b art
b link
c il
e ms
f u
f lex
f lickr
g ies
i si
i fier
j e
m ct
m PC
s poon
v oting
z c
~ \
â Ķ
å Ī
Ġ ER
Ġ utc
se curity
in vert
al ist
as ian
Ġt ied
ar ial
me asuring
Ġf used
ti cally
ch ips
ch allenge
Ġp ty
Ġp bar
ge lu
Ġn m
Ġn points
Ġs out
Ġin iti
Ġb po
Ġb ridge
ra mpup
si c
Ġm ul
Ġ( (("
Ġe cho
__ ):<
__ "]
__ ")
ad ap
un directed
Ġa ir
Ġa Rng
Ġ- <
ri pet
Ġd rv
Ġis crowd
ĠL ike
con ditional
is mount
Ġg rep
ĠS IZE
IN ISH
type id
() ))
Ġh d
Ġde gs
Ġde comp
ĠF B
sh own
im ul
TER MS
Ġr pm
app ush
ĠB l
key board
Ġse cret
Ġtype code
Ġpre fer
Ġstr uc
Ġget addrinfo
Ġsh lex
ĠE nd
ĠE arly
Ġimg ToEval
ĠH AS
call method
ĠG C
ĠG AMMA
Ġbu dget
10 6
ne gate
ĠRe fer
EN CES
22 65
Ġ10 2
Ġ8 1
ume n
Ġwe bbrowser
Ex pecting
Ġ| ".
Ġro unded
led ge
Ġsample rs
File Tests
File Input
(- (
scri bble
Ġ7 4
Ġ7 28
ref ox
man t
item getter
Ġfloat s
Ġad obe
Pro posals
socket s
Ġdoc strings
cv t
Ġext ras
HA RED
sen der
Ġmake file
Ġvar kw
fail s
org an
Ġsplit ting
Ġqu eries
Ġclo th
Ġloop s
ĠY our
Parser Create
Ġpack et
13 7
thresh olds
Path Like
ĠsetUp Module
dis covery
xml charref
ĠFor ward
Ġdown loaded
Ġwa ys
cp Error
nan s
Ġbet as
Po sitional
08 00
ABLE D
ĠTensor s
Ġimp l
indent width
ĠRE D
Ġabs path
PER ATOR
66 6
Ann Ids
:% .
Read Error
ĠTH ETA
ĠTH ORN
NOT IFIED
mag ics
ĠPo sition
ĠPo licy
"} ':
Ġep isode
WORK DIR
Ġinstall ation
App end
-------------------------------- ----
she ar
Exec Error
Ġsupp ression
ĠResource Warning
ĠString Var
Help Formatter
ĠFE AT
Ġplace d
Ġmp c
ĠCheck button
Pass word
Same Node
BOT H
Ġbo gus
SUP PRESS
pickling Error
remain ing
ĠMo di
irt ual
Ġtransp arent
RD WR
Ġmeaning ful
rece iver
pep per
affili ations
Rep Points
fic ant
Uni que
Ġidentify ing
Subprocess Protocol
å¤ §
DESCRIPT OR
Ġnl tk
ĠAction Data
æĺ ¯
ĠHO OK
ĠCLASS ES
getfile systemen
tax onomy
HEL LO
Ġnex tid
ĠKE Y
QRSTUVW XYZ
BILINE AR
ripet al
TERMS IG
" =
' d
* -
4 000
: {}".
B P
D uration
G F
G ame
J an
M is
O c
R ound
S Q
S ENT
S ized
S crolled
W TERMSIG
_ "):<
b ull
c read
c rypt
c ircular
d path
d ating
d ocker
d angling
e ither
f no
f ron
h f
k args
k all
k ely
m ic
n I
r nd
t x
w ide
{ \
} ]
} ({
ä ¼
æ Ŀ
Ġ ran
Ġ INTER
Ġ geometry
Ġ Keys
in structions
de cor
st dio
al ance
ar f
ar di
Ġf rac
Ġc map
Ġp ull
ge turl
Ġs len
Ġin s
Ġin serted
di l
Ġb dist
ut ter
Ġre pository
Ġe min
__ ',<
ad pcm
Ġa ge
one hot
ri ces
th res
ma gnitude
ss d
es ses
ĠL ast
ĠT otal
ĠT ypically
is alpha
is SameNode
to B
Ġg ind
ĠS ET
ĠS crolled
ĠS lurm
Ġlo cate
Ġcon secutive
Ġh test
ms gs
ĠD AGGER
ĠF lo
ĠF used
pre args
sh irt
Re peat
Re ceived
Ġr les
py th
py object
ĠP ower
ĠB BOX
01 41
In itial
Ġget buf
Ġy ielded
our glass
ĠW armup
ĠE V
check ed
pos only
12 6
oo ser
ac celerator
DE FL
unc er
ĠU sage
10 9
32 0
cor a
cor n
batch ed
ĠRe place
EN O
Tensor Storage
Ġal ive
IL T
11 12
Ġ| |
Ġcur rentid
ach es
Ġcol lected
default Cfg
Ġ{} .".
20 7
peci als
copy sign
Ġpy lint
be e
ml m
Res net
ĠCon catDataset
24 8
ĠPy Err
Base Net
]) ):<
201 3
To Id
Ġper sistent
SE CTION
cre ation
cre ts
header len
patch level
ang er
(_ ,
Ġjson lines
Ġz oom
Image List
dist illed
]] ),<
Exception s
async ore
Ġcmd line
pop left
=[" _
Ġcolor ed
ĠZ HE
Ch oice
PRO POSAL
ĠSt age
Comp iled
normal izer
Ġman ip
Th ing
ĠMy Int
TRA N
ĠRun ning
sym metric
Ġtri als
respon ses
EP OL
45 1
Ġshow s
Ġli kely
Ġprob ably
Float Operation
Function Def
Create s
BC M
Check s
ĠUser List
Ext ract
SIG HUP
YP TO
Log Record
ĠTh ing
ĠCom mon
Ġsuffix es
Aug mentation
CR F
XML FILE
Ġhow ever
ĠComp ile
modi fiers
Ġser ve
DS HARED
Ġsupp ly
orizont ally
ima te
Evalu ate
Ġopcode s
EC D
comb inations
ho les
ĠINF IN
Tree Builder
ĠISO tech
Ġcut mix
Ġyear s
Cookie Policy
LD FLAGS
pag inator
Ġstar lette
pot ato
/* ")<
tearDown Class
AIL ABLE
Ġsym metry
Buffered IOBase
OLD ER
ĠMet rics
Ġrect angle
TOKEN S
FOR TRAN
Ġdisc retization
Ġfore ign
View er
ĠABC Meta
pol ator
sla ves
spe ech
mut ually
Ġpublic Id
Ġdecor ate
Ġverb alizer
xxxxxxxx xxxxxxxx
NEW LINE
MAN IFEST
ĠClo se
orn Down
Change d
ĠCopy right
UPDAT E
UserResource Repository
Step LR
Has Attr
unre directed
NORMAL IZE
Dire ctor
ĠAN Y
pane configure
osmos Client
ACTIV ATIONS
SLOW FAST
isi dentifier
âĶ Ģ
ĠEarly Stop
xmlcharref replace
DEFL ATED
" (\
* "<
: >
= ()):<
B IG
B us
C Y
D id
D ig
F O
F OO
L i
L INK
O riginal
P oll
P IRC
S ide
T r
T itle
U rl
V R
Y es
] :.
a er
b lit
b rew
c text
d td
e o
e pilog
f x
h ood
l dexp
m illiseconds
n in
n lp
n world
o defunc
p it
p gen
p unctuation
q nnpack
s ol
t g
t name
v fs
y in
á ´
å ĩ
Ġ art
in sensitive
de cisions
re cipe
st ant
Ġ" ):<
le ast
al tered
Ġf lesh
Ġc ircle
Ġc kpt
en di
ch ime
Ġp et
Ġn df
Ġs pe
Ġs alt
Ġs sa
Ġin ts
Ġb as
Ġe dict
ad ditional
co uld
Ġa way
Ġ1 14
(" >>
qu oting
ul y
Ġd ts
Ġd ash
op ping
ĠL K
ĠT UPLE
Ġdi ffer
Ġg uided
ĠS pec
ĠS tri
ĠS tyle
Ġ2 40
data path
file B
Ġcon sider
ĠA u
Ġas ynchronous
Ġh omography
fe asible
ĠD ropout
AL ONE
ht c
ann ounce
Ġ3 60
ds l
per formance
Ġr s
dir A
yn che
ĠP R
ĠP U
ĠB OM
Test Runner
Ġpre set
ip ublic
In formation
In herit
ĠM E
ĠN T
ĠN um
Ġclass method
ĠW ork
ĠE C
ĠE mp
RE CV
ec s
") ],
") [:-
ator y
DE COD
reg ress
gra ve
cy gwin
Ġmask Tensor
ber ry
wa ve
bo Box
Ġkey set
Ġfe a
ener Director
"), ),
no se
Ġ8 8
UT H
Module Tests
)) ",<
Ġac p
ome r
Ġ7 1
IP ooler
ast ic
LO PS
ĠCon stant
local context
Pro gress
mon itor
seg ments
del attr
Ġ-- >
100 000
(_ ("
sw en
sw ig
Ġfirst lineno
200 3
full match
bad ger
Ġnet mask
ĠRes Block
ĠK lass
flow s
parent Node
Ġman ually
uni verse
Ġref ers
Th resh
Ġiou Type
Ġsy mbolic
dis cover
28 8
ĠMy Exception
ĠPO ST
Ġclose fd
Ġau c
Content s
FILE NAME
Ġip v
SSL Socket
Object Ptr
Ġrc pt
PAT TERN
ib ration
ĠCo mputes
fill color
same file
Value Terminal
Frame s
proj ective
rin cip
Gener alizedRCNN
Keyboard Interrupt
Ġconst ra
Ġgenerator s
setUp Class
Ġbranch es
"} :<
sem i
vers arial
remo ved
ĠCOM PRESSED
ĠFe aturizationInfo
ĠModule Type
Ġhy p
Ġsqu ad
Ġaccept s
arp ness
ĠDo main
Ġms gs
ĠTemp late
HR FPN
dy lib
Storage Service
ĠBACK B
mut ate
COUN TER
Validation Error
Ġwri tes
expl oration
Weak ValueDictionary
å® ĭ
Ġmicro seconds
Clip Sampler
äº º
ĠSu bject
ĠUpdate d
ĠRot atedBoxes
Ġvil bert
ĠContainerInstance Status
Ap prox
sof ar
sof tplus
ĠSend recvmsg
UPDAT ES
Upsample Head
reed y
mpo tent
Ġsan ity
ĠLogging Result
SCREEN WIDTH
ĠEXTEN DED
Leg acy
fba ipublic
ĠYH YH
apostrop he
universe net
fbaipublic files
' ].
) ]),<
* .\
, ).<
- ")<
5 0000
6 25
8 50
> .*
A da
B IDDEN
C ate
C Data
H omography
I con
L ines
M B
O ld
P list
R ING
S ta
S chema
T AB
T APE
Z H
Z one
] `
_ {}.
b ur
b tn
d P
f ar
f string
f bpcp
f ractions
g ge
g mm
i uv
l ith
m r
o ids
q content
r fp
s and
t up
w all
w sp
å Ĭ
Ġ ten
in crementalencoder
st ool
st ones
me l
Ġc w
Ġc ip
ro lo
ti x
Ġp m
Ġp th
Ġp list
Ġs un
Ġs nd
Ġs lots
di ce
it orig
Ġre si
Ġ0 5
Ġ0 6
Ġ( #
__ `
co ffe
co oked
co authors
Ġw ide
ort ho
(" |
qu o
Ġ- --
get tempdir
get AnnIds
Ġthe refore
th umb
th ousands
cl as
set Formatter
Ġis core
Ġst ashed
ĠL icense
ĠC HE
Ġg it
ĠS o
ĠS tem
Ġ2 007
ile stones
Ġcon sistent
ĠA p
ĠA ws
() )),
Ġh uge
ab bb
ĠD F
pre ference
Re quired
ew el
am in
Test EmailBase
ta ct
Ġres pect
time it
In sert
Ġan imal
ĠN CE
ĠN ORM
tensor board
ĠE nsure
are na
Ġl Pipe
ps oft
ild card
ĠV alid
ĠH AVE
comp name
RO LE
net rc
== \
Ġnew Pipe
EN TER
Ġcheck er
Ġatt rib
Ġla mb
url split
zip ped
zip fp
block ed
Data class
Ġ{} )
Ġ". ":<
Ġdo or
copy right
Ġsupport ing
be h
pl ant
top ic
Ġper missions
Ġcor r
SE Loss
cre dentials
find Homography
make trans
Ġone gt
OL DS
Ġval s
Ġwhen ever
trans ductive
template Name
pen size
first weekday
ĠĠĠĠĠĠĠĠĠĠĠĠĠĠĠĠĠĠĠĠĠĠĠĠĠĠĠĠĠĠĠĠ ĠĠĠĠĠĠĠĠ
Set Option
au c
Ġ", ".
ĠUn supported
ĠY EH
Ġup on
ĠZ E
Ġspec ter
clip board
rit ten
request s
23 96
CL R
ĠSe lect
spect rogram
Ġdis obey
search er
Ġrank s
Server Proxy
BU ILT
COL S
Ġtemplate Name
PL AYER
Ġcomple tion
With Manager
ffi ci
perm utation
area Rng
Ġchunk ed
Ġidenti fied
Header s
ater mark
display hook
Ġexit ing
ĠSh ared
Dis patcher
rag ma
Thread ing
fs decode
ï¼ ļ
Smooth ing
Ġnamespace URI
bi directional
Simple CData
TOP K
cleanup s
GG T
My Proto
Source FileLoader
XY XY
Ġimplement ing
Ġser ies
player F
player y
mi tive
Ġpick ed
Ġsqu ared
Ġangle s
MENT ATION
ĠISO gr
hu a
ĠDistutils ExecError
Ġdistribution s
ĠĠĠĠĠĠĠĠĠĠĠĠĠĠĠĠĠĠĠĠĠĠĠĠĠĠĠĠĠĠĠĠĠĠĠĠĠĠĠĠĠĠĠĠĠĠĠĠĠĠĠĠĠĠĠĠĠĠĠĠĠĠĠĠ ĠĠĠĠĠĠĠĠĠĠĠĠĠĠĠĠĠĠĠĠĠĠĠ
THRESH OLDS
Bar rier
ĠCl uster
ĠVideo FrameInfo
BLOCK S
MIS SING
Raise d
ĠOpen SSL
Ġori ent
NON BLOCK
Ġreason s
Ġissue s
Executor Info
Ġinstanti ated
NET WORK
ĠBe cause
Timeout Error
Ġcop ies
ĠClient Error
Ġpin yin
Ġsha Dow
ĠResult s
expl ored
motor cycle
ĠVis ual
EXIT STATUS
InlineKeyboard Button
XXXX XXXX
Ġedi ble
ĠMPC Instance
Ġaltern ative
cccc cccc
ĠNamed Int
stand ardi
bindings list
Ġbi directional
altern ative
pure lib
ĠFail ing
ĠSegmentation Mask
ĠExt ract
729 7
aggreg ate
POSIT IVE
Deploy ed
Pixels Param
Sen tence
NOP QRSTUVWXYZ
ĠRouteTarget Type
Lay ers
roped ge
getpw uid
endof text
assertList Equal
Ġinvok es
INISH ED
cvt Color
ĠAws Helper
WithManager Invariants
ĠISOgr k
) }"<
3 34
A IT
B an
C ut
D ONE
F i
H ome
I p
M icrosoft
N umeric
O CT
P G
P ush
R ol
V L
V pc
W M
] ][
a ise
c de
c compiler
d db
e h
f ma
f wd
h ose
k in
l g
l li
p listlib
s nd
w ok
x label
} '",<
in ch
in ct
Ġ" ))<
Ġt v
Ġt oday
Ġf path
Ġf map
Ġf ractions
Ġc he
Ġc el
Ġc rit
en es
en ubutton
ro sa
Ġn best
Ġs ched
di d
Ġb all
Ġb ird
Ġ0 2
Ġ( )),<
__ .<
assert Dict
assert SequenceEqual
ad a
ad aption
"< ?
un st
un ing
un pickled
test dir
test ring
(" !
(" **
one y
ze bra
get fqdn
el ts
th ook
Ġ[ ]:<
Ġ' [
Ġ' ',
set recursionlimit
um l
Ġtest case
int ro
int rinsic
ĠT SE
Ġto ggle
ĠC OL
ĠC Compiler
Ġ* [
Ġdi ag
to ordinal
ĠS SIM
IN CLUDE
Ġ_ )
et y
Error s
path like
Ġcon ver
ĠA b
Ġas yn
Ġde ta
AL ERT
ĠF ont
Re sidual
Ġcl usterer
Ġout line
ĠP air
Test PEP
ta u
ES SION
Ġpre defined
In correct
Ġy aw
Ġsh ap
ĠW ARRA
ĠE L
ĠE LL
check PixelsParam
") ',<
Ġun register
Ġv an
Ġim mutable
LE ADER
oo hoo
Ġassert Invalid
ĠV E
call ing
ĠG aussian
Ġbu ffered
10 4
32 6
wa its
Ġtoken ized
us hed
clo th
ST EPS
spa w
sub pkg
... "<
qui v
}, \
mat plotlib
11 4
MO ST
"\ \\
ust ic
ust omer
03 0
03 94
Ġcol on
Ġro ad
Ġsub stit
ren cy
)) \
Ġcomp ose
Ġcomp uter
Ġac cu
20 26
AD Authorization
ast uple
De vice
pl ural
Norm al
ĠTest Positionals
AN K
ĠCon trol
Ġj u
item configure
02 13
Ġad aptive
Ġle aves
Ġ) """<
ores ume
SE PC
SE COND
trace malloc
Ġback log
QU OTE
Ġ// =
win reg
Ġq content
Ġmulti threaded
Ġ9 8
US AGE
wh ole
factor ial
Py BUF
Py HASH
Ġerr code
19 00
Handler s
Ġinit range
full path
ĠY A
13 6
CN F
ash ion
ĠRes net
From Format
ĠDi alog
HTTP Server
Ġar ange
Ġsm allest
ud fff
Text Node
255 8
Ġact fn
Ġlib rosa
ĠPO P
KEY S
dat um
medi a
Message s
Invalid Param
tex coords
Doc string
Ġsen se
98 01
Ġtag Or
Ġvis dom
Ġvis uals
Al low
Train App
cer tificate
Conf Parser
ĠMe an
initial ization
Ġpri vate
"' ):<
Sequence Classification
Ġexpect s
bi ke
Ġfactor s
cut mix
Cl one
ĠLe mburg
CP P
operator s
sib ling
Exit Stack
Ġshe eps
Ġtake focus
={} )".
Ġcut off
ĠRO OT
Unicode EncodeError
alt sep
Ġmerge s
project or
fetch one
Channel Closed
ARG ETS
Copy right
inherit ance
ĠCustom Dataset
Match es
swap case
bet ter
Ġseparator s
Rot ated
Section List
assertNotIs Subclass
Ġappear s
EXTRACT OR
ĠUT C
tick s
SPE CIAL
Short cut
#### ####
capit als
IMAP Handler
ĠDeep Lab
ĠQUARTER S
aff inity
ĠMemory Error
Final ize
ĠSw ish
Ġ429496 7297
ĠAL MOST
CRL F
Ġstartup info
Semantic Head
ĠTra cer
Ġgrow th
ami lies
Ġpoin ted
Ġfas ten
00100 304
ĠAssign Result
ĠMA COS
ĠEmail Message
ĠHEL P
ĠDrop Path
umen ted
getfilesystemen coding
ĠPU BLIC
lith ost
ĠWARRA NT
ĠELL IPSIS
ĠtagOr Id
ChannelClosed Error
" -
' >
) "),
) `.<
, )")<
2 0000
5 30
A WS
B RAN
B ETA
B NotMeta
C AM
C aptionModel
F ROM
K ind
K ernel
N ull
P ED
Q Q
R at
S yntax
T cl
T ube
T ARGETS
U CE
V irtual
W ordPiece
W EXITSTATUS
] |
] ()<
a de
a ural
b race
c xx
d la
f ort
g ri
h A
i ficant
l ad
l just
n aive
o mp
o ops
r f
s ms
s aving
s ince
x W
x FA
Ġ jobs
Ġ rich
de rived
re cording
re wards
on o
le ap
al one
al num
as set
Ġi ma
Ġi mag
Ġc ard
Ġc rc
Ġc pp
Ġp asses
Ġp hy
Ġin crement
Ġin crease
Ġb and
ra dio
ing u
Ġm al
Ġ( *
Ġe ffici
un def
un pickling
un tagged
li able
test name
Ġw x
Ġw y
Ġw ave
el p
ĠL eg
ĠL ookupError
ĠT oo
con sist
is Id
il de
ile rs
Ġimport ant
ĠA ST
ĠA waitable
Ġas pp
sp m
fe rent
ET ext
Ġth in
ance ll
Ġr nd
sion Transformer
Ġme tas
ĠP CE
ĠB I
ĠB db
Ġget ter
Ġget pass
sc ii
ĠM ET
ĠM arc
Ġ/ ><
ĠW OR
ĠW indow
ĠE l
ĠE poch
token type
check Closed
check InvalidParam
ec ret
AP PER
25 9
25 56
back s
load Anns
weight ing
log ps
([ ]),
10 76
write row
Ġkey frames
tri u
ĠRe p
ING ET
new config
ume r
Ġhas hed
11 6
03 93
ĠIn line
eval Imgs
File List
Par ameters
Ġmin idom
Ġ6 1
AD DA
pl ugin
ĠTest Results
256 7
256 8
man ip
option flags
Key Dictionary
Ġat om
Ġpl ant
Ġzip import
Ġzip app
80 7
win inst
tra iler
not ations
tk console
vis uals
Image Sets
19 1
ĠĠĠĠĠĠĠĠĠĠĠĠĠĠĠĠĠĠĠĠĠĠĠĠĠĠĠĠĠĠĠĠ ĠĠĠĠĠĠĠĠĠĠĠĠĠĠĠĠĠĠĠ
multi ply
Ġ"/ *
30 72
Ġmo ment
As semb
Ġseg ms
thread safe
Ġgra yscale
ng f
Ġfol ded
teg ral
../ ../
:` ~
Ġnet D
Comp arison
Comp utation
Get SectionList
Sub Test
FC Model
fin diter
mk time
Temp dir
Text Q
255 2
Ġbyte order
Ġselect s
Ġ15 3
ĠConv olution
MAX LINE
hello world
94 65
Ġxml rpc
ĠQ uestion
ĠFile List
perm is
Ġport able
ĠPro gress
Ġtag Name
Ġli kes
SG I
document s
Output Layers
ĠFORM S
Ġpri ce
Ġinvalid ation
Resource Type
WR ONLY
Simple Cookie
Simple IMAPHandler
Ġ"| ",
setUp Module
hist o
And re
READ ME
GG ER
ĠStr uct
App lication
ĠSig moid
ĠToken izer
ĠModule Helper
ĠCol lection
ĠPre dictor
Ġhel lo
ĠRo berta
Ġlower case
ĠMask RCNNConv
constructor s
executor s
Count Var
Dep enden
Date Time
Ġcomplete ly
BL ANK
Ġhelper s
yes no
ĠMet ric
LOSS ES
Ġautom atic
ĠHel lo
integ ers
plat lib
gorith ms
aren cy
Ġinstanti ation
too ges
Ġrecogn ition
rouped BatchSampler
ĠCANCEL LED
ĠFCOS Head
Ġtw ice
Ġverb alize
Ġpur pose
ĠVis ualizer
ĠPi ckle
Ġener gies
Ġcen ters
Mail box
Ġadap ted
disassemb le
MON OTONE
ĠDetectron Checkpointer
ĠBoolean Var
Valid ator
ĠRa diobutton
ĠFrozen BatchNorm
glo ve
ĠCallback Query
Negative Sampler
Ġguarante ed
ales ced
ĠSoft ware
PRI OR
DEPLOY MENT
ICK S
Positive NegativeSampler
ABCDEFGHIJKLM NOPQRSTUVWXYZ
rincip al
Sta mp
BRAN CH
% "<
) ])
) (*
- ",<
/ {}
3 16
7 00
> /
? >\
A ffine
B Z
B ody
B LUE
C Python
C ityscapes
C ertificate
D on
E ach
G o
G db
G ather
H U
H Message
L db
M ar
Q k
R ounded
S UM
S cript
S crollbar
T arInfo
U sed
W arnings
Z a
\ )
] {
b read
d Dict
d Crop
e poll
h uman
i pt
k k
k l
k inetics
m nt
n w
p itch
p yshell
q ian
u ce
v els
y a
Ġ :<
se maphore
re tr
Ġ" âĢĿ
at he
al ong
Ġt ot
ar ti
ar rays
Ġf b
Ġc d
ch en
mp dec
mp eg
Ġp ragma
Ġin tensity
ser ialized
Ġb one
Ġb ri
Ġb bs
Ġre name
ra ctor
Ġm f
Ġm AP
un y
test Method
ue s
Ġw atch
(" ="
(" ***
ot a
get pass
get Element
Ġ[ %
ma intain
Ġ' "\\
Ġd d
Ġd ri
cl f
cl usterer
es ter
val minus
Ġst ops
od Wait
=" @
to ile
ĠS tep
Ġ2 008
lin d
lin der
data length
from utc
"] (
Ġas dict
Ġh h
par able
end tag
pro te
Ġ""" ),
Ġth us
Ġcl oned
Ġr h
Ġme di
ĠP RE
ĠP ORT
ĠB ut
ĠB oth
Ġma cosx
Ġma terial
Ġget last
ĠM ode
ĠM enu
Ġhe avy
Ġco ord
Ġk size
Ġen closed
max linelen
RE Q
check s
tes ted
12 51
12 52
attr getter
oo st
Ġwh atever
25 64
ĠR UN
ĠR CNN
Ġpass age
Ġpo ten
gra yscale
Lo cale
ĠG AT
32 1
lp adding
us al
Ġtext ure
clo uds
valid ator
... "
... ",
Ġgt Ig
ED T
-------- -+
Ġcol span
Ġsub len
Ġsub part
Ġsub nets
Ġne ither
create TempFile
create TextNode
20 2
20 21
iv ing
De mo
De formRoIPooling
Ġpi eces
256 1
256 5
tr ash
TEST MOD
(' \
TP FLAGS
Ġframe rate
top ics
14 5
bn ds
ocab Parallel
print s
IM AL
du ction
iss u
Class Attribute
Ġ"/ ".
DAT E
df as
30 8
Ar ticle
act fn
pop up
55 5
Ser ialize
ĠY U
Ġkeep dims
Ġdate fmt
23 12
Ġmod s
Ġbin dings
77 17
FA State
Ġsingle ton
(". ")
vars all
Ġref lect
Result Base
255 9
Ġab b
xml gen
Ġskip ping
ĠKey word
26 5
warn options
cos mos
Ġcoco Dt
Resize dCrop
chunk size
hand ling
PIP ELINE
Max imum
Ġvi x
ib m
display name
dire ctive
Dis allow
Ġden om
:% (
mach ines
Method Descriptor
Ġfill color
Ġcustom ize
Division ByZero
ĠAd ditional
ĠAd aptiveAvgPool
AND ARD
Source Equal
Ġcre ator
ĠText IO
Ġrescale d
Ġview s
Mapping Protocol
gy m
sur vi
}) ;<
ĠStop AsyncIteration
LINE AR
Ġind ptr
ĠDistutils OptionError
profile r
timestamp s
Ġvisual izer
Ġvisual ization
FEAT URIZER
ĠAsync Client
roll ing
Shared Memory
monot one
dele tion
)". \
Def ine
Ġensure pip
reason s
=\ "
velo p
Ġlook ing
fol ding
Update Model
pol ys
ĠValue s
EMBED D
Ġba seline
rule s
199 4
Ġscan dir
ĠDetection Checkpointer
Ġuniform ly
instr ument
Ġpur poses
BIT S
Ġprop ortion
zzzzzzzzzzzzzzzz zzzzzzzzzzzzzzzz
Ġedi table
ĠAnchor Generator
research er
Ġ655 36
sendmsg ToServer
oken izer
Recur sionError
Ġeig en
ĠAss ume
ĠWID GET
Finish ing
HTTPS Connection
assertAll Raise
erci on
Ġswe et
Decl Handler
Ġ42949672 96
Tr uth
dP wBnAct
standardi zation
Gdb Repr
Ġgetlast sentence
' ])<
' )"<
+ |
, -
. )\
: [
: ]),
A x
A ss
C HARACTER
C GI
D ays
F ace
F OLDER
G H
G uid
M aster
M orsel
N UL
P rop
P ull
P olygon
P ublish
R ounds
S c
S ort
S PAT
S END
T iming
U IS
V ED
` """<
a ft
b ak
c lic
d nd
e u
e ol
e quence
e Hh
g un
g ol
g oo
i w
n Context
n gettext
o gb
p go
s NaN
t R
t state
t ank
t ortoise
y z
y thon
} ')<
Ġ 9999
Ġ qualified
in coming
sel ves
re a
le aved
Ġt ape
Ġt au
Ġi de
Ġf ox
Ġf oot
Ġc rypt
Ġp tr
Ġn y
di e
di ts
Ġre shape
Ġre cipe
ur ations
Ġ( ((
Ġe ffective
ck y
assert SourceEqual
assert GdbRepr
un its
un locked
un ordered
li d
li fe
li ve
la ze
Ġw oohoo
Ġa waited
(" ====
(" !",
(" ï¼ģ",
qu a
ot o
ri ched
get signal
get uid
get cw
get preferredencoding
el net
Ġ[ *
ma ker
cl br
set ContentHandler
es cr
ate xt
ĠT F
con ut
con tour
Ġto c
ĠC NT
is finite
Ġdi versity
Ġg z
Ġg uard
ĠS ince
IN VAL
IN ITION
Ġ2 99
ER U
et ing
et ter
Ġlo ose
from list
file link
ĠA IX
"] :
add Test
ĠD ST
Ġx l
end or
out h
ve a
AT IVE
bu dget
Re direct
per colator
Ġcl ones
dir B
ĠP attern
ĠP ascal
mask ing
Ġbe haviour
Ġse titem
Ġse mi
ĠM esh
Ġ4 6
Ġ4 80
Ġhe alth
Ġ/ ></
ĠN AM
ĠN ull
ĠE ng
ĠE picKitchen
Ġen tered
RE AL
Con catDataset
Ġv m
12 1
Ġl hs
25 55
instance sonly
lit ude
lib mpdec
temp file
pi e
rep are
fix es
cor ruption
Ġparser s
clo ze
ne ver
alle ry
sub tract
comp ose
RO UTE
RO IAlign
Ġnew Child
04 42
ride nt
22 33
Ġ8 2
Ġal o
Module Conf
11 0000
AS ES
Ġsample Logprobs
open cv
ĠIn it
Ġ{} .
Ġdo it
Ġ6 2
Ġ6 00
Ġ7 68
256 2
Ġ"- ")<
Not Supported
xy zzy
Un register
top level
top visible
mock s
lim ited
Ġinter sect
HE LP
(* [
Ġback slash
MA COS
Dataset Mapper
sw ritten
Ġobj s
US S
factor ing
IM PORT
uff led
Loss Computation
PN P
Ġerr write
Ġfin ite
gram ian
Ġqu oting
http d
EL U
hash digest
18 8
ĠY ERU
Ġgener ates
Ġevalu ates
INF ERENCE
Run time
zz z
Ġar rs
44 8
lower case
Ġelement wise
1234 567
change me
Ġcrop ping
FC Head
mk temp
92 8
255 3
Ġab ort
ĠST REAM
ĠST ANDARD
ĠCh ain
Multi part
Multi StepLR
Ġconvert ing
cr pe
Ġshow error
Ġpas ted
common Name
Header Error
Su ccessful
ĠBert LayerNorm
resize mode
hy pot
hy dra
track ing
DEF INITION
66 7
Ġ"+ -----------+--------------------------------
Template Error
ĠBy te
cura cies
extract all
WR APPER
ĠAP PEND
bi lities
Example s
SM ALL
ĠAd ds
Ġcell spacing
mal formed
ĠComp onent
super net
'] ",<
ĠCol umn
STREAM TAPE
emb s
tab nanny
"^ (\
Ġdot s
GN UT
lex ists
Auth entication
Pri vate
Post DB
10000 000
SH UT
ĠDep th
Ac cept
ĠUp Down
Rel u
Predi ctions
START ED
FB Net
Ġdescri bing
ĠInter rupted
ĠassertBad Netmask
Trunc ated
illed Pattern
Deep Lab
Ab out
SELECT OR
SHA RED
ĠGenerator Exit
Sync BN
ĠCUDA Extension
exce l
Standard ROIHeads
ĠMS VC
First Stage
POL IC
ĠMin imum
Pe ering
SW IN
RCNNConv FCHead
aaaaaaaaaaaaaaaaaaaaaaaaaaaaaaaa aaaaaaaaaaaaaaaaaaaaaaaaaaaaaaaa
---------------------------- +\
Modi fy
ĠPack ed
Ġ'. '
Ġcompo sed
instanti ate
ula w
Execute Sequence
Ġquanti les
RESULT S
eal ing
nframe swritten
ĠFixed Offset
CIP HER
Av ailable
Ġinvoc ation
SCHED UL
ĠEV ENT
endi f
Ġcel lpadding
ĠInline Query
valminus minival
SPAT IAL
UIS equence
Ġ"+-----------+-------------------------------- ----------------------------+\
! [
" $
& #
+ %
, %
, ")<
, :,
. -
2 99
2 95
3 128
5 002
9 01
9 02
= ")<
B art
B ird
C lamped
E Q
E ven
E astern
J itter
K T
K ER
L N
L VIS
P h
P aren
S B
S el
S FT
S lice
S peed
S AGE
S ESSION
T anh
T rolo
U ES
U RO
V y
[ ~
[ ^\
b es
b low
c map
f map
i li
j ewel
k ite
l ane
l arger
m F
p unc
p ager
p rune
s aturation
s atellite
u DC
w ing
x it
y lo
y aw
z fill
in i
in ps
in ops
in Core
in iti
or ph
)< /
te ra
on gs
st s
le mburg
al gorithm
as dl
Ġt ic
Ġi w
Ġi mb
me asure
er ic
Ġf f
Ġf all
Ġp v
Ġp ortion
lo se
Ġs re
Ġin sertion
Ġb lo
Ġb rown
Ġre con
ra zy
ur ize
ur ns
Ġe md
__ ]<
un g
un wrap
un finished
un pickler
Ġa z
Ġa zure
ri l
Ġ[ --
name nt
Ġd ct
cl assifiers
es pan
po sitives
Ġst rategy
od der
orm ode
ĠL ambda
ĠT arget
con tours
con fidences
=" ?",
ĠC ERT
is alnum
il ters
ĠS ampling
ca bin
ol low
type check
Ġcon crete
() ",<
ex ited
Ġh A
Ġh flip
Ġh dr
ĠD on
ĠD if
out dir
ĠF r
AT H
fo vea
pre amble
sh lex
Re ference
ĠP cpError
ĠB O
Ġnum s
__( (
Ġ% %
Ġpro mpts
Ġlen s
In ference
Ġget Hitmask
Ġ(" \\
max Diff
we red
we bbrowser
Ġch anging
Ġun ary
Ġun specified
Ġsup posed
format Message
Ġprint able
fa ulthandler
ĠH ourglass
ĠG oogle
ĠG UI
red dit
Ġkey ed
Ġfe asible
sub part
== =<
ĠRe LU
Ġnew val
Ġcheck sum
Ġ8 5
Module Spec
// //
func name
Data Processor
var names
Ġmin imal
link name
link age
AM P
Ġpy io
Ġ7 8
Ġ7 9
do Recvmsg
Se parator
ĠCon verts
24 6
Ġj accard
local Name
Conv FCBBoxHead
AB BB
Ġreg ress
He ap
Ġcor ruption
UM ENT
Net V
mark down
Ġdoc tests
patch ed
14 0
source file
Ġstd dev
US ION
Py Unicode
Py Arg
last Event
pen cil
first Child
The se
06 0
06 25
ĠUn known
=[" -
Ġlocal Name
Ġty pename
pc d
23 1
Ġar row
ba con
1234 5670123456701234567012345670
ĠSe m
Text Tokenizer
Th u
Th an
Th row
buf type
Block ingIOError
xml ns
Option Menu
so up
Ġfull path
medi ates
Ġtra ces
cent ripetal
94 1
assign ments
Message Content
ĠCh ri
Po six
With Generator
With GN
Ġform al
yy y
cr ash
OUT INE
Ġus able
display of
Ġ"[ \
Pool ing
Ġpost s
COM PAT
Ġinv oking
Ġ"# ":<
ĠResNet Basic
("_ ")[
font size
ĠUN IX
med line
Ġunder line
attrs NS
HI DE
Ġremo ving
Ġlink age
Gener al
Ġcustom ized
tip window
Ġ"\\ ",
"} ),<
ĠBad Seq
SU CCESS
Ġmon ot
Do e
ĠFast RCNNConvFCHead
merge s
Ġsupp ressed
ĠFe ed
Helper s
(", ",
ĠPre Trained
Ġdesc r
DI FF
Ġsn ippet
ĠSH CHA
ĠMask ed
BE GIN
profile e
Ġbg color
Ġpe ople
ln gettext
ĠLO SS
pas sed
IDE NT
Def inition
heap q
inte ractive
alias ing
Buffered Reader
ĠModel Catalog
FOR BIDDEN
dep ends
readable Test
Predi cate
desc r
ĠâĢ ĺ
Back ground
ĠPolygon List
%% %%
Ġsur rogate
assemb ly
ĠSample Class
icon ify
tool tip
ĠEval uation
RC PT
Ġwarp field
Methods Test
ĠWeb Socket
Ġes pecially
Ġassume s
Browser TreeItem
Ġtran sition
0101 0101
ĠHAM LET
FR UIT
Report ExecutorInfo
ĠGra dient
Ġretrie ve
Bin ding
ĠClo ud
Ġrespon ses
MIC SFT
ĠOp enerDirector
amfer Distance
è¯ Ĺ
ĠAdaAtt Core
Ġgap Y
Prefix Mapping
Writ ten
ä½ ľ
TRANS FORM
diag onal
dimension al
ĠDensePoseChart Result
YYYY YYYY
ĠDec or
Ġparalleli sm
ĠVi ew
Ġintern ally
instanti ation
Ġ110 25
HAND LE
cla use
Ġflappy Bird
MODUL ES
ĠSpecifi es
ĠExp and
Arch ive
-------------------- ---+\
Shape Spec
FAIL URE
Ini File
ĠWrap per
ĠLabeledVideo Dataset
seti timer
Ġ"+-------------------------------- +----------------------------------+
MN IST
Ġsilent ly
Hop Limit
Mod al
ĠINFIN ITY
ĠTestPositionals Nargs
Ġeffici ency
ĠMaskRCNNConv UpsampleHead
BLANK LINE
toile t
Timing AlmostEqual
WithGenerator Invariants
Ġ"+--------------------------------+----------------------------------+ -----------------------+\
" __
$ %
) {
) (<
. (
2 15
= __
C UT
C DATA
D ST
E p
F RAM
H and
J j
J IS
M TP
O LO
S ock
S AME
S mall
T IP
] ._
_ {}".
` )<
a ca
b db
b ank
c rit
c irc
d k
d ress
d uplex
e op
g auss
h omonymity
j am
k nee
l gettext
p end
p resplit
q rt
r sub
s ter
s op
t an
u fb
v ors
x lo
z ones
} ?
} |
} }",
å °
è Ģ
Ġ served
Ġ serving
in formation
in clusive
de scriptors
st raw
Ġ" ),<
al ready
Ġt aking
er ver
Ġf fi
Ġf ov
Ġc data
def ines
Ġp lastic
Ġn i
Ġs ay
Ġin struction
ser ies
ser Scan
Ġb alanced
Ġb ootstrap
Ġo dd
Ġre v
Ġre cording
Ġre projection
ra b
ct o
__ ]
assert TimingAlmostEqual
Ġ1 75
qu x
get s
ss um
Ġd ropedge
cl assi
ate xit
po ems
Ġis lice
Ġst retch
Ġ+ +
ĠT ABLE
.< /
ĠC C
ĠC Test
is k
il ation
Ġg rouped
ĠS ER
Ġ_ (
et ype
Ġcon tour
ĠA UTH
"] ],<
Ġas n
Ġh m
Ġh ull
ĠD WORD
ĠD erived
ĠF OR
ĠF TP
ĠF LOPS
ĠF illedPattern
str y
pro vides
Re mote
ance Tests
Ġel s
py pi
ĠP ass
ĠP ix
ĠB ool
ĠB alanced
Test Class
ff t
key log
Ġbe h
In dent
read buffer
Ġargs pec
Ġhe ld
Ġco oked
ĠW rite
ard less
ext rinsics
Con tours
") (
") ()<
Ġv env
12 9
RA CE
ir n
ĠR educe
fa cts
den tial
Ġint r
Ġsize d
>> ")<
Ġpo sitives
Ġ` __
lif t
cor outines
[:, :,
ne ighbor
sub interpreters
tri eval
ĠRe ference
Ġnew ly
04 7
04 47
cur rentid
Ġ. /
nd f
Ġ8 6
Ġsub directories
Ġcomp rehension
sup p
Ġerror file
link er
=( ),<
tern esses
Ġgroup by
Ġsc rib
av ail
man ent
man agers
option db
row se
Ġno ti
Ġ... ,<
Ġend point
Ġle af
pect rogram
lim mable
Ġrandom ness
socket server
Ġpl ural
QU IT
Ġq as
Ġmulti bytecodec
tiv ity
prob a
Py Bytes
Ġapp lications
loc ity
ĠĠĠĠĠĠĠĠĠĠĠĠĠĠĠĠĠĠĠĠĠĠĠĠĠĠĠĠĠĠĠĠ ĠĠĠĠ
Ġ`` .
dist ractor
RES ET
Sample Class
Ġassign ments
assertNot HasAttr
status Code
Ġanchor ing
Ġcolor db
Run s
Ġsrc dir
23 7
Ġar ithmetic
gon al
ba seline
pass age
ĠSe ction
Result Article
Le arning
86 5
compress level
("% .
Ġclip ping
Ġskip s
35 7
ĠJ E
Ġclose st
graph sage
nb est
Ġmy dialect
76 5
76 9
WOR DS
Ġidenti fiers
Default Root
Ad ds
ASS IGN
setup tools
ĠSh ow
Frame works
install ation
Ġlock ed
RL IMIT
ĠEn ter
END ER
ĠTh readableTest
47 75
ĠAd ded
Ġexpand ingbutton
App lies
ĠFast RCNN
she eps
ĠRandom ly
sn i
Ġrest ored
Ġdesc end
Unicode DecodeError
FD s
Ġ[] }<
separator s
ĠCl usterer
Pri mary
COR OUTINE
Ġfeed backs
Ġ"! ",
surrogate s
ĠDo uble
Ġfig size
ĠSO CK
Ġ"(" :<
Ġlook s
Ġdisc ard
SY STEM
ä¸ º
PA RAM
triple t
Ca ffe
abcdefghi abc
Ġlatent s
Ġcomparison s
Section Error
("\\ ",
Ġcalc size
ĠZip File
Coun ts
Ġvari ant
iti ze
INS ERT
Last Stage
Weak KeyDictionary
aly sis
ĠLog Record
PK CS
Ġæ Ŀ
rece ive
Support s
Ġdependen cy
Ġprece ding
ĠBinary MaskList
Ġbel ongs
Inte rest
}- {
ĠJo in
More Data
ĠAU G
Ġdead line
33333333 33333333
Language Model
PASS WORD
LITERAL S
ĠDef ines
Ġplay ing
El lipsis
Ġol der
Ġappli ance
JOB S
Ġanaly ze
Ġfav or
zomb ie
Ġear lier
Ġsho ulder
sever ity
036 85
ĠFlo odWait
gge red
ortho gonal
eh lo
ĠLeg acy
ĠInterrupted Error
ĠInlineQuery ResultArticle
FRAM ES
Ġscrib ble
! =
" ([
' ).
. ',
/ ./
1 999
2 13
4 30
: (
B rightness
C SE
D IL
E dit
E scape
F RACTION
G ID
G ELU
I o
I BLE
I MODE
L ATIN
L ANG
M otor
N AS
P B
P ut
P ART
S y
S qu
S ince
S tooges
T mp
T UAL
T MP
W ANT
` )
` ."""<
b is
b undle
b atter
c flags
d ining
d ynamodb
g Id
g cb
h end
i als
i mplemented
j acket
n bar
o ort
o il
q sl
r ts
r floordiv
t or
w asher
y label
y ond
} ;
} ."<
å ·
å º
å Ĩ
ç Ļ
ç Ń
è ĥ
é Ĺ
Ġ ent
Ġ ON
de g
de legator
de clarations
st reet
Ġ" ï¼Į",
as in
Ġt ight
ar i
Ġi label
Ġi ll
Ġf x
Ġf ac
Ġc ircular
ro ps
ti f
ti s
Ġn cols
Ġn ntplib
Ġs it
Ġs cor
Ġs aves
ce l
he appush
Ġb an
", \
Ġm illi
__ ).
un sort
li fied
li sted
test string
Ġw d
Ġw w
Ġ1 18
(" (")<
ot Meta
get context
es sel
es tero
Ġ"" ")<
ĠL AR
ĠT u
ĠT YPE
con ky
=" !
assertEqual Exception
ĠC NN
is in
is hes
Ġ* .
to aster
ĠS SD
Ġ2 60
ER Y
data written
ise d
Ġcon ditional
Ġex ited
sp lithost
Ġ{ **
() ;
Ġh int
Ġh air
Ġde g
fe e
Ġx e
est ing
ĠF ull
pre train
Ġ3 65
Ġ""" [
True Sorted
ĠI M
Ġme l
ĠB L
ĠB reakpoint
ĠB ounding
Test ableTest
os f
Ġpre ss
Ġpro totype
time spec
In complete
Ġstr ftime
Ġget state
Ġ(" #
Ġk nn
ĠN ext
ĠW ait
module name
Ġun aug
ĠO E
ĠO per
Ġv ox
Ġv essel
Ġwh o
ac lose
Ġset locale
ir ation
lib name
Ġon to
load txt
ĠU RI
ĠU DP
ĠU KRAINIAN
ĠH o
ĠH ARD
rep lied
([ _.
cor k
cor ruptions
Ġtext variable
=[ ])<
St atistic
float s
start Document
64 4
ump tions
split type
... ".
unt r
Ġline end
04 34
04 30
EN C
new win
Tensor Op
cur rency
ion s
Ġ10 8
Ġ8 3
tin u
Ex clusive
ill board
AS Y
CO Y
Data Handler
Ġro unds
arch itecture
)) ",
Ġconfig urable
Ġopt menu
Ġ6 72
Ġcall tip
pack et
Se m
Se ek
ĠTest Get
AN otMeta
Ġtemp lates
Un derflow
ĠPy Test
(' %
Ġle ad
ated Main
make Suite
CK ER
Ġrep lication
14 8
Ġshould Throw
IR outer
IR TUAL
Instance Norm
Ġsign ificant
Ġtop most
not ation
side s
Ġz z
Ġz open
ĠĠĠĠĠĠĠĠĠĠĠĠĠĠĠĠĠĠĠĠĠĠĠĠĠĠĠĠĠĠĠĠ ĠĠĠĠĠĠĠĠĠĠĠĠĠĠĠĠĠĠĠĠĠĠĠĠĠĠĠ
sl ashes
multi line
dist illation
]] ")<
]] ]<
Ġmo ved
As Tokens
down sampling
Ġdate s
ĠK AF
ĠDe le
ĠAt tribute
Down loading
Get opt
(". //
ĠImage s
ĠBase TestCase
mk fifo
uni fied
Text MessageContent
28 7
Cleanup s
place holder
Ġfi re
xml rpc
Sequential Sampler
Ġlib s
Ġdt Ig
EV AL
For Conv
hi er
Ver sions
NS IG
gener al
Ġtag name
locale conv
Assign ment
)] ")<
234 5
Ġ"[ '
partial method
Fe b
Pipe Error
ĠEn coding
inst alled
END S
Log its
Ġregion name
Async ContextManager
Ġve lo
Ġword piece
ĠAP IRouter
Ġ"| ".
predictor s
72 03685
Sp a
ĠBad Cmp
Encode d
App le
Ġbound aries
super vision
she et
Exec ution
sur f
semb ling
visual ization
quiva len
tab size
New Empty
ĠNE I
Command s
ĠFake Path
ĠFake Runner
Ġbit wise
Ġlet ters
ĠPost Tortoise
ĠLabel Frame
Ġinsert s
Ġscope s
Ġescape s
Ġperm utations
CONT AINER
mount point
PyObject Ptr
ĠAT SS
HR Net
Ġnecess arily
Custom Dataset
Ġdisc arded
Ġorigin ally
Region Size
SUB STR
AV A
ĠSequence Matcher
serial izer
ĠBot tom
ĠSystem Error
ĠImple ment
Bot tom
ĠHy brid
DEV NULL
DEV ICES
ĠPi pe
ĠPool ing
Ġduplicate s
Ġproble ms
produ cer
Mail dirMessage
bracket ing
Translate Y
Ġcaps ById
Datagram Proto
ĠExec ute
ĠSw itch
Cascade RCNN
Ġpropag ate
Sys Path
ĠAU DIO
ĠDate Time
ĠSim ilar
Bo ard
incremental decoder
Ġkwonly args
DET AIL
aco ustic
Ġ"../../ _
Are a
Mac OSX
ĠPredi cted
CIF IC
irth day
ĠTimeout Error
Ġwhe els
abyl Message
VIE W
Ġimpro ve
ĠFEAT URIZER
fron tend
PIRC Command
Rol lover
spaw ning
Tempdir Manager
ĠProgress Meter
2233 7203685
factoring Tool
ĠColumn ParallelLinear
SCHEDUL ER
ril lic
classi fy
estero v
NewEmpty TensorOp
22337203685 4775
$ \
% \
' )"""<
) `<
* ")<
. :<
/ __
/ >")<
3 14
3 77
3 042
8 64
= ((
? [
B UT
B US
D ONT
F USION
H ay
I ED
L AST
L iteral
M ONT
M SELoss
N I
P AD
R ender
S i
S RC
S ynchronizedBatchNorm
T CL
T CLASS
U tilities
] ])
a B
b h
b po
c msg
d Temporal
e ast
e lectric
f ly
f urther
g mail
g fl
g reater
j i
l tr
l chmod
n line
o S
o y
r glob
s cl
s nan
u cs
u lates
v v
w arm
y our
{ :
} )")<
Ġ RAND
in lier
in omial
te l
sel y
re dir
re tries
st or
st able
st dev
st rategy
Ġ" >",
le ts
al aw
Ġi ps
me tal
Ġf y
Ġf req
Ġf lex
Ġc dw
en et
ro be
ti ca
lo ose
Ġn k
Ġn r
Ġin jection
ce iver
Ġb ob
Ġb tn
ut ually
pe s
Ġre load
Ġre tin
Ġre shaped
ra ses
ra ffe
Ġ( ","
Ġe w
Ġe pilog
assert Run
un bound
co bj
test Recv
la ck
Ġw ai
Ġw ins
(" ;
qu ant
get root
get var
get host
el bow
ul br
name replace
Ġtest Read
Ġ"" ])<
ĠL C
ĠL ightning
ĠT orch
ĠT akes
put header
=" (
=" ")
to w
to oth
Ġg x
ĠS uch
ĠS quad
Ġ2 20
Ġof ficial
et ag
ĠA V
"] ],
"] }),<
Ġ{ _
() ',
() `.<
par ing
ase d
ĠF i
ĠF IRST
"" ".
Ġr ts
Ġr tol
Ġme ant
py file
py av
yn umber
ĠB o
ĠB YT
01 30
Ġbe yond
ow l
Ġma intype
ape d
Ġpre ference
ĠM box
ĠM ASTER
Ġclass dict
ĠE URO
Con sole
oc p
mo bilenet
") )),<
") )),
Ġch an
Ġ"< !--
Ġset code
Ġl dt
Ġl atter
ir ds
25 000000
Ġlist ing
ĠR PM
ler s
ĠU ses
ĠH W
Lo gs
ĠG e
log dir
Ġmax Det
method Name
Ġkey list
cor pora
St atisticsError
tri b
64 6
no sigint
04 00
04 12
04 32
04 38
ag ation
Ġ8 7
IL ITY
11 9
zip f
zip importer
16 3
ug ht
03 5
03 00
ren code
Ġne ighb
Ġcomp name
Ġcomp ound
50 7
Ġid k
parse addr
AD F
Ġ7 36
Ġblock Map
ref er
ĠTest Set
ĠTest Client
Ġ"- //
tr ust
Ġtemp orarily
List Box
Ġj it
Ġ... ]
(' "',
Ġmock s
old args
]) ).
Ġcor relation
Ġinter rupted
Ġinter faces
cre ator
Ġread into
Ġrep laces
Co co
Instance Masks
Ġq names
color ize
tra ject
En able
En dian
IM IZER
Py Exc
ĠType dDict
CH W
sy mtable
stack s
Ġ"/ ":<
Ġdist s
]] ):<
rect angle
06 1
SS IZE
gen ame
Ġkeep ing
FI REWALL
Ġcolor ize
ĠRes Layer
Context Block
Context Var
Ġmod ality
CL IP
serv es
ĠDefault Context
ĠSe lector
(". "):<
Token izes
ROI FeatureExtractor
86 6
Ġdis position
platform s
ail ment
bl ks
Ġ15 1
short cmd
Ġtra cers
evalu ated
respon ding
Ġcoco Res
Ġtemplate Version
PL ACE
With Con
27 0
27 3
attack ed
ĠPro vide
fmt str
Call List
warning registry
diff lib
ĠTensor board
ĠCo co
ĠCo mpu
fake http
Ġdisplay ing
Ġbad value
BC D
BBox es
ĠUser s
IF ICATE
sim ulated
rin king
ArgumentParser Error
Pipe Transport
Per form
Per Worker
Ġreal name
Ġremo val
ĠTO P
Ġmark ers
Ġve getable
Sign al
ĠName space
Sequence Class
Ġaverage d
Input TextMessageContent
Ġwin k
CR YPTO
Ġcompute IoU
Ġoptim izations
SOCK ETS
subclass hook
ĠBad Int
gi raffe
Single StageDetector
modi fier
]+ )\
ĠFe b
'] \
Ġthem selves
Identi cal
Ġpop up
ima ted
Ġiterator s
Ġnume rical
ĠSub process
Ġdump ed
comb ined
Ġmach ines
ĠTk inter
State Error
SP RING
Ġshell Quote
Ġdot ted
ĠRo le
Widget Test
Send msg
ĠGPT Model
Ref used
Named Int
Named Item
project s
Ġge odists
ĠDep loy
BIN UNICODE
Ġswitch board
ARG UMENT
Update s
gui ded
but ter
ole tes
ĠInter polation
EB ADF
ĠCor ner
getsock opt
spe ll
Ġestima te
ĠZip ImportError
Chart Result
coordin ates
Ġdetermin es
ĠAddress ValueError
sho e
Ġwater mark
Ġactiv ate
ĠLinear Regression
Part y
ĠPatch Embed
Ġmicro second
Ġ'/ '
Ġcau sed
MEM ORY
ĠSCREEN WIDTH
Conn ected
ĠJo hnson
Ġpropag ation
ĠDensePoseChart PredictorOutput
ĠAnn otation
PreTrained BertModel
CIF AR
ĠMan ager
alph arep
ä» Ģ
åĽ ŀ
authenti cated
Dynamic LossScaler
SDK s
Scor er
ĠNeed MoreData
ĠConvBN Relu
ĠDES C
synonym ity
Ã¡ÃłÃ¤Ã©Ã¨ÄĻÃ¶Åĳ Ã¡ÃłÃ¤Ã©Ã¨ÄĻÃ¶Åĳ
getpeer cert
flex ion
ä¼ ļ
ĠCompile Error
Thresh old
Ġresi zing
coffe e
Assemb ly
ealing LR
KER NEL
ĠBL ACK
COY OTE
dTemporal Kernel
utually Exclusive
' )")<
) `,
* "
, )):<
2 94
4 37
> }
> {<
A IX
B J
B oolean
C Converter
C gk
D G
F LOW
F KC
G e
H alving
J ust
P ort
P lus
S A
S AVE
U KRAINIAN
V IRTUAL
W ILE
Z LIB
[ "<
] ;<
_ {}_
` ):<
b roc
c ig
d cd
d rag
g ing
g ps
j acency
k size
k sum
l shift
n B
n sp
n ll
r file
r hy
s am
s addle
t ind
t runk
v an
x H
y u
z illa
} "]
å ¥
æ Ģ
in cr
or ous
te lnet
de rable
st file
le ader
Ġt ortoise
Ġf ar
Ġf ich
Ġf aster
Ġc python
ro unds
lo cated
Ġs info
Ġs licing
Ġin complete
di cate
Ġb road
si p
Ġ( ),<
Ġe mp
Ġe yes
assert Failure
un specified
li ers
co li
ri bs
ri ger
get lines
ul p
Ġis dir
Ġ"" ):<
od ata
rom an
ĠT ASK
ĠT EH
=" [
res olved
ĠC B
is ters
ver i
ver ti
ver sioned
Ġg an
Ġg ui
Ġg reedy
IN V
Ġ2 002
ig ure
ER IC
Ġlo cs
ĠA SP
ĠA IFF
Ġex peri
Ġex cluded
Ġh o
Ġh orizontally
import ing
ab et
ten sil
est s
ĠF I
ĠF ault
ĠF OO
ent rant
fo bj
pro ps
pre tty
bu ff
Ġth ickness
per l
Ġr m
IT LE
py io
ub set
ĠP laces
ĠP VP
ĠB ig
Ġ% #
Ġ% =
che ss
01 61
Ġse ctions
Ġse curity
sc anner
read all
Ġ(" >
ĠM at
mb cs
Ġco at
Ġk er
ĠW ARN
RE LE
we ird
check Recvmsg
ces sible
ĠO f
Ġim utils
Ġfrom Hex
ac cepted
Ġl psoft
ĠR W
ĠR and
ĠR ights
OR DER
reg ory
pi zz
load Res
Type Token
label Name
ĠG IN
Ġ` ``
Ġ` ``<
base string
Ġare na
alle t
sub normal
sub mitit
tri vial
ĠRe set
no ti
... ]
run Test
}, "<
Is Value
Ġ8 9
tim ings
Ġal ter
process ors
iter keys
IL LE
CO ER
main loop
sg cn
frame size
DEL TA
copy fileobj
Ġ{" _
Ġ7 3
Ġ7 04
Ġmsg ids
Ġcontext manager
ĠTest Ch
ĠTest EmailBase
opt dict
iz able
Ġ12 6
Res olution
Res ources
Res olver
Ġ... \
Ġend time
Ġad apter
Pro duce
ĠEx pat
To Data
extra ction
Ġcor nner
mt x
UL ES
UL AW
Ġrep lacing
Ġ-- ===<
Ġq ts
su res
Ġtop down
Ġ9 5
US D
Ġann os
Ġver ts
over lapping
mail dir
ĠType s
Ġover written
Ġfoo bar
CH UNK
19 04
Ġkeys ym
Ġ`` (
200 6
ide mpotent
78 9
Random State
ĠY I
VER IFY
remove Handler
Ġgener ally
tests Run
PRO T
From String
flow er
Ġmain ly
Ġmain loop
ĠDi vision
oun g
filter false
STR U
Ġte acher
Get ter
ĠSe mantic
Sub Element
mit ter
Ġold Child
rs a
case fold
86 3
ĠMy Server
Pi Cycle
tar open
Ġfi xture
Block ing
flag ged
Ġstyle s
Format IsValue
Ġtra ps
Ġau gs
Ġtri ggered
For k
sq lalchemy
Ġstruct ures
bb b
ĠCh amferDistance
SC HE
extractor s
Ġtransport s
ĠFile ExistsError
Doc TestSuite
ĠArgument Descriptor
ĠTEST PACK
unicode string
Assign Result
none mpty
Over lapped
Mix In
COM MON
leg ating
Ġdisplay of
Ġstop ped
Ġ"+ ",
ĠUser ResourceTemplate
ĠHE LO
font list
wrapper s
ret ty
Ġmark s
DB L
Ġcolumn span
cell aneous
47 4
Ġsend file
Ġhand shake
CR C
Cl asses
Ġiterable s
01234 567890
ĠSet tings
ĠAd jacency
("{ !
Ġdiff s
Ġdiff ers
Ġavg Dict
Bert Config
trunc ation
Ġdelim iters
Basic AuthHandler
comm unication
pb ynumber
(", ")]<
Proxy Type
Ġlow est
ĠDistutils FileError
ĠPost Create
ĠMask RCNN
ĠĠĠĠĠĠĠĠĠĠĠĠĠĠĠĠĠĠĠĠĠĠĠĠĠĠĠĠĠĠĠĠĠĠĠĠĠĠĠĠĠĠĠĠĠĠĠĠĠĠĠĠĠĠĠĠĠĠĠĠĠĠĠĠ ĠĠĠĠĠĠ
Ġtab ulate
Ġpage s
press Crash
Vis ual
ln k
AUTH ENT
ĠNet scape
Ġescape char
mu sical
Ġexecution prefix
velo pe
Task s
Ġpartition s
Ġgo ing
ĠColor DB
HR NET
Lab eledVideo
Frozen Importer
Ac curacy
desc ending
Ġinf inity
ĠVER SION
ĠVER BALIZER
plat base
Ġcar ri
bic ubic
allo on
PA IR
kit ti
Arg Spec
Ġseparate ly
Ġsur face
AV AILABLE
Ġdetermin istic
seekable IO
INST ALL
expl ore
rehen sions
ĠDis Align
Multibyte StreamReader
Multibyte StreamWriter
CLO EXEC
rewall Rule
jis x
ĠSize Data
JP G
ĠPi peline
Ġoverrid ing
ĠLazy Writer
212 2
Ġpercent age
ĠUni form
DOT ALL
Ġcand y
Ġ199 4
ĠSim CLR
ĠSearch Dialog
dumb dbm
Ġprote ct
PPPP PPPP
åŃ ¦
ĠMatch es
OFF SET
Ġmultip lied
ĠInte ractive
REUSE ADDR
ĠCocoDataset Info
Ġter ms
Ġzi popen
ĠDown load
sci py
Keypoint RCNN
getdefault timeout
radi ans
Ġvary ing
ĠGC SGateway
organ ization
ENO ENT
CPP FLAGS
WordPiece Tokenizer
maintain er
survi vors
laze pose
USS IAN
untr leaks
ASY NC
ltr b
WithCon fidences
ĠDeploy ment
broc coli
ĠASP P
pizz a
pressCrash Report
' |'
) **
) [:-
. "),
/ >
/ ><
1 0000000000000000
1 000000
2 14748364
3 03
3 55
9 50
B reakpoint
B IAS
C Type
C xA
D K
E EXIST
E INVAL
H int
I AM
I llegal
K R
L ST
L inux
M odulatedDeformConv
R N
R end
S at
S olution
T C
T Z
V SOCK
W hat
W hole
Y ield
Z z
c ame
c tives
d G
d conv
f out
g rep
g mt
g rained
h an
h ance
h alving
i q
i co
i lobj
n D
n able
n ice
q type
r k
r path
s f
s pecialized
t utor
v bar
x i
x hi
y ter
y hi
ä ¿
se al
in sp
in els
in channels
in herited
re tain
re hend
st retch
st udy
Ġ" )[
le mon
le vision
al a
al pn
Ġt str
Ġt ix
Ġi e
me ls
Ġf ault
Ġc flags
en ium
ch er
ch anging
Ġp ly
Ġp atience
lo or
Ġn il
Ġs ash
he ats
Ġb hi
Ġre covered
ra ft
ra dix
Ġm mt
Ġ( _,
ck s
assert Messages
assert FormatIsValue
li an
li qu
ue ll
Ġw iki
Ġa ps
Ġ1 42
00 000
ot reg
get codec
get recursionlimit
arg list
Ġ' --
Ġ' """
Ġd r
Ġd insdale
set ype
up yter
ode n
po d
Equal ize
ĠL IST
ĠL STM
ĠT ry
ĠT EM
ĠT runc
ĠT rying
ĠT ICKS
con da
=" "<
=" *",
ĠC ider
ĠC trl
Ġ* (<
ke le
ver aging
Ġg unk
ĠS ep
ĠS EL
ĠS pan
Ġ2 0000
Ġ2 96
Ġ2 57
der s
ol t
ap on
Ġcon catenate
ĠA CT
ĠA sian
sp er
ab br
ĠD uplicate
ase nd
ĠF ID
str chr
Ġ__ ,
Re fs
Re searcher
ance led
ĠI G
ĠI MS
ĠI EEE
ĠI ssue
init args
py z
app x
ub ar
ĠP rop
ĠP PR
ĠP anoptic
__( ))<
Test Run
Test MappingProtocol
01 60
ape x
nn ers
Ġy r
train Id
Ġk ps
ĠN ON
ĠW SGI
** *\
jo hnson
ite rate
ite rencode
check sum
pos sible
Ġ"< ",
Ġset state
img ToEval
25 90
Ġloss R
gra v
ĠG HA
32 3
32 7
32 000
Ġmax Diff
cor nners
sub sub
comp act
RO T
kw s
start Time
split port
no fill
cu uid
Ġline age
04 41
new obj
lace ment
Ġ8 192
UT ABLE
Ġbatch size
Ġro bots
Ġsub sample
Ġsub graph
ĠIn dices
ĠIn dent
Ġconfig urations
Ġoption db
Ġtensor flow
sys root
Ġ6 8
rank list
IS erver
De compressor
ref cnt
\\ ",
AN SW
ok s
sing er
Ġrun Tests
Not Available
IO Motor
Base Exception
Ġinter polator
Ġread rc
Ġone docker
Tests With
Ġsu sp
15 3
color db
Up grade
random ly
Ġobj ective
Ġjson file
save Path
fd open
UN ENCOD
UN PACK
`` ,<
mail from
19 7
tag cn
Ġnode name
Ġserver s
host mask
Ġdir path
async contextmanager
can e
aug mix
pop ulation
full argspec
Box Coder
ĠY ield
INT R
Ġup stream
Ġlocal name
try order
Ġav oids
({ !
ĠRes NeXt
ĠSt atisticsError
HTTP Status
Ġfil t
44 4
Loader Tests
lower Pipes
Ġtrans lated
ĠImage Ops
Ġman o
Ġref resh
Ġref count
92 9
("/ *
("% (
Bytes Generator
invalid ation
bl an
single dispatch
Ġrank list
pkg name
Ġsel enium
ĠTo Tensor
With Template
Object Class
Ver tical
common path
pri me
identi fy
identi fiers
User List
pan ts
SG IServer
semantic KITTI
Ġtp fp
Ġ28 22
Ġtz name
hex lify
Request s
Ġ17 0
bound aries
Thread s
ĠCom bined
Service Install
Ġexpect ing
Color map
gre eting
mix in
verted Residual
Enum Param
VIS IBLE
pr inter
Clo ud
ĠInput Source
star map
Socket Test
Ġoc tet
dr v
ĠLe arn
ĠLe ViT
Ġ"{} :
she bang
DS A
player VelY
Start ElementHandler
Ġround trip
Ġpop ulation
ĠEX PECTED
aut ouse
comm as
Open Key
Help Source
ĠRo IAlign
ĠDistutils SetupError
Const ants
99999999 9
gz tar
should n
gradient s
Ġgdb m
ĠSOL VER
ĠVideo DatasetType
pas v
sa w
Named Tuple
tearDown Module
web driver
Ġdy ld
ĠOver flow
heap pop
Byte Tensor
Buffered Writer
scalar s
Tk Test
Frozen Set
ĠSUP PRESS
ĠAc curacy
EventLoop Policy
ĠBack ground
itect ures
Ġdataloader s
Loc ation
Ġpr inter
sla ck
Ġrequire ment
ĠSE QU
ĠSup er
Ġpen alty
serial ization
ĠVAL UE
Ġ"// ",
ĠImple mentation
Ã¶ rld
Ġham t
ĠDis play
Multibyte IncrementalDecoder
Multibyte IncrementalEncoder
SPE CIFIC
Ġinherit ance
unraisable hook
({} )<
Ġmis ses
Ġcent ral
Ġlim its
Ġsleep ing
("= ")<
Uni form
Ġconcaten ation
ĠGCS Client
ĠExec utor
MAC omp
DETECTION S
Two StageDetector
åĲ Ĺ
FastRCNN OutputLayers
mbox MMDF
Ġbracket s
Ġbracket ing
Ġdora ise
ĠPredi ction
LZMA Error
655 36
GRA D
ZZZZ ZZZZ
Ta ken
åı ¥
0000000000 000
ITEM S
ĠTestM utuallyExclusive
ĠEvalu ator
La uncher
ĠEnvironment Error
Ġhypothe sis
Ġbeg ins
Mid Pos
Slow Fast
moothed Value
DIGIT S
Mer ge
SPLIT S
bnd box
Ġuncer tainty
Ġslee per
Bound ary
Unique Id
Ġfrac part
åĩ º
ĠSpec ify
Inherit anceTests
ĠUnsupported Operation
playerF lapped
Ban ana
ĠPredictor Output
athe red
issu er
velop ment
tera bs
ĠLOSS ES
cto RS
éĹ ®
osf handle
Ġwins ound
ĠTestCh apter
ĠProp agation
UNENCOD ABLE
MAComp ressor
" âĢĿ
& ",
' +
' '<
) },
+ "<
, :
. +
. ],<
. )",
/ "),
0 24
1 30
2 33
2 17
3 01
3 50
7 18
C ustomer
D N
D UP
D lg
F LO
F lush
G FL
H alf
I H
J IT
K D
K w
K ana
L ITE
N AL
N ETS
R atio
S AL
T LE
T ornDown
V ID
V ocabParallel
W ARE
Y ES
_ `
a ix
a ggr
b age
b pbynumber
c write
f db
h l
h aps
i am
j accard
k df
l h
l ms
m or
n h
n ex
n am
r mod
u a
u ctive
v oice
w ap
w ich
w fd
w intypes
y ml
} '.
å ¸
å ¾
æ ĭ
Ġ assertEqual
Ġ ðŁ
se a
in ception
re m
re ach
re constructor
st ir
Ġ" â
at temp
le u
al bu
al bert
as df
Ġt ty
me ri
me stic
an ed
Ġc ss
Ġc lamp
en terabs
ro d
def type
ch ie
Ġp ep
Ġp gen
Ġp ane
Ġn joints
Ġs f
Ġs ug
Ġs olution
it self
it ure
he ld
Ġb ul
Ġre ps
Ġre write
Ġre tr
ur sor
ur rect
ur rogate
si bilities
Ġm ad
Ġe type
__ }",
assert After
assert Compiled
un wo
li sion
li ps
co p
co author
test mod
la pt
Ġa a
Ġa hi
Ġa gent
Ġa chie
Ġ1 30
(" }",
(" ..")<
ter ize
ri vate
get final
get AttributeNode
ss ock
Ġd nd
Ġd umb
cl us
Ġtest Timeout
Ġst ft
op sis
ĠL uc
ĠL iteral
Ġto bj
Ġto uch
ĠC osmosClient
ke tb
to ver
to buf
il bert
Ġg ray
Ġg athered
ĠS Q
Ġ2 62
ig a
vi dia
Ġcon tinuous
"] [:
Ġas set
Ġde alt
ab cab
ab lished
est imator
ĠF G
ĠF ree
ent ailment
bu gs
Re call
Ġr f
Ġr g
Ġr ing
Ġr args
ĠI ts
ĠI CT
dir path
Ġor nament
IT ECT
am big
ĠP ET
ĠB unch
ĠB lazepose
Test Input
ore ground
che ese
Ġse gs
Ra dio
time d
In List
Ġan ame
sc enes
ĠM EM
train able
ist ing
ist itle
Ġco vers
Ġk appa
ĠN FAState
Ġ< -
Ġsh arp
rans lations
RE LU
check TemplateError
check EnumParam
pos sibly
Ġun ame
Ġun safe
Ġun defined
ĠO PT
ĠO PERATOR
12 80
are r
back pack
OR USSIAN
Ġon nx
ĠH igh
col lapse
sample Logprobs
rep lication
ĠG roupedBatchSampler
([ ^\
10 5
fix up
AR SE
write Tmp
util ity
min idom
cor der
cor ded
batch size
split ter
ĠRe served
ĠRe play
04 35
04 40
EN OT
by ref
22 19
22 61
TestCase Names
Ġwe ather
Ġsp acing
16 9
Ġcur Score
Ġsub key
arch s
)) ")<
ĠIn itial
ĠIn complete
ĠIn spectLoader
Ġdo mestic
Ġmin us
exp onent
parse String
DEL AY
ome n
:// %
:// {
be er
De compress
Ġsc r
av ailability
FF FE
man age
rid den
skip ping
TEST S
air plane
24 4
CT P
decode bytes
Ġcor pora
OT HER
UM E
SE W
SE ARCH
cre dits
coco Dt
find Contours
seg ms
seg map
Ġback wards
14 6
QU ERY
sig mas
80 80
Instance Segmentation
Dataset Catalog
Ġmulti grid
Up Down
Ġawait able
Me m
long double
sen ce
print f
print ing
IM PL
UN CTYPE
Py Number
xx subinterpreters
send ToServer
iss ubset
sock name
ĠĠĠĠĠĠĠĠĠĠĠĠĠĠĠĠĠĠĠĠĠĠĠĠĠĠĠĠĠĠĠĠ ĠĠĠĠĠĠĠĠĠĠĠĠĠĠĠĠĠĠĠĠĠĠĠĠĠĠĠĠĠĠĠĠĠĠĠĠĠĠĠĠĠĠĠ
Ġbreak s
Ġkw arg
rand below
Ġheader registry
ai ff
Ġidx s
Model Parallel
non zeros
Ġign oring
Random ResizedCrop
EL ORUSSIAN
06 6
55 8
Load Proposals
Ġadj usted
api pe
Ġsum heading
INF UNCTYPE
expand ing
ĠRes ponse
disp s
ĠSt orage
Ġbin arize
ĠAt tr
77 2
Ġtrans m
Ġfinal izer
plo ts
ĠSe quential
Sub List
Ġbot tle
enti cate
ĠMy DatagramProto
Ġ128 2
face book
DIR S
Layer List
so fa
contain ing
94 9
Ġmy cmd
For king
Ġhost s
Ġhost Id
utor aise
Ġright s
NUM ERIC
Ġ"* ":<
OK UP
Ġ"( %
Com boBox
Ġsearch ing
anti ate
Ġlock s
Ġbad ger
Function TestCase
Ġfix up
Button Release
Button Press
collect ing
document ation
Ġequal s
ĠUser Dict
posix subprocess
allow s
ĠUN ICODE
af ety
SIG TERM
Async Mock
Ġdec lared
Ġ"' \\
Gener alized
Color Jitter
mix er
Ġindi cated
VIS UAL
proxy val
(** {
WORK S
MET H
ĠConfig Parser
sem lock
Dete ctron
ĠAd versarial
_{ :
67 9
she p
NE I
=", ")<
Queue Test
ĠToken ToId
ĠNorm al
ĠNorm ally
Ġsegment ations
We ighted
ARCH ITECT
obs oletes
SMTP Server
owner Element
Ġgraph ics
ĠRO IPooler
Abstract WidgetTest
ĠAl ways
ĠId ToToken
Finder Tests
spawn v
ĠĠĠĠĠĠĠĠĠĠĠĠĠĠĠĠĠĠĠĠĠĠĠĠĠĠĠĠĠĠĠĠĠĠĠĠĠĠĠĠĠĠĠĠĠĠĠĠĠĠĠĠĠĠĠĠĠĠĠĠĠĠĠĠ ĠĠĠĠĠĠĠĠĠĠĠĠĠĠĠĠĠ
windows version
ĠUse ful
Ġtab nanny
pag ination
void cmd
Ġxy xy
mult inomial
Ġregular ization
"\\ "
water mark
Buffered IncrementalDecoder
Traceback Exception
Task Cascade
Seg m
urn iture
loadTestsFrom TestCase
runc all
="% (
Ġprec ise
Namespace Package
Ġcar l
Imp l
Ġ201 8
ĠSMTP Channel
adv ance
.... ....
conver gence
Ġ? <
Ġdele tion
Ġcalc ulating
ev p
iel ding
gl ue
Ġunpack ing
Char s
ĠMax IoUAssigner
Called ProcessError
Ġsoft ware
Ġdigest mod
vil bert
fan cy
ĠHy dra
}` \
Clip Info
ĠBE LOW
ierarch ical
ĠAR N
00000000000000000000000000000000 0000000000000000
MC ell
comparison s
Init Var
Ġcent roid
ĠCH AR
PROG RESS
ĠBuffered Reader
Ġsla ck
Ġ655 35
Ġmac OS
Common Test
FastRCNN Outputs
YW Jj
Ġpa use
ĠPack age
ĠAug mentation
ĠRES NETS
Ġparenthe sis
ĠChange d
swe at
ĠAuth entication
obile NetV
pil low
Intermediate Stage
sal ad
Ta gs
helve tica
ĠEncode AsTokens
Ġinterest ing
Ġappli cable
ĠDecode Ids
ĠBY ELORUSSIAN
ju ice
Ġtensorboard X
SEQU ENCES
ĠNonCallable Mock
Ġida api
Ġblow Up
Safe UUID
ĠPdb TestInput
chi ef
Ġpag inator
Prompt Reader
ĠPART ITION
SEC RET
Ġexha usted
Verts GT
dLd A
execv pe
ĠFB Net
Ġspe ll
RECV HOPLIMIT
ĠPair wise
ĠInit Var
MACOS X
jewel ry
èĢ ħ
çĻ ½
çŃ Ķ
gethost byname
åĽŀ çŃĶ
ĠDESC ENDER
riger ator
PAIR S
LST MCell
ĠAsian Bart
Kana de
TLE NECK
unwo ong
lapt op
getfinal pathname
ĠLuc as
ketb all
ĠReplay Memory
ModelParallel Region
" ;<
" ?><
& \
, "<
0 93
1 64
2 64
2 16
2 75
2 147483647
3 147
? "
? )
A syn
A bs
A gent
C ard
C MaskHead
C ASES
D erived
G X
G REEN
H t
I W
K Frames
L icense
L STM
L DSHARED
M ALLOC
O I
P adding
P lot
P ooler
P urpose
S AX
T G
T ue
V T
W w
\ )"<
_ [:,
` '
b aby
b irthday
c enti
c ube
e at
e ous
f info
g row
h z
h of
i val
j et
k now
l argest
n L
n N
n m
n ist
n pn
n vidia
p res
r us
s len
s ash
s olver
t j
t ro
t alk
u k
u dd
z a
z o
| >
| >",
¸ ı
Ã ¼
å į
ç §
è ¾
ï ¸ı
Ġ um
in ten
in verted
re nd
re construct
re cognized
re aped
st raddle
Ġ" ()
at alog
at ural
al apping
as fas
Ġt iming
ar win
Ġi l
an c
an cdata
er red
en closing
ro utine
ti les
Ġp cd
Ġn gram
Ġn aive
Ġs mo
Ġs fp
Ġs atis
Ġin ps
Ġin verted
Ġin coming
Ġb t
Ġb read
Ġo tc
Ġre build
ra il
ra vel
ing hua
Ġ( .
Ġ( (),
Ġe qu
Ġe inops
__ )),
ad ab
ad ain
un load
un parse
un initialized
co oking
co dable
la ci
Ġw ants
Ġ1 81
(" >",
(" *",
id ing
get reader
get UniqueId
el ly
Ġ[ ]),
Ġd c
Ġd rag
ati vely
Ġtest Nothing
xt ype
ĠT tk
ĠT ORCH
con caten
con sistent
con sistency
=" __
=" {}
=" $(
ĠC V
ĠC RL
ĠC ycle
is ted
to ward
Ġg reet
ĠS win
ĠS EC
Ġ2 28
file mod
file lineno
Ġimport ing
ĠA IN
() )))<
ex pt
Ġh ack
Ġh params
Ġde al
Ġde not
add str
ab a
par ation
ten hof
ve st
ve il
ĠF lag
pro f
pro ach
': '
pre servation
"" ))<
im uth
Ġ3 45
Ġ3 400
Ġr slices
ĠI DENT
ĠI MAGE
Ġu i
ub ber
ĠB PE
ĠB ETA
ore m
key ed
ry pted
Ġse ab
Ġtype d
Ġpre config
ip addr
Ġpro posed
Ġstr s
Ġan g
Ġco in
Ġk q
ĠN U
ĠE D
ĠE min
max unicode
max Det
ind uctive
mo le
cess ary
Ġun load
da i
Ġv c
Ġv size
Ġfrom file
ts inghua
Ġl num
back log
ĠR PC
ĠR oot
ĠR etrie
join path
Ġby ref
Ġdefault ing
ĠU til
root s
log prob
32 2
cs ock
wa gger
Ġtime Stamp
St ri
St ub
sub elem
comp rehensions
tri ang
tri angle
start Element
split passwd
no tex
run nable
04 16
04 17
04 44
04 31
new er
Ġgt m
Is o
Ġcheck rhy
Ġal most
Ġal gorithms
group by
Ġmodule name
Ex plorer
11 7
Ġall reduce
99 5
Ġcomp aring
Ġ". ",
Ġac w
exp lo
msg str
Ġpos only
Ġ6 9
20 8
Ġarg list
Ġlog prob
Ġlog px
ph ens
ph oto
tr gt
ax onomy
Ġ12 9
LO OKUP
Ġno isy
24 2
Ġj unk
ich tenhof
Ġend rec
Ġreg ardless
Ġfa ilobj
]) ")<
the se
Ġ) .<
Ġpl ugin
Ġexp ressed
ns str
Ġclient Sampler
cv pods
15 4
15 9
exec uting
Ġmulti ply
Ġ9 7
ĠSIGN ED
io dic
send cmd
du ck
Image Q
19 80
]] ).
Set Menu
ai red
src file
Ar r
Ġinit args
Ġmo ving
Random ly
Ġhead aches
hash code
stat vfs
ĠUn derflow
stop h
VER BALIZER
Ġup grade
Ġprefix ed
13 1
:: :
:: ").
******** ****
gu in
ĠDe vice
ĠSt atic
ML M
Comp onents
Ġallow ing
Ġmod ulated
mk path
("/ "):<
Text TestResult
Text TestRunner
86 1
bit coin
xF ED
Ġfield names
Ġfi b
Bu il
Option Parser
Ġstep size
imp orted
ĠJ ust
so ap
Eval Hook
Server TestCase
her its
36 6
For QuestionAnswering
BO OL
ĠPath Type
Ġsen der
Ġsen ds
Su c
Ġfd st
Ġ"* ",
unicode data
mapping proxy
Ġemail s
Ġ[[ ("
Ġus ual
Ġhash able
Ġprob abilities
User ConfParser
Dis patch
__() "\
Dist ortion
dot net
Ġunder score
ĠDensePose Embedding
rag ment
37 3
parameter ized
RET R
Ġlink ed
"[ ^
---+ <
Bad Index
ĠDataset Evaluator
On Host
On SysPath
bi ases
Ġhand utils
Ġcommon ly
cut out
Ġ"\\ ":<
READ Y
"} ),
LL ABLE
Cat Ids
micro wave
subclass ing
Ġfont list
ĠBad Index
inv oked
Ġcre dentials
Ġcell s
Ġview er
Mode ler
fr PyObject
ĠFe ichtenhof
Ġjust ify
Ġattack s
Ġbig ger
URL opener
prog name
ĠCol lect
Ġoccur rence
]* )
duce d
Action Data
ctr l
ĠMulti ple
"^ <
ĠFrame Video
Cookie Jar
ham t
AUG MENTATION
Ref lection
go ing
Ġoverlap ped
Err no
heap replace
heap ify
ĠSY LLABLE
jk l
ĠBottleneck Block
Comple tion
ĠSSL Context
Ġreason able
Num Samples
cnt s
Generic Alias
Ġenable s
Ġcar rying
Make file
MULT I
Ġcombin ation
Ġblob s
evt log
Cor o
Pickler Tests
Field Storage
croll command
Metric Distortion
PK G
SPE C
Ġconven ience
Bin Op
tw ice
203 0
Ġcen tered
Unix Stream
Wor ld
ĠBinary IO
RAND OM
Work Rep
æľ ī
Fake Path
Ġhyper parameters
Ġ', '
lan gs
autocomplete window
ĠHO ST
Ġ**{ '
Ġscroll bar
glo o
swe et
Ġpk l
ĠPositional Encoding
ĠâĶ Ķ
ĠClip Sampler
Ġunix from
PreTrained Model
fas df
El se
copi ed
AGES IZE
ĠSPE CIAL
ĠEvalu ate
deco dable
Ġblen d
ĠService Bus
Ġaffili ation
REUSE PORT
ĠNonCallable MagicMock
OPTION AL
har mon
Ġaws Region
abb rev
Ġeas ily
ĠMIM EText
atiotemporal Model
gm toff
Ġquantize d
ĠConn ected
ĠBOT TOM
ĠComple x
ĠVpc Peering
Ġprefer red
ĠRED UCE
uncer tain
epilog ue
ĠDF Conv
BUILT INS
Ġche ese
Ġmal formed
Days Since
ili ary
ĠChri stoph
aca mole
tinu ing
Endian Structure
ä»Ģ ä¹Ī
Whole Text
ĠSEL ayer
ĠGHA IN
Half Tensor
KFrames Selector
asfas fasdf
laci an
ĠCRL F
Ġdenot ing
frPyObject s
ĠFeichtenhof er
' :<
' }<
' ?><
) /
* (
* .<
/ --
0 20
2 039
4 07
7 22
9 00
? (
? \\
B order
C rossEntropy
C amera
F ri
F used
F DP
G ts
H M
H istory
L IC
L ower
N B
N p
P acer
R oute
S RE
S CORE
T racker
U INT
U ATION
] /
] })<
_ :
a ad
a waits
b on
b rown
c ant
d ome
e lev
f mod
f tover
h untrleaks
j ug
k h
l one
m ys
m utation
n as
n ntp
o up
o sed
p hello
r pow
s aves
s helf
s auce
t te
t str
u f
v b
w id
x net
x FC
x html
} .<
} ")
Ã °
å ±
æ ¸
æ ī
è Ĭ
Ġ linen
se ss
or ry
de gs
de crement
de alloc
re vi
re presentation
Ġ" :<
Ġ" >>
Ġ" (?
at las
as d
Ġt n
Ġt msg
Ġt anh
ar File
Ġi ms
Ġc le
Ġc pus
ro te
ch ick
Ġp dict
Ġp hoto
Ġp ulldom
Ġn arrow
Ġn esting
di tems
Ġb ell
Ġb irds
Ġre format
Ġre petitions
ra ising
ct oi
", )),
si tivity
Ġm r
Ġm illiseconds
Ġe i
Ġe lect
Ġe lectric
__ =
assert OptionError
co t
la ve
Ġw arm
Ġw rt
Ġw ood
Ġa len
Ġ1 04
Ġ1 91
fi ve
(" ...
(" ;")<
ter gent
get double
get gr
get TestCaseNames
and a
and data
Ġ[ ].
Ġ[ ]).
Ġ' ""
Ġd k
Ġd gl
up grade
po lates
um bn
Ġis method
od d
ath row
ĠL en
ĠL ong
Ġ+ ------------
ĠT ri
con current
=" ?
ĠC y
ĠC ut
ĠC HECK
ĠC aptionModel
ĠNone Type
ĠS qu
ĠS queeze
ĠS cript
ĠS CRIPT
IN DENT
Ġ2 38
et ched
ca ught
ol ume
Ġcon firm
ĠA D
Ġas c
Ġ{ ",
text ures
text domain
() "\
() ``
ex ter
import able
ab e
ab ling
ab rac
ms windows
par king
ĠD EN
ET WE
ET okenizer
out f
out come
ve getable
ĠF red
ĠF UNC
ĠF igure
pre served
value d
"" ]<
Re factoringTool
per ceptual
ĠI g
init range
ĠB U
Ġpre processor
Ġpro actor
Ġget Logger
Ġ(" [
ĠM AIL
Ġra mpup
ist ics
ĠN umeric
ĠW AW
ĠE max
gg bb
til de
Con version
check letter
") }<
ĠO k
da ter
Ġv ote
ac p
Ġl ts
Ġl ws
ic er
ĠR LE
ĠR owParallelLinear
OR ID
ĠV T
ĠH REF
label ID
rep vgg
ĠG en
ĠG RW
ĠG uided
([ "<
write frames
base test
gt Instances
ST Y
sub text
sub graph
== ",
ĠRe versible
cu te
04 10
04 11
04 19
04 26
04 43
Ġgt j
22 29
url retrieve
nel se
iter dir
inter ning
inter leave
11 01
rop hone
MO IZE
Ġcur True
Data Fields
Ġbatch norm
Ġsub gs
context s
Ġcomp licated
Ġconfig dialog
Ġopen ssl
File Dialog
File ExistsError
Par sing
create Element
Ġac quired
Ġid c
link ed
Ġcan v
copy Make
Ġstart line
ste reo
Ġcom mit
ast y
ref rigerator
Di gest
AN N
Res cale
Res Layer
LO UT
Ġno op
Ġj s
Ġ... )<
local ize
Un picklingError
(' /
Base Handler
Ġreg istration
Pro gId
]) """<
201 1
Ġle ak
Ġ) [:,
Ġcor ners
Ġtransform ations
Ġread lines
Ġexp on
Ġrep vgg
Co conut
sig wait
80 9
return ing
spec ify
Ġq title
Ġext rinsics
Ġnext line
US H
node list
sen ger
over tip
UN ION
UN SET
`` ."""<
CH LD
du ces
05 4
PN Head
Ġtf ms
Ġitem getter
grid ding
Image Folder
field names
Set String
ingle s
Ġnon ascii
Ġmean sqr
expected Failure
act ly
Ġcopy ing
Ġpoint ing
lic en
Ġup dating
Ġfol ding
={ !
ash ing
8859 1
ORM AP
17 08
ssl conn
Ġar cs
("< ",
iso late
ĠDefault CookiePolicy
Sub normal
ating FileHandler
ĠST EPS
ĠMy Decimal
ĠMy Callback
PAC ES
Sh ot
xff J
Ġ"{ __
ĠDict Config
Ro bot
Ġdt m
(? <
reader AssertEqual
Ġmat ter
COL ORMAP
unct rl
rel la
PC atalog
Ġli ve
diff s
Ad ditional
Parallel SelfAttention
ABC DE
mar ily
hy unwoong
Generator Exit
Ġbad arg
Python Runtime
Tuple Equal
CC C
Check ing
complex ity
ĠHE H
Async Class
acquire Lock
Sign ed
Ġside s
Gener ation
ĠTh reading
Bad Bytecode
mix ins
.* ?
ĠAP PNP
CRE MENT
ĠPo six
"} },<
Ġauthor ity
Ġconnection chatty
ĠAs set
Fin ished
?= ",<
SET UP
sd asfasfasdf
iterable s
free bsd
({" _
car rot
'] }
Ġpkg name
Ġhy brid
URL Error
Ġpick ling
Ġ^ =
We b
We ights
Ġmost ly
}" '<
Stop AsyncIteration
Basic Ops
Ġtermin ator
Ġtermin ated
Ġtermin ates
Ġoccur rences
ĠSub Class
Ġrelease d
ĠRandom Crop
={} )<
Attribute NS
ĠGener alized
expression s
ĠFake Response
SP Tokenizer
ĠNode List
ĠPost Public
ĠPost Partial
NOW AIT
Fail ing
Ġtab width
access or
LM PredictionHead
executor Id
Ġstar map
Ġest imation
Ġest imator
ĠLZ MACompressor
Ġ>> ><
ĠVideo Classification
Exp licit
umb rella
REMO TE
Ġcomm unication
inte grate
ĠTrans pose
LOW ED
Memory BIO
ĠRequest Handler
BOT TLENECK
Seg Evaluator
deploy able
frag ments
ĠProcess PoolExecutor
Ġhist o
Ġ(? :
weak set
Ġsimilar ity
ä¸ Ģ
Ġdynamic ally
ĠCor outine
Ġ'"' :<
Cor ner
band age
("\\ \\
("../ ")<
gdb val
mut ating
ĠZip Info
cnf merge
latest Description
BD FL
APP ED
Ġ({} )".
ĠCan vas
wed ding
Entity DoesNotExist
John son
Ġdivide d
DensePose Data
}` ",<
="{ ")<
inese SPTokenizer
Tra cer
ĠAR GS
Grid Gen
Mutable Sequence
Ġln gettext
Select Box
Translate Error
ĠSCREEN HEIGHT
pub lish
Ġul p
Inte ractive
ĠAL LOWED
Reset Error
OVER FLOW
coo ter
Ġsyn onym
ĠBroken PipeError
Expand able
pg d
UDP Server
Ġomega conf
Multiple Choice
DOC STRINGS
ales ce
Ġincorrect ly
ĠLabeledVideo Paths
ĠPG D
ĠRecur sive
authenti cate
PredictionHead Transform
çİ ĭ
Ġhypothe ses
ĠLa uncher
canv width
MIX UP
ĠEfficient BlockBase
Bounded Semaphore
Ġtex coords
ffffffffffff f
ĠPure Path
Ġ"âĢ ľ
skate board
Shear Y
WAY S
BP ETokenizer
CY CLE
ĠStyle GAN
Approx MaxIoUAssigner
Cate gory
cooked q
amin er
ancell ation
ĠStruct ure
ĠSigmoid FocalLoss
ĠMetric Logger
BRANCH ES
parable Conv
Ġpoten tial
Pull Parser
GNUT ranslations
cabin et
ĠFeed Forward
ä½ľ èĢħ
ĠExpand ing
ĠBalanced PositiveNegativeSampler
Ġvox els
surf board
assertRun OK
DG IA
xH xW
veri fi
ĠFI REWALL
RELE ASE
ĠSEQU ENCE
éĹ® é¢ĺ
Radio Button
expanding buttons
adab ra
FDP ass
Pacer Rounds
umbn ail
abrac adabra
ĠDEN SEPOSE
ETWE EN
copyMake Border
hyunwoong ko
ĠPostPartial Update
" --
# ",
, ))
0 25
7 38
: +
> ',
> "))<
A AG
A waitable
B AR
B Meta
C c
C pp
D H
D rop
D raw
D OUBLE
D NS
D wBnAct
E U
E fficient
F l
F OCAL
G ED
G uess
H W
H MAC
I RECT
J UNK
K OI
L ESS
L ightning
M IT
N A
N X
N a
O PTIONS
P F
P ID
P ynche
R ATE
R etinaHead
S AB
S ecret
S CTP
T W
T ilde
T elnet
V M
V ery
W ho
Z OO
^ {
a cos
b len
c lib
c Invalid
c datetime
c jk
d ct
e max
e ager
e ae
e uro
f A
f xn
g arg
g rc
g regory
i ser
i loc
j une
k johnson
l chflags
m tp
m IoU
n Content
n Hello
o h
o ai
o Client
p ur
p orter
q nan
r h
r PC
r trip
s mo
s By
s pecials
t ation
u ion
u alen
w x
w ish
z f
å ¦
å ī
se te
in Model
in direct
in tensity
sel ines
de precation
re sent
re projection
on ts
le aves
>< ?
as sets
Ġt string
Ġt axonomy
Ġi st
an imals
er os
Ġf m
Ġf ancy
Ġc ame
Ġc irc
en tial
en rich
ch op
ch imp
Ġp stats
Ġp yshell
Ġn g
Ġn ce
Ġs queeze
Ġs pecialized
Ġin cre
Ġin compatible
ce dil
Ġb ra
Ġb om
Ġb unch
Ġb sd
Ġo ai
Ġre trieval
ra ms
si lent
Ġm angle
Ġm anner
assert Same
assert TupleEqual
un escape
un available
un consumed
un hashable
li mbo
test fn
test Recvmsg
la h
Ġw ild
Ġw inner
Ġw ings
Ġa lert
fi xtype
(" }
id k
Ġfor warded
get name
get doc
get source
get incrementalencoder
get windowsversion
Ġ' ["
Ġd ind
Ġd sl
Ġd ynamodb
set xattr
set switchinterval
qual ifier
Ġst amp
Ġst ability
Ġst raddle
ĠT race
ĠT HO
ĠT ools
ĠT arInfo
ĠT DGIA
con tra
put request
is dst
Ġdi ameter
ation Mode
len cer
Ġg m
Ġg re
ĠS TO
Ġ2 001
ig r
all files
Ġlo oked
ol ding
ol ving
": ",
ap propriate
Ġcon struction
ĠA udio
ĠA DD
Ġex its
Ġnot much
ex es
ex tern
Ġh over
Ġde ci
import ance
ab ab
Ġand data
ms coco
ĠD ir
ĠD BL
Ġx xxx
est ri
ĠF PS
str al
AT TR
fo v
pro vide
att ribs
pre set
im mutable
Ġ3 70
Ġ""" (
Ġ""" {
rain er
Ġth ick
Ġcl assifiers
Ġdata path
Ġdata gram
Ġout p
Ġout dim
am d
ĠP lace
Ġos name
ĠB INGET
ow m
Ġpre f
Ġpre exec
Ġpro grams
Ġpro pel
In v
ĠM U
ĠM ap
ĠM ASK
ĠM enubutton
mb ig
Ġra dix
lock type
Ġk n
ĠN ONE
cal ing
Ġ< __
Ġ: ,<
ĠW ed
ĠW Ã¶rld
ĠE very
ĠE asy
Ġen close
check pointer
check Params
") ;
Ġun normalized
AP l
AP m
Ġv en
format month
LE AN
Ġl w
Ġl zc
und ant
Ġ5 0000
back wards
ĠR ange
ĠU INT
Lo aded
Ġmax levels
us able
date s
cor rection
clo thes
ener gy
ST RA
St derr
sub scription
RO IPool
run test
run Tests
04 24
04 45
04 37
04 46
Ġ[" [
Ġ[" \
cur red
cur Node
0000 01
loop s
object Name
Ġcode r
Ġla teral
Ġal though
ron oun
group dict
Module Cleanup
Ex pired
MO RE
MO Model
ef fe
Ġsp in
Ġsp hinx
Data Source
inal ity
Ġro l
Ġro utine
Ġsub scription
Ġsub parts
Ġsub patterns
abc ba
Ġne ighbor
ĠIn f
Ġopen hook
File Test
File Suite
Par tition
parse Args
Ġ6 66
Ġpy utils
Ġpy plot
Ġlog ged
Ġ7 679
char buffer
OU BL
\\ ")<
ok er
Ġ12 1
LO OP
Ġno tice
Ke ep
33 7
He ight
Pro vides
Id ToToken
Ġle gs
Ġle aving
To Anns
Ġper haps
Ġinter mediates
coco eval
85 2
85 8
off s
FN AME
ĠX L
Up per
Ġtop level
Ġ9 00
my json
save fig
Ġbytes Io
last i
mail cap
send mail
Ġ"% .
Ġerr read
Ġfin et
Ġfin etune
sent inels
first line
Ġ`` __
multi cast
ĠList box
RES PON
df l
df oreground
Ar ithmetic
Ġ32 768
Ġdir list
Ġdir names
Ġmo un
Ġmo bile
18 1
Ġct or
---------------- -+
Ġexec utes
Ġlocal host
ĠZ H
ĠZ ero
ĠZ ETA
Ġnet s
gu acamole
ĠDe precated
ĠDe sired
ĠDe formRoIPooling
cmd class
17 2
17 6
Ġca usal
Ġar range
Ġar ial
Ġbin op
ĠSe cond
Ġman agers
Ġ'" '<
bot o
Th readed
86 0
86 01
ĠMy Set
Ġclip ped
Sh utdown
bl at
ker n
Ġcap abilities
Pre paring
padding s
control ler
ĠFor k
ĠJ un
OWN ER
Eval Mode
Ġdebug ged
show er
Ġtri ed
FILE NO
Ġmy replace
Ġarch s
pipe s
gener ics
FPN StagesTo
Ġshow ing
reset warnings
Ġast uple
truth s
Al ready
Ġbest size
NO RE
Ġimp lies
ĠRE X
Ġ[[ ],
same stat
BB B
Value Ex
mar sh
mar ket
Dis connected
Index able
Ġuni fied
66 67
("_ ")<
specifi er
hex digits
ĠDensePose Results
custom list
Oper ator
initial space
Ġspam list
500 000
WR ONG
Ġindi c
Simple XMLRPC
CR T
Ġseed s
"} })<
Ġmail cap
("{ {
Ġcre ds
poll Selector
Workspace Owner
Workspace Researcher
'] }"<
Ġord inary
pa che
Ġ"? ",<
ĠURL s
aut oresume
Ġnume l
ĠTRA DE
New line
ĠMulti Scale
Group s
Line age
Ġclean ing
Ġjob lib
shot s
ĠAl bert
ĠES MTP
ĠMask er
BE LOW
Point Process
spawn ve
lazy path
Count ing
pag inate
ĠAsync IOMotor
anet ary
ĠCl asses
Ġaccept able
ĠNet mask
Close Handle
ĠOpen Key
ITER S
Ġfour ier
csr f
ĠNO ON
Ġslow est
Ġevaluator s
Windows Path
ards wish
Exc itation
warp field
ï¼Ł "]<
tifi cial
System Id
EventLoop Tests
Expected Failure
scan string
BUF SIZE
ĠDesc riptor
ĠSMTP UTF
0123456789 01234567890
condition s
begin ning
prep ared
Ġtimestamp s
Imple ment
Descriptor Type
("../ ..")<
Acc umulator
browser s
printable s
Validation Result
ĠBot oClient
vc varsall
Ġdestroy ed
Ab orted
ĠConvert ing
Ġhighlight thickness
ĠStack Object
Ġaggreg ated
Detection Evaluator
hin ge
Ġsimp lified
Ġpertur b
)` ):<
ĠGCN AdjNorm
ĠPerson Keypoints
execution prefix
wan ted
fic ations
Ġcen ternesses
ĠBuild Extension
Chain ed
Ġaltern ate
ĠNamed Tuple
Be ep
Modi fication
OVER L
Ġtim ings
ĠUni que
Ġparenthe ses
Ġadv ance
Tag Name
cla ims
msvc rt
msvc compiler
"""\ <
IRW ISE
Ġsa id
Ġexpl ore
Pair wise
ĠTAG ORID
Enabled For
ĠPick lingError
Ġpoin ters
Processing Instruction
SF PCatalog
ĠBY OL
ĠNested Tensor
Ġblen ding
doll ar
ĠShe pherd
Ġaff inity
Ġwind ll
quanti les
Ġcome s
canv height
Gaussian Blur
Masked LM
Bounded IoULoss
PARA S
dyn e
Ġland marks
ĠWebDriver Wait
Side Scale
DECOD ER
Ġrcpt tos
Ġconstra ints
Ġcip her
Ġlamb d
ï¼ļ "<
Cut out
assertDict Equal
Ġdiag onal
ĠWARRANT Y
ĠEl lipsis
lind rical
EMBEDD INGS
ĠBO DY
ĠCloud Cost
ĠDecor atedMain
pend own
Si lencer
Ġflex ible
Ġretin anet
ĠRand Augment
ĠDivision ByZero
SCHE MES
ArgSpec Equals
insp ire
ĠSpan ish
ĠIG NORE
ObjectClass TestCase
mor tem
facebook research
ĠCycle GAN
lave Pipe
cInvalid ationMode
gregory kjohnson
sBy TagName
ualen v
Ġbsd db
ĠEasy Dict
" ).__
" '\
' ;
' "\
' ])
' \\\
* {
, ):<
, )),
6 000
6 326
8 0000000
: *
: ^
= ="
B db
C aster
C umsum
D up
D if
D ID
E quivalent
F d
F ALL
F ill
F UL
F PS
G l
I te
J it
M gr
M HMessage
N ms
O VE
P ers
P ARE
R l
R NN
R HOD
R ULE
S oft
S orry
T D
T rack
W atch
W NO
W ARD
X INCLUDE
Y m
_ ._
_ ":
b ac
b zip
b anner
b elt
c um
c ise
c builtins
d Scaler
e quivalent
f get
f score
f lap
g Z
g rp
h ue
h um
h ape
h ighest
i di
i rectory
i timer
k queue
l lo
n se
n ut
n id
n ight
n oc
n abled
p z
p bar
p ressed
p urpose
p acer
r ms
r truediv
s bee
s cooter
v ot
v ase
v qa
x h
x ample
} (
Ã Ł
å ¯
è §
é Ķ
é Ļ
é Ń
Ġ ut
Ġ assertRaises
Ġ RA
in dented
de iconify
re me
re word
re quested
st ub
Ġ" ).
Ġ" >>>
al ice
as contiguous
Ġt x
Ġt type
Ġt ie
Ġt ls
me tries
an gs
Ġc ab
Ġc ream
def path
ch oose
Ġn z
Ġs inger
Ġin dependent
di es
it n
Ġb ck
Ġo ops
Ġre start
ing BBoxCoder
si ties
Ġm c
Ġm am
Ġm ant
Ġm utex
Ġm ilk
Ġ( __
Ġe g
Ġe or
Ġe li
Ġe gg
Ġe thnicity
un able
un lock
li ter
Ġw dic
Ġa veraging
Ġ1 25
Ġ1 84
Ġ1 97
(" ""<
(" *.
Ġ- --------------------------------
tur ing
get len
get weakref
and atory
Ġd la
Ġd pr
Ġd Ldb
es pecially
po cket
Ġtest Un
Ġis ort
ĠL inux
ĠT K
=" _
=" ?",<
Ġto lines
ĠC R
ĠC enter
ĠC HI
ĠC ascade
is test
is class
is numeric
Ġdi sh
Ġg hi
ĠS S
ĠS ync
ĠS queezer
Ġ2 200
Ġ2 003
Ġ2 88
Ġ_ ,<
et s
type d
data descriptor
ise nabled
file loader
ap is
ĠA fri
Ġex tent
Ġex clusive
Ġ{ {<
text line
() [:,
ex posed
Ġh omonymity
Ġh ierarchical
Ġde ps
Ġde norm
Ġde mod
Ġde clarations
add Class
ĠD one
ĠD IS
ĠD ark
ĠF ocal
AT CT
pre release
sh arp
sh aker
code set
im write
Ġ3 01
rain s
per former
line cache
Ġr type
Ġme at
py op
ĠP H
ĠP aper
ĠP SI
ĠP repare
ff le
ff fe
os ses
Ġse crets
Ġfile cmp
In tegral
Ġget Random
Ġget ting
sc ra
able List
ĠM H
ĠM ADDA
Ġ4 000
Ġy e
Ġy TrueSorted
Ġco alesced
Ġ/ <
Ġk itchen
ĠN xC
Ġclass Name
Ġsh all
Ġsh orten
ĠW R
ĠW INFUNCTYPE
check Error
mo ves
Ġch ip
Ġun wrapped
ĠO ct
ĠO VER
AP PA
Ġ"< !
DE E
DE PREC
Ġlist box
ĠR HO
ĠR Lock
ĠR ounded
den sed
ALL Y
temp orary
Ġint part
Ġloss D
gra b
cy clic
ĠU ns
ĠU sually
ĠU psample
ĠV ocab
conv olution
ĠG EN
log ged
log Dir
Ġ` (
us oid
min size
gt I
ST EP
St atic
sub st
sub tests
kw list
batch Size
split user
ĠRe arrange
no logo
cu lates
... \
Ġline term
Ġnew url
own ed
04 01
04 22
04 33
04 14
04 23
04 36
04 21
04 39
EN ET
mat o
Is Not
loop Iter
Ġcheck sentence
ag ari
nd o
Ġ10 5
level no
url safe
Ġal tered
Ex cept
11 8
MO MENT
Ġcol width
Ġsuper class
Ġro ugh
default Args
ren a
)) ["
ĠIn ternal
Ġ{} "<
Ġac ct
Ġac cessible
Ġcan on
pp c
34 4
34 9
AD irectory
Ġpy cache
db scan
be cause
count ry
ph en
av ig
char refs
Ġcontext s
AC l
ĠTest Handler
man g
encode bytes
Ġj a
Ġrun Command
Ġ... "<
IO ENCODING
02 6
02 9
Pro vide
ĠEx pecting
old own
message box
201 112
Ġle ftover
mon d
Ġlogger s
{} ]".
user site
Net scape
Net Def
Ġchar map
Ġdoc utils
seg fault
make cycle
Ġpl ane
mod s
ĠX I
win k
Ġ16 1
Ġ16 384
100 1
Ġmulti call
tra ilers
En viron
Ġ9 3
Ġobj copy
US ED
mented Colormap
handler List
over alapping
PE C
Ġapp data
Ġapp ending
hel met
rol lable
rol lover
ĠĠĠĠĠĠĠĠĠĠĠĠĠĠĠĠĠĠĠĠĠĠĠĠĠĠĠĠĠĠĠĠ ĠĠĠĠĠĠĠĠĠĠĠĠĠĠĠĠĠĠĠĠĠĠĠ
rand aug
rect ly
current xy
Ġcmd class
VER Y
Ġglobal ns
ng pus
UR ATION
Ġcolor izing
dec imals
ĠAn other
Ġcount ry
Ġnet G
ĠK APPA
ĠDe legator
HTTP Exception
stru c
Ġssl data
Ġca it
Ġca path
Ġar ticles
Ġbin aural
lap lacian
Ġlr u
ĠSe q
ĠST AT
86 9
Sh uffle
Ġskip keys
Ġcap ped
([" /
ĠJ ump
ĠConv Layer
ORIZ ED
"> \
builtin list
way mo
sym metries
her d
COL ORS
Ġmy data
76 54
style gan
perm utations
gener alized
cr asher
lon gs
Time RE
Ġidenti fies
IoU RandomCrop
Ġpas te
PAT CH
Argument Error
ĠBert Image
ĠTensor Flow
Default Trainer
NO OP
Inter rupted
indent ation
PY TORCH
ĠSU ITE
mis sis
Com ma
Ġsearch engine
234 56
ans wered
FFFF FFFF
hy pothe
Ġgc b
Ġ14 3
break poin
eg in
Ġresource Type
Int Subclass
prec ise
Ġfix es
iterator s
ĠUN K
Ġ": ":<
Per son
Per iod
Oper ations
Ġpri ming
Ġpri marily
Async Generator
extract file
Ġ"' %
DB M
"' ),<
Color Param
Ġlocale conv
Input DataFields
site dir
CR Y
abcdef gh
ĠInput Features
Ġ"\\ "<
Spec ify
uri er
App Id
?= ")<
uc rt
Ġ"{} _
COCO Dataset
large d
Qu AD
player x
player Index
ĠBu cket
'] }<
Ġpick lable
month days
ĠSub classes
Ġ:] ],
Address Error
Ġob type
sn iff
accept ing
Pattern s
ĠISO ams
Line Number
four th
Proxy File
"^ [
ĠRo ssum
Widget s
unix from
Img List
Skip ping
Optimizer Hook
ERS CORE
Ġfolder s
AUTH ORIZED
ilinear Interpolation
ĠPL AYER
Named Pipe
ĠCN RI
highlight thickness
gamma variate
Ġdetector s
Ġge om
velo ped
---+---+ <
Pass ing
Seg mentedColormap
rec Thrs
Ġhex digest
ĠProcess Pool
); ",
TextIO Base
ufe ff
Ġexperiment al
Ġcla ims
ĠPRO TO
Ġattemp ting
fri sbee
ĠBe am
TCP Test
euc JP
|\ |
Ġcycle s
quantize d
PACK AGE
Ġrequire ments
Cal c
UV Confidence
Ġpen color
Field Caster
Ġprodu cer
Ġctr ness
ĠTransformer Model
ĠLinear SegmentedColormap
Ġscan string
ĠStack AttCore
regions list
SHA RE
1415 9
mc g
Ġæ Ľ
ĠSingle Process
Wh ich
Wh itespace
Ġtran script
Tra ffic
Ġfood s
DOM Implementation
JSON DecodeError
ĠOp timizer
232 0
232 1
Ġprece ded
---+---+---+---+ ---+---+---+---+
Ġlc conv
Timer Handle
bp number
ĠLAM DA
Ġannot ate
Unexpected Success
ĠMon day
ĠAnn ealingLR
ĠGraph SAGE
FIEL DS
Reduce Op
Ġlex er
Pure Path
Ġ"**************** ****
Job Service
iff el
>+ ---+---+---+---+---+---+---+---+
poin ted
yyyyyyyyyyyyyyyy yyyyyyyyyyyyyyyy
ĠDense AttCore
ĠFin der
transp arent
transp arency
eig en
Ġmanage d
ĠSupport s
Hy brid
Scor ing
14159265 35
ĠAccess Token
ALG OR
TIM ER
Ġeas ier
Low Model
ĠdLd X
Ġsni ffer
WWWW WWWW
ĠEncodedVideo Info
rcpt tos
How ever
44444444 44444444
)| (
875 7
Ġcri tic
Dele ted
ĠvisAtt dim
cipient s
och astic
æĪ ĳ
æĻ ĭ
ĠFound ation
Ġparallelize d
\((.+)\ )"),
Ġhd lr
Password Mgr
ĠModi fied
ĠSlurm Config
Repeat Dataset
ImageList Q
ĠStage Spec
Poll Selector
Ġten ant
lli gence
Ġconver ters
Ġasyn chat
permis sions
Dependen cy
pitch er
uce t
Ġgz sd
ĠUpDown Core
ĠPacked Sequence
Ġbeh aves
batter y
fee der
RegionSize s
ĠWARN ING
checkRecvmsg Address
Ġwiki pedia
ĠTEM P
blan ket
ĠPairwise Modeler
assertSame Set
Ġgm toff
Aborted Error
Jit Target
RHOD L
WNO HANG
idi ty
éŃ ı
ascontiguous array
ĠgetRandom Pipe
DEPREC ATED
MOMENT UM
ADirectory Error
breakpoin thook
>+---+---+---+---+---+---+---+---+ ---+---+<
" |<
$ {
& '
& *
' ):<
' ?>\
) "]<
. ]+
/ ").
0 94
5 29
6 20
9 12
9 145
: #
< \
> /*
> """.
? _
? ="
A AD
A mount
B M
B i
B box
B ob
B ORDER
C AG
C osine
D UM
D BC
D escr
F ONT
F usion
F REQ
G L
G U
G n
G it
G CT
G ROUND
H LO
J O
J im
J OR
K G
K ILL
L B
L AYER
M ach
N R
N SEW
P lace
P kg
P ascal
R ange
R DS
S pe
S pectrogram
T ip
W ide
W atermark
W SGIServer
X iv
[ __
\ (
] }"<
_ )
b ability
b alance
b alloon
b olt
c j
c ir
d ad
d co
d sp
d dir
d under
d rant
e E
e H
e le
e CB
e quiv
f w
f lu
f odder
g il
g rpc
g allery
h ang
h sv
i P
i ocp
j upyter
k appa
n UUID
o e
p is
p text
p key
p cs
p aa
q t
r hs
s li
s ma
s oc
s lide
t filename
v cr
x pect
x options
x lm
y b
| "<
} ](
} >".
ç ľ
è ĩ
Ġ arm
in ode
in data
te levision
de an
de it
de tokenize
re ally
re SSL
on ame
Ġ" ====
le ry
al bat
Ġt id
Ġt iny
ar re
ar ithmetic
me al
me sg
Ġf src
Ġf ocal
Ġc out
Ġc wr
en tered
def n
ch et
Ġp text
Ġp layers
lo cally
Ġn u
Ġn threads
Ġn udge
Ġn aming
Ġs ax
Ġin data
Ġin structions
di late
di versity
Ġb ed
Ġb ill
Ġb undle
Ġb anned
Ġo uch
Ġre ap
Ġre loaded
ct l
", ))],<
Ġm si
Ġm ind
Ġ( {"
Ġe ver
Ġe lev
__ "])<
__ \(\)
__ >:
ck p
assert AddressError
un sup
un flatten
li ant
li ases
la re
Ġw all
Ġw oken
Ġw orth
Ġa ware
Ġa chats
Ġ1 56
Ġ1 90
fi len
fi xtures
(" ?
(" ****
(" )")<
ter rain
qu ux
ot s
ri tic
ri cally
get ters
get hostname
get ints
get slice
get incrementaldecoder
get CatIds
nt ac
th us
ul ing
Ġd file
set var
), ))<
es mtp
po site
Ġtest context
Ġtest Recv
Ġtest Recvmsg
Ġis file
Ġis Over
od a
ed Dataset
op lane
ĠT ake
ĠT rident
=" '
res urrect
is ascii
is awaitable
is EnabledFor
ke vent
Ġg ro
Ġg cv
Ġg rpc
Ġg auss
ĠS P
ĠS W
ĠS y
ĠS EE
ĠS GCN
ĠS limmable
ĠS QuAD
IN PLACE
ca it
ca file
ca cert
class PerWorker
file system
ĠA x
ĠA lias
ĠA scii
Ġex ceeds
sp lat
Ġ{ ")<
Ġh n
ab ove
ĠD IR
ĠD raw
end Document
ĠF INISHED
pt on
bu gger
Ġth r
line plot
ĠI AC
dir C
Ġme xpect
Ġu a
ĠP A
ĠB in
ĠB UF
Ġnum files
Ġpar dir
key cert
01 1111
01 31
Ġbe have
Ġse ct
ip ad
Ġfile mode
In st
In tern
ĠM al
ĠM ar
ĠM issing
ĠM ILLE
mb ert
Ġ4 04
Ġra m
Ġhe at
Ġco oking
lock f
Ġk all
ĠN ow
ĠW here
ĠE quivalent
ĠE HLO
ard own
max k
Con ditional
check cache
check ColorParam
") .<
Ġch air
Ġun wrap
Ġun like
ĠO PTION
Ġv x
Ġv min
IG W
format date
oo bull
ac ent
ac curacies
Ġset context
ir ing
Ġassert Not
Ġsys log
ic y
ĠR ight
ĠR atio
lib regrtest
den d
ALL OW
OR IG
norm G
Ġpo licies
cy rillic
ĠU NS
Type Lib
ĠV al
ĠH ar
ĠH and
ĠH ook
col ormode
call args
ĠG RB
wa gon
bo om
Ġ` [
Ġkey frame
clo ser
alle te
St ar
sub tag
sub plots
head Attention
tri dent
start pos
== =\
ĠRe peat
run py
04 9
04 25
04 20
04 15
04 18
04 13
04 48
04 54
04 51
EN SE
Ġ[" %
Ġla terals
Ġcfg s
Ex ternal
Ex tend
"\ "\
16 6
Ġcol lapsed
Ġsuper vised
Ġsub dirs
Ġsub mit
Ġsub system
atio Temporal
ND ER
Ġne lem
Ġstride d
ĠIn c
ĠIn stall
ĠIn teger
ĠIn stead
ĠIn vertedResidual
Ġcomp s
Ġcomp at
Ġ{} ),
Ġopt parse
sys log
sys conf
frame r
][ ...,
34 6
AD ATA
IS DIR
Name Patterns
use Segm
De termine
ual ity
do e
Se lection
ĠTest Dataclass
ĠTest Validator
Ġ"- "<
Res Block
local ized
Ġeval hook
Base InstanceMasks
Ġreg ener
Id InResponse
]) ",<
To Key
To Run
word piece
85 5
Ġzip data
Ġexp lo
Ġexp orted
14 2
14 39
MA JOR
ĠX Y
sig action
sig timed
OL S
80 8
(_ ["
Ġval ign
Ġstd v
Ġcontinue d
Ġcontinue s
Ġsocket pair
Ġ9 2
select background
At temp
US ING
wh atever
UN DEF
UN AUTHORIZED
Ġover view
pen ded
CH ILD
TO K
TO DO
script ing
multi call
]] :
]] ])<
Set ting
Set tings
Dict Reader
fail ing
ai T
Ġspecifi er
Ġmean r
Ġneg atives
78 3
78 4
order s
Ġmap size
Ġvalid s
Ġclo ser
Ġclo thes
Ġpad s
gen ome
Load Library
spam list
13 8
Ġlocal time
Ġite rate
Ġsum mar
Ġcolor map
bad syntax
PRO XY
({ '
ĠK on
ĠK NN
exit ing
ĠSt ore
PT S
Ġste reo
Ġmeta classes
rt ualenv
byte wise
00000000 0000000
Ġmod path
(". "))<
Ġsock type
Ġman ual
("/ ")[
Ġloader s
ĠST D
enti fic
dis allowed
Pi peline
mul head
acc um
backbone s
SO FT
Ġdiffe q
Sh allow
35 85
ĠData Parallel
single ton
ĠKey points
Ġcap it
Pre tty
ĠFor king
=' %
cent ral
26 0
26 9
Ġmat rices
36 5
pare ns
FILE DATA
PL AB
ĠIN ST
ĠIN DENT
Invalid Base
linear s
Object TreeItem
Ver b
27 2
cr u
FPN Config
sv n
hand bag
Man y
OUR CES
88 88
88 74
ĠRE AD
)] "<
Ġ"( $
Ġdst name
ĠSU CCESS
93 7
Com bined
234 56789
Ġ"[ %
Ġcoun ted
rot t
Ġgc d
cli dean
COM PIL
__() ".
any object
2222 22
ĠMock S
ĠUser String
("_ ")
Ġtz infos
Template Detector
Ġtraceback s
Request Err
Ġpri mitives
Ġremo ves
cap acity
Read ing
Resource Repository
ĠName s
ĠCOCO Evaluator
Ġdescription s
need le
Op ener
)} ),<
regular ization
Ġcodec tests
CRE F
And r
Param Scheduler
ookie Jar
Sp atiotemporalModel
MET ADATA
subclass check
Ġaccess ing
ĠIndex able
VERSION S
AND MARK
Ġregister ing
Ġexpand tabs
Do main
free vars
'' '
chain er
merge sort
Ġsim ulate
ĠBu iltin
Ġstrict ly
ĠModule NotFoundError
AY ERS
utc fromtimestamp
aut os
ink y
]* )*
sn ap
PYTHON PATH
Ġclean ed
walk packages
ĠRo Is
ĠAl low
should Stop
draw ing
Ġquote tabs
GR U
Post Base
MAG ENET
gr u
[...]
