{"<s>":0,"<pad>":1,"</s>":2,"<unk>":3,"<mask>":4,"!":5,"\"":6,"#":7,"$":8,"%":9,"&":10,"'":11,"(":12,")":13,"*":14,"+":15,",":16,"-":17,".":18,"/":19,"0":20,"1":21,"2":22,"3":23,"4":24,"5":25,"6":26,"7":27,"8":28,"9":29,":":30,";":31,"<":32,"=":33,">":34,"?":35,"@":36,"A":37,"B":38,"C":39,"D":40,"E":41,"F":42,"G":43,"H":44,"I":45,"J":46,"K":47,"L":48,"M":49,"N":50,"O":51,"P":52,"Q":53,"R":54,"S":55,"T":56,"U":57,"V":58,"W":59,"X":60,"Y":61,"Z":62,"[":63,"\\":64,"]":65,"^":66,"_":67,"`":68,"a":69,"b":70,"c":71,"d":72,"e":73,"f":74,"g":75,"h":76,"i":77,"j":78,"k":79,"l":80,"m":81,"n":82,"o":83,"p":84,"q":85,"r":86,"s":87,"t":88,"u":89,"v":90,"w":91,"x":92,"y":93,"z":94,"{":95,"|":96,"}":97,"~":98,"¡":99,"¢":100,"£":101,"¤":102,"¥":103,"¦":104,"§":105,"¨":106,"©":107,"ª":108,"«":109,"¬":110,"®":111,"¯":112,"°":113,"±":114,"²":115,"³":116,"´":117,"µ":118,"¶":119,"·":120,"¸":121,"¹":122,"º":123,"»":124,"¼":125,"½":126,"¾":127,"¿":128,"À":129,"Á":130,"Â":131,"Ã":132,"Ä":133,"Å":134,"Æ":135,"Ç":136,"È":137,"É":138,"Ê":139,"Ë":140,"Ì":141,"Í":142,"Î":143,"Ï":144,"Ð":145,"Ñ":146,"Ò":147,"Ó":148,"Ô":149,"Õ":150,"Ö":151,"×":152,"Ø":153,"Ù":154,"Ú":155,"Û":156,"Ü":157,"Ý":158,"Þ":159,"ß":160,"à":161,"á":162,"â":163,"ã":164,"ä":165,"å":166,"æ":167,"ç":168,"è":169,"é":170,"ê":171,"ë":172,"ì":173,"í":174,"î":175,"ï":176,"ð":177,"ñ":178,"ò":179,"ó":180,"ô":181,"õ":182,"ö":183,"÷":184,"ø":185,"ù":186,"ú":187,"û":188,"ü":189,"ý":190,"þ":191,"ÿ":192,"Ā":193,"ā":194,"Ă":195,"ă":196,"Ą":197,"ą":198,"Ć":199,"ć":200,"Ĉ":201,"ĉ":202,"Ċ":203,"ċ":204,"Č":205,"č":206,"Ď":207,"ď":208,"Đ":209,"đ":210,"Ē":211,"ē":212,"Ĕ":213,"ĕ":214,"Ė":215,"ė":216,"Ę":217,"ę":218,"Ě":219,"ě":220,"Ĝ":221,"ĝ":222,"Ğ":223,"ğ":224,"Ġ":225,"ġ":226,"Ģ":227,"ģ":228,"Ĥ":229,"ĥ":230,"Ħ":231,"ħ":232,"Ĩ":233,"ĩ":234,"Ī":235,"ī":236,"Ĭ":237,"ĭ":238,"Į":239,"į":240,"İ":241,"ı":242,"Ĳ":243,"ĳ":244,"Ĵ":245,"ĵ":246,"Ķ":247,"ķ":248,"ĸ":249,"Ĺ":250,"ĺ":251,"Ļ":252,"ļ":253,"Ľ":254,"ľ":255,"Ŀ":256,"ŀ":257,"Ł":258,"ł":259,"Ń":260,"ĠĠ":261,"ĠĠĠĠ":262,"ĠĠĠ":263,"ĠĠĠĠĠĠĠ":264,"se":265,"in":266,"ĠĠĠĠĠĠĠĠĠĠĠ":267,"or":268,")<":269,"te":270,"sel":271,"Ġ=":272,"self":273,"de":274,"re":275,"on":276,"st":277,"Ġ\"":278,"at":279,":<":280,"le":281,"><":282,"al":283,",<":284,"as":285,"Ġself":286,"Ġt":287,"ar":288,"Ġi":289,"me":290,"an":291,"er":292,"ĠĠĠĠĠĠĠĠĠĠĠĠĠĠĠ":293,"Ġf":294,"):<":295,"Ġc":296,"en":297,"ro":298,"def":299,"ti":300,"ch":301,"mp":302,"Ġp":303,"ge":304,"lo":305,"Ġn":306,"Ġs":307,"Ġin":308,"di":309,"ser":310,"ce":311,"it":312,"he":313,"Ġb":314,"Ġo":315,"ut":316,"pe":317,"Ġdef":318,"Ġre":319,"ĠĠĠĠĠĠĠĠ":320,"ra":321,"ĠĊ":322,"ur":323,"ct":324,"ing":325,"Ġ0":326,"\",":327,"si":328,"Ġm":329,"Ġ(":330,"Ġe":331,"sert":332,"__":333,"ck":334,"assert":335,"ad":336,"\"<":337,"un":338,"ame":339,"li":340,"co":341,"test":342,"Ġif":343,"ue":344,"la":345,"Ġw":346,"ort":347,"Ġa":348,"Ġ1":349,"fi":350,"00":351,"\",<":352,"(\"":353,"tion":354,"(<":355,"ter":356,"qu":357,"ot":358,"one":359,"id":360,"ze":361,"Ġfor":362,"Ġ-":363,"tur":364,"turn":365,"ri":366,"get":367,"el":368,"and":369,"Ġthe":370,"nt":371,"ype":372,"th":373,"Ġ[":374,"\")<":375,"ass":376,"ma":377,"mport":378,"ul":379,"arg":380,"ata":381,"()<":382,"ss":383,"]<":384,"name":385,"Ġ'":386,"Ġd":387,"None":388,"cl":389,"set":390,"Ġreturn":391,"),":392,"Ġ#":393,"up":394,"es":395,"ode":396,"ĠĠĠĠĠĠĠĠĠĠĠĠĠĠĠĠĠĠĠ":397,"ate":398,"val":399,"po":400,"um":401,"ati":402,"),<":403,"Ġtest":404,"qual":405,"Ġis":406,"Ġ\"\"":407,"xt":408,"Ġst":409,"od":410,"Equal":411,"))<":412,"ed":413,"ath":414,"orm":415,"int":416,"size":417,"op":418,"ror":419,"ox":420,"ĠL":421,"rom":422,"Ġ+":423,"ĠT":424,"con":425,"put":426,"=\"":427,"assertEqual":428,".<":429,"Ġ)<":430,"._":431,"Ġto":432,"ith":433,"res":434,"--":435,"args":436,"ĠC":437,"is":438,"Ġ*":439,"ke":440,"ult":441,"Ġdi":442,"ĠNone":443,"to":444,"ran":445,"ation":446,"il":447,"ver":448,"len":449,"Ġg":450,"ĠS":451,"IN":452,"Ġ2":453,"der":454,"Ġ_":455,"ig":456,"ER":457,"Ġof":458,"ment":459,"et":460,"ask":461,"lin":462,"all":463,"ca":464,"list":465,"orch":466,"mple":467,"Er":468,"Ġlo":469,"rue":470,"Error":471,"class":472,"ol":473,"path":474,"Ġ->":475,"type":476,"data":477,"vi":478,"ction":479,"\":":480,"from":481,"box":482,"[\"":483,"ise":484,"ile":485,"file":486,"Ġimport":487,"ap":488,"Ġcon":489,"ĠA":490,"ted":491,"Ġex":492,"\"]":493,"Ġ==":494,"Ġas":495,"Ġnot":496,"sp":497,"Ġ{":498,"text":499,"odel":500,"Ġ\"\\":501,"()":502,"ex":503,"Ġh":504,"atch":505,"Ġde":506,"fe":507,"add":508,"Ġwith":509,"import":510,"ab":511,"Ġand":512,"ms":513,"par":514,"ten":515,"ĠD":516,"Ġx":517,"ase":518,"ET":519,"AL":520,"ule":521,"Ġtorch":522,"end":523,"out":524,"ys":525,"ack":526,"ht":527,"ve":528,"est":529,"ĠF":530,"str":531,"ent":532,"AT":533,"alse":534,"fo":535,"pro":536,"Ġ\"\"\"<":537,"att":538,"':":539,"bj":540,"ann":541,"form":542,"pre":543,"odule":544,"value":545,"ample":546,"age":547,"sh":548,"dict":549,"ken":550,"\"\"":551,"code":552,"pt":553,"Ġ__":554,"lab":555,"im":556,"mage":557,"TER":558,"bu":559,"Ġ3":560,"els":561,"Ġ\"\"\"":562,"],":563,"ĠĠĠĠĠĠ":564,"rain":565,"ect":566,"ock":567,"Ġth":568,"ds":569,"Re":570,"ance":571,"Ġel":572,"per":573,"line":574,"sor":575,"Ġcl":576,"True":577,"Ġelse":578,"Ġdata":579,"Ġr":580,"ĠI":581,"dir":582,"ĠĠĠĠĠĠĠĠĠĠĠĠĠĠĠĠ":583,"ew":584,"sion":585,"ize":586,"init":587,"Ġout":588,"Ġor":589,"om":590,"atu":591,").":592,"IT":593,"Ġme":594,"..":595,"ption":596,"py":597,"am":598,"Ġu":599,"app":600,"ub":601,"yn":602,"ĠP":603,"Ġos":604,"ĠB":605,"Ġnum":606,"__(":607,"Test":608,"ore":609,"ta":610,"mask":611,"Ġ%":612,"fg":613,"ff":614,"Ġpar":615,"ETTER":616,"ĠLETTER":617,"stance":618,"key":619,"che":620,"',":621,"pec":622,"lay":623,"01":624,"Ġbe":625,"os":626,"ĠĠĠĠĠĠĠĠĠĠĠĠĠĠĠĠĠĠĠĠĠĠĠ":627,"ry":628,"ader":629,"ow":630,"Ġse":631,"Ġres":632,"ault":633,"fig":634,"Ġtype":635,"False":636,"zer":637,"ight":638,"ES":639,"\"\"\"<":640,"Ġma":641,"num":642,"Ġname":643,"Ġ>":644,"arget":645,"ape":646,"Ġpre":647,"Ra":648,"ises":649,"ip":650,"ON":651,"Ġfile":652,"ument":653,"Ġpro":654,"Ġlen":655,"bject":656,"time":657,"cale":658,"ly":659,"range":660,"In":661,"Ġstr":662,"Raises":663,"Ġget":664,"Ġan":665,"Ġ(<":666,"sc":667,"assertRaises":668,"layer":669,"read":670,"able":671,"Ġdict":672,"nn":673,"Ġ(\"":674,"ĠM":675,".__":676,"append":677,"mb":678,"Ġ4":679,"],<":680,"Ġargs":681,"Ġy":682,"----":683,"model":684,"train":685,"rint":686,"ding":687,"Ġra":688,"])<":689,"ist":690,"Ġhe":691,"Ġco":692,"Ġ/":693,"gn":694,"):":695,"art":696,"ATIN":697,"lock":698,"thod":699,"ĠLATIN":700,"Ġk":701,"gs":702,"ĠN":703,"cal":704,"Ġ<":705,"Ġmodel":706,"[:":707,"Ġ:":708,"Ġclass":709,"our":710,"():<":711,"dex":712,"wor":713,"ses":714,"Ġsh":715,"rans":716,"ĠW":717,"**":718,"ctor":719,"Ġinput":720,"tensor":721,"jo":722,"ĠE":723,"Ġen":724,"ard":725,"max":726,"ext":727,"chann":728,"gg":729,"bbox":730,"til":731,"token":732,"ou":733,"loat":734,"ite":735,"RE":736,"we":737,"Con":738,"check":739,"ind":740,"Ġnp":741,"que":742,"ces":743,"Ġ@":744,"ec":745,"oc":746,"pos":747,"mo":748,"cess":749,"tes":750,"argument":751,"module":752,"\")":753,"Ġch":754,"info":755,"Ġun":756,"Ġ),<":757,"error":758,"ĠO":759,"da":760,"sed":761,"AP":762,"Ġresult":763,"Ġsup":764,"Ġv":765,"ator":766,"Ġ\"<":767,"Ġim":768,"Ġfrom":769,"ĠĠĠĠĠĠĠĠĠĠ":770,"cfg":771,"IG":772,"port":773,"format":774,"roup":775,"Ġprint":776,"LE":777,"12":778,"attr":779,"RA":780,"Ġ[]<":781,"Ġraise":782,"ure":783,"oo":784,"Ġvalue":785,"Ġwh":786,"are":787,"ts":788,"ac":789,"Ġset":790,"DE":791,"img":792,"Ġl":793,"und":794,"ir":795,"Ġoutput":796,"ime":797,"point":798,"izer":799,"Ġassert":800,"Ġtry":801,"25":802,"ters":803,"Ġsys":804,"Ġlist":805,"input":806,"Ġnn":807,"Ġ[<":808,"ĠTrue":809,"stri":810,"ic":811,"channels":812,"feat":813,"Ġrange":814,"instance":815,"Ġ5":816,"back":817,"rite":818,"lit":819,"ps":820,"ĠR":821,"join":822,"lib":823,"ty":824,"Ġby":825,"Ġpass":826,"ource":827,"ild":828,"fa":829,"unc":830,"cept":831,"shape":832,"den":833,"vice":834,"Ġbox":835,"ALL":836,"OR":837,"reate":838,"temp":839,"syn":840,"norm":841,"quen":842,"config":843,"ler":844,"Ġimage":845,"rame":846,"low":847,"arn":848,"Ġop":849,"(),":850,"}<":851,"ittest":852,"with":853,"\":<":854,"Ġint":855,"unction":856,"ĠSM":857,"Ġloss":858,"reg":859,"Ġdefault":860,"Ġsize":861,"result":862,">>":863,"ĠSMALL":864,"map":865,"sign":866,"Ġimg":867,"pi":868,"Ġon":869,"if":870,"image":871,"Ġpo":872,"load":873,"weight":874,"labels":875,"gra":876,"com":877,"cy":878,"ĠU":879,"root":880,"Type":881,"ĠV":882,"uple":883,"atures":884,"ĠH":885,"ine":886,"foo":887,"Ġthat":888,"col":889,"loss":890,"label":891,"sample":892,"call":893,"Ġmask":894,"Lo":895,"andom":896,"rep":897,"IC":898,"conv":899,"ĠG":900,"ci":901,"log":902,"ray":903,"Ġtarget":904,"Ġbu":905,"([":906,"10":907,"\".":908,"32":909,"cls":910,"fix":911,"ception":912,"\"]<":913,"cs":914,"ber":915,"wa":916,"APIT":917,"ĠCAPIT":918,"ign":919,"ĠCAPITAL":920,"Ġtoken":921,"ĠFalse":922,"\"),<":923,"Ġtime":924,"gth":925,"ave":926,"Ġbbox":927,"AR":928,"lp":929,"bo":930,"red":931,"Ġmax":932,"vent":933,"Ġ`":934,"late":935,"for":936,"Ġ**":937,"us":938,"write":939,"als":940,".\"\"\"<":941,"array":942,"ssage":943,"base":944,"util":945,"method":946,"output":947,"state":948,"date":949,"lif":950,"son":951,"Ġexcept":952,"())<":953,"Ġkey":954,"min":955,"alue":956,"Ġfe":957,"cor":958,"gt":959,"tem":960,"lev":961,"[:,":962,"].":963,"Ġtext":964,"Ġare":965,"Ġparser":966,"lient":967,"clo":968,"ener":969,"\"),":970,"dataset":971,"=[":972,"ST":973,"ensor":974,"valid":975,"index":976,"spa":977,"ary":978,"Ġelif":979,"ne":980,"target":981,"lip":982,"heck":983,"alle":984,"St":985,"vide":986,"scale":987,"ward":988,"000":989,"sub":990,"torch":991,"ature":992,"comp":993,"float":994,"RO":995,"race":996,"kw":997,"head":998,"ransform":999,"tri":1000,"start":1001,"idth":1002,"ix":1003,"batch":1004,"64":1005,"net":1006,"ep":1007,"ump":1008,"pected":1009,"==":1010,"split":1011,"rc":1012,"ĠRe":1013,"ING":1014,"Ġobject":1015,"no":1016,"cu":1017,"eld":1018,"...":1019,"work":1020,"ress":1021,"chor":1022,"unt":1023,"Ġline":1024,"((":1025,"Ġnew":1026,"own":1027,"dim":1028,"idx":1029,"ĠĠĠĠĠĠĠĠĠĠĠĠĠĠĠĠĠĠĠĠĠĠĠĠĠĠĠ":1030,"json":1031,"keys":1032,"ocket":1033,"Ġ+=":1034,"string":1035,"run":1036,"qui":1037,"tial":1038,"04":1039,"EN":1040,"version":1041,"new":1042,"rent":1043,"ĠThe":1044,"gger":1045,"alueError":1046,"arning":1047,"ulti":1048,"Tensor":1049,"ations":1050,"Ġgt":1051,"coding":1052,"ther":1053,"},":1054,"asses":1055,"ong":1056,"Ġpath":1057,"by":1058,"Ġ[\"":1059,"mat":1060,"lace":1061,"ids":1062,"cur":1063,"ak":1064,"0000":1065,"Is":1066,"loop":1067,"lob":1068,"object":1069,"ion":1070,"andler":1071,"Ġcheck":1072,"EST":1073,"thon":1074,"ride":1075,"Ġcode":1076,"Ġatt":1077,"Ġit":1078,"Ġ.":1079,"().":1080,"ams":1081,"Case":1082,"ag":1083,"nd":1084,"ll":1085,"22":1086,"space":1087,"ITH":1088,"Ġla":1089,"Ġ10":1090,"level":1091,"url":1092,"nel":1093,"Ġ8":1094,"of":1095,"Ġisinstance":1096,"UT":1097,"ume":1098,"tim":1099,"Ġtrain":1100,"Ġal":1101,"ĠWITH":1102,"feats":1103,"Ġcfg":1104,"TestCase":1105,"ded":1106,"Ġwe":1107,"ron":1108,"process":1109,"group":1110,"ernel":1111,"tin":1112,"length":1113,"iter":1114,"Module":1115,"\"):<":1116,"inter":1117,"Ġhas":1118,"IL":1119,"Ġmodule":1120,"Ex":1121,"its":1122,"ill":1123,"assertTrue":1124,"assertIs":1125,"Ġdataset":1126,"Ġ!":1127,"kip":1128,"ory":1129,"11":1130,"Ġnorm":1131,"AS":1132,"ED":1133,"Ġhelp":1134,"rop":1135,"poch":1136,"\"))<":1137,"rap":1138,"zip":1139,"Ġall":1140,"--------":1141,"MO":1142,"coder":1143,"tain":1144,"utils":1145,"\"\\":1146,"Ġ!=":1147,"ĠĠĠĠĠĠĠĠĠĠĠĠĠĠ":1148,"ef":1149,"block":1150,"Ġsp":1151,"Ġ|":1152,"16":1153,"CO":1154,"unittest":1155,"Ġuse":1156,"Ġcur":1157,"ust":1158,"masks":1159,"ĠĠĠĠĠ":1160,"tent":1161,"//":1162,"ION":1163,"func":1164,"HT":1165,"video":1166,"Data":1167,"lines":1168,"pth":1169,"mbed":1170,"quest":1171,"Ġthis":1172,"pu":1173,"ach":1174,"ug":1175,"inal":1176,"03":1177,"imal":1178,"ers":1179,"Ġ):<":1180,"Ġcol":1181,"mand":1182,"Ġsuper":1183,"Ġadd":1184,"layers":1185,"Ġbatch":1186,"kwargs":1187,"ost":1188,"ree":1189,"Ġ\"--":1190,"Ġstring":1191,"filename":1192,"classes":1193,"Ġro":1194,"ĠAr":1195,"oth":1196,"Ġsub":1197,"atio":1198,"TypeError":1199,"view":1200,"arch":1201,"ync":1202,"default":1203,"var":1204,"ren":1205,"ctions":1206,"context":1207,"close":1208,"))":1209,"led":1210,"Ġ>>>":1211,"ND":1212,"atten":1213,"bboxes":1214,"99":1215,"abc":1216,"obj":1217,"Ġsample":1218,"ity":1219,"open":1220,"Ġne":1221,"Ġstride":1222,"tokens":1223,"wait":1224,"Ġ{<":1225,"ĠIn":1226,"eval":1227,"Ġcomp":1228,"Ġconfig":1229,"main":1230,"Ġopen":1231,"tp":1232,"Ġoption":1233,"bs":1234,"Ġtensor":1235,"File":1236,"allel":1237,"(-":1238,"features":1239,"bar":1240,"Ġ{}":1241,"sition":1242,"annot":1243,"ble":1244,"Ġ\".":1245,"server":1246,"Par":1247,"otal":1248,"ream":1249,"create":1250,"Ġopt":1251,"Ġac":1252,"50":1253,"sg":1254,"Ġdo":1255,"Ġmin":1256,"doc":1257,"Ġid":1258,"exp":1259,"msg":1260,"ght":1261,"ias":1262,"Ġother":1263,"parse":1264,"sys":1265,"resh":1266,"ield":1267,"Ġexpected":1268,"sup":1269,"frame":1270,"ld":1271,"Ġerror":1272,"Ġcls":1273,"scri":1274,"uth":1275,"Ġpos":1276,"Ġstate":1277,"Ġmethod":1278,"link":1279,"][":1280,"Ġ6":1281,"Ġwor":1282,"Ġfunction":1283,"uct":1284,"boxes":1285,"Ġresults":1286,"rank":1287,"Ġcan":1288,"pp":1289,"34":1290,"pn":1291,"his":1292,"=(":1293,"DEL":1294,"20":1295,"iv":1296,"md":1297,"sum":1298,"cation":1299,"cate":1300,"rate":1301,"peci":1302,"AD":1303,"IS":1304,"copy":1305,"Ġstart":1306,"AM":1307,">)<":1308,"cat":1309,"Ġsupport":1310,"Ġdim":1311,"fre":1312,"56":1313,"ull":1314,"Name":1315,"update":1316,"Ġarg":1317,"Ġpy":1318,"points":1319,"ark":1320,"Ġ{\"":1321,"use":1322,"ste":1323,"Ġlog":1324,"tern":1325,"ome":1326,"Ġ]<":1327,"Ġgroup":1328,"Ġbase":1329,"db":1330,"'<":1331,"iou":1332,"Ġcom":1333,"Ġscale":1334,"://":1335,"be":1336,"Ġ7":1337,"Ġargument":1338,"IP":1339,"Ġcall":1340,"count":1341,"ast":1342,"Ġmsg":1343,"adding":1344,"De":1345,"ml":1346,"ĠIf":1347,"round":1348,"ute":1349,"ĠReturn":1350,"ual":1351,"men":1352,"timizer":1353,"uld":1354,"Ġpi":1355,"pl":1356,"pack":1357,"Norm":1358,"width":1359,"ph":1360,"device":1361,"Ġsc":1362,"mode":1363,"Ġused":1364,"MODEL":1365,"av":1366,"Ġconv":1367,"do":1368,"ony":1369,"FF":1370,"Ġblock":1371,"ally":1372,"Se":1373,"pred":1374,"char":1375,"OU":1376,"Ġcontext":1377,"AC":1378,"ref":1379,"ĠTest":1380,"256":1381,"mbda":1382,"\\\\":1383,"Ġ['":1384,"Di":1385,"man":1386,"ameters":1387,"quency":1388,"AN":1389,"ratio":1390,"lable":1391,"ffe":1392,"lags":1393,"rid":1394,"ok":1395,"opt":1396,"Ġnumber":1397,"np":1398,"cuda":1399,"ĠArgs":1400,"lement":1401,"ange":1402,"err":1403,"encode":1404,"skip":1405,"gging":1406,"Ġ{'":1407,"Ġdel":1408,"synset":1409,"Ġ\"-":1410,"ould":1411,"tr":1412,"option":1413,"TEST":1414,"ribu":1415,"Ġwill":1416,"parser":1417,"aa":1418,"ax":1419,"row":1420,"iz":1421,"Ġ12":1422,"frequency":1423,"ay":1424,"synony":1425,"Res":1426,"atus":1427,"LO":1428,"air":1429,"'],":1430,"\"])<":1431,"replace":1432,"sing":1433,"ĠCon":1434,"ffer":1435,"Ġno":1436,"Ġtemp":1437,"synonyms":1438,"std":1439,"'},":1440,"has":1441,"24":1442,"List":1443,"Ġj":1444,"epoch":1445,"Ġrun":1446,"ID":1447,"[-":1448,"attention":1449,"lu":1450,"Ġ...":1451,"local":1452,"item":1453,"****":1454,"Not":1455,"umpy":1456,"Ġindex":1457,"Ġfloat":1458,"Ġeval":1459,"event":1460,"posals":1461,"itial":1462,"ctory":1463,"xy":1464,"Ġ\"__":1465,"ool":1466,"Ġmode":1467,"IO":1468,"ped":1469,"trained":1470,"Ġunittest":1471,"idden":1472,"prefix":1473,"Ġshape":1474,"ft":1475,"Conv":1476,"Un":1477,"emp":1478,"ook":1479,"onse":1480,"Ġforward":1481,"ich":1482,"Ġend":1483,"ĠPy":1484,"Ke":1485,"lean":1486,"IGHT":1487,"CT":1488,"grad":1489,"('":1490,"AB":1491,"33":1492,"Base":1493,"Ġlabel":1494,"items":1495,"Ġreg":1496,"Ġinstance":1497,"TP":1498,"\"],":1499,"params":1500,"02":1501,">_":1502,"alize":1503,"stride":1504,"Ġframe":1505,"=-":1506,"Ġad":1507,"ecimal":1508,"He":1509,"Pro":1510,"Ġcreate":1511,"match":1512,"Ġmock":1513,"ound":1514,"Ġfa":1515,"top":1516,"seq":1517,"ĠValueError":1518,"ĠEx":1519,"indow":1520,"Id":1521,"old":1522,"Ġkernel":1523,"wo":1524,"])":1525,"ner":1526,"message":1527,"Ġformat":1528,"Ġwhile":1529,"orted":1530,"chors":1531,"Ġcontain":1532,"embed":1533,"OX":1534,"decode":1535,"repr":1536,"mock":1537,"riter":1538,"201":1539,"Ġtuple":1540,"Ġle":1541,"Ġlabels":1542,"function":1543,"inds":1544,"tive":1545,"example":1546,"loader":1547,"parallel":1548,"results":1549,"mon":1550,"IZ":1551,"To":1552,"Ġfilename":1553,"Ġbuild":1554,"ckle":1555,"support":1556,"Ġper":1557,";\":":1558,"the":1559,"Ġ)":1560,"Key":1561,"extra":1562,"amp":1563,"Ġcor":1564,"dices":1565,"pect":1566,"lim":1567,"lass":1568,"quence":1569,"_(":1570,"transform":1571,"IGN":1572,"mean":1573,"stribu":1574,"tle":1575,"task":1576,"peline":1577,"Ġboxes":1578,"ores":1579,"Ġlogger":1580,"right":1581,"{}":1582,">@":1583,"user":1584,"thr":1585,"ĠReturns":1586,"move":1587,"Ġtransform":1588,"Ġinter":1589,"word":1590,"OT":1591,"assertFalse":1592,"UM":1593,"SE":1594,"cre":1595,"Net":1596,"mark":1597,"reak":1598,"bone":1599,"enter":1600,"Ġrandom":1601,"mt":1602,"header":1603,"coco":1604,"types":1605,"score":1606,"socket":1607,"ister":1608,"trace":1609,"Ġat":1610,"Ġglob":1611,"Ġchar":1612,"ated":1613,").__":1614,"find":1615,"enerator":1616,"Ġdoc":1617,"85":1618,"HE":1619,"ling":1620,"bin":1621,"seg":1622,"clu":1623,"ValueError":1624,"]:<":1625,"Ġ{}<":1626,"patch":1627,"dent":1628,"Ġread":1629,"make":1630,"Ġpl":1631,"Ġzip":1632,"Ġlayer":1633,"tinue":1634,"Ġeach":1635,"\"],<":1636,"ping":1637,"Ġexp":1638,"ĠThis":1639,"cache":1640,"fp":1641,"Ġcurrent":1642,"UL":1643,"entry":1644,"Ġload":1645,"(*":1646,"tic":1647,"Ġevent":1648,"python":1649,"CK":1650,"Ġiter":1651,"client":1652,"bytes":1653,"off":1654,"Ġback":1655,"Ġrep":1656,"Ġtrace":1657,"Ġdevice":1658,"zeros":1659,"FN":1660,"fter":1661,"ns":1662,"14":1663,"Ġclient":1664,"ative":1665,"Co":1666,"ĠĠĠĠĠĠĠĠĠĠĠĠĠĠĠĠĠĠĠĠĠĠĠĠĠĠĠĠĠĠĠ":1667,"cv":1668,"tuple":1669,"MA":1670,"ONT":1671,"Ġshould":1672,"QU":1673,"Ġ//":1674,"mod":1675,"Ġone":1676,"pose":1677,"Ġfeat":1678,"mory":1679,"scores":1680,"alo":1681,"pecifi":1682,"Tests":1683,"fc":1684,"ĠX":1685,"Ġpadding":1686,"idget":1687,"Ġmessage":1688,"sig":1689,"====":1690,"OL":1691,"viron":1692,"ang":1693,"Ġmatch":1694,"80":1695,"VE":1696,"names":1697,"irst":1698,"Ġ>=":1699,"arent":1700,"ant":1701,"del":1702,"ression":1703,"Ġwhich":1704,"lation":1705,"unk":1706,"bug":1707,"Ġ--":1708,"ous":1709,"INGS":1710,"lr":1711,"win":1712,"return":1713,"IR":1714,"__()<":1715,"vert":1716,"elds":1717,"Ġsu":1718,"ched":1719,"Instance":1720,"Ġweight":1721,"Ġwidth":1722,"source":1723,"15":1724,"ies":1725,"RAW":1726,"quires":1727,"bn":1728,"spec":1729,"ization":1730,"Ġ16":1731,"ĠĠĠĠĠĠĠĠĠĠĠĠĠĠĠĠĠĠ":1732,"aster":1733,"exec":1734,"ery":1735,"Ġeq":1736,"eta":1737,"Ġsign":1738,"Dataset":1739,"100":1740,"Ġq":1741,"su":1742,"(_":1743,"andle":1744,"sw":1745,"color":1746,"Ġmulti":1747,"Ġval":1748,"Ġasync":1749,"Ġlast":1750,"ert":1751,"Up":1752,"tra":1753,"Ġdtype":1754,"Ġstd":1755,"\").":1756,"Ġwhen":1757,"Ġawait":1758,"Ġext":1759,"Ġcontinue":1760,"resp":1761,"cab":1762,"Ġsocket":1763,"pout":1764,"iven":1765,"Ġlogging":1766,"Me":1767,"Ġurl":1768,"En":1769,"Ġtop":1770,"attern":1771,"long":1772,"HA":1773,"Ġ9":1774,"Ġorig":1775,"Ġfirst":1776,"ropout":1777,"next":1778,"rix":1779,"my":1780,"Ġresp":1781,"Ġnext":1782,"ĠSIGN":1783,")),<":1784,"Ġencoding":1785,"select":1786,"arnings":1787,"Ġsource":1788,")))<":1789,"At":1790,"stage":1791,"Ġexample":1792,"random":1793,"ILL":1794,"Ġobj":1795,"ignore":1796,"trans":1797,"CE":1798,"US":1799,"comple":1800,"ĠDRAW":1801,"ĠBOX":1802,"Ġpred":1803,"ĠDRAWINGS":1804,"Return":1805,"Ġjson":1806,"cio":1807,"fir":1808,"not":1809,"wh":1810,"weights":1811,"Ġann":1812,"denti":1813,"PO":1814,"factor":1815,"side":1816,"rectory":1817,"Ġ'<":1818,"feren":1819,"node":1820,"Ġaction":1821,"save":1822,"xe":1823,"tiv":1824,"yncio":1825,"mented":1826,"TH":1827,"keep":1828,"umerate":1829,")]<":1830,"sen":1831,"cted":1832,"Ġver":1833,"handler":1834,"Ġfunc":1835,"ocab":1836,"prob":1837,"(),<":1838,"abs":1839,"Ġyield":1840,"quee":1841,"ĠAND":1842,"ager":1843,"swith":1844,"tk":1845,"Ġdete":1846,"Ġseq":1847,"Ġ\"_":1848,"Ġpredi":1849,"stributed":1850,"over":1851,"io":1852,"fd":1853,"uture":1854,"print":1855,"perty":1856,"command":1857,"depth":1858,"Ġvideo":1859,"exception":1860,"IM":1861,"gpu":1862,"Ġversion":1863,"zero":1864,"UN":1865,"utf":1866,"Ġbytes":1867,"ody":1868,"Py":1869,"Ġ],<":1870,"Ġoff":1871,"step":1872,"uff":1873,"ract":1874,"register":1875,"cii":1876,"targets":1877,"PE":1878,"only":1879,"``":1880,"modules":1881,"encoding":1882,"template":1883,"lect":1884,"last":1885,"ransp":1886,"\"\"\"":1887,"tocol":1888,"derr":1889,"mail":1890,"ton":1891,"xx":1892,"Ġapp":1893,"send":1894,"ĠType":1895,"FT":1896,"__,":1897,"total":1898,".\"<":1899,"xc":1900,"values":1901,"mentation":1902,"Ġenumerate":1903,"flags":1904,"Ġ\"%":1905,")):<":1906,"Ġover":1907,"__(<":1908,"pen":1909,"Ġtokens":1910,"Ġfoo":1911,"ERT":1912,"Ġmust":1913,"less":1914,"Ġ\\":1915,"compile":1916,"Ġimages":1917,"xb":1918,"raw":1919,"CH":1920,"hel":1921,"'s":1922,"xa":1923,"Loss":1924,"TO":1925,"fn":1926,"vis":1927,"wrap":1928,"ENT":1929,"other":1930,"du":1931,"roi":1932,".\\":1933,"buffer":1934,").<":1935,"iss":1936,"05":1937,"exten":1938,"annotations":1939,"offset":1940,"PN":1941,"Ġtf":1942,"ek":1943,"opy":1944,"queeze":1945,"Ġtask":1946,"Ġitem":1947,"efault":1948,"script":1949,"icode":1950,"Ġerr":1951,"address":1952,"parameters":1953,"},<":1954,"Ġfeatures":1955,"Ġfin":1956,"Ġmake":1957,"Ġz":1958,"sy":1959,"grid":1960,"loc":1961,"Head":1962,")),":1963,"Class":1964,"position":1965,"Ġlambda":1966,"kernel":1967,"ross":1968,"ascii":1969,"sock":1970,"Image":1971,"left":1972,"19":1973,"sent":1974,"cle":1975,"first":1976,"rol":1977,"BLE":1978,"Ġkeys":1979,"ists":1980,"utton":1981,"Ġ<=":1982,"tag":1983,"ĠĠĠĠĠĠĠĠĠĠĠĠĠĠĠĠĠĠĠĠĠĠĠĠĠĠĠĠĠĠĠĠ":1984,"logits":1985,"mer":1986,"param":1987,"squeeze":1988,"post":1989,"sl":1990,"linen":1991,"Ġnode":1992,"Ġ``":1993,"multi":1994,"stack":1995,"here":1996,"atic":1997,"ĠList":1998,"YR":1999,"Ġgiven":2000,"Ġ\"/":2001,"dist":2002,"field":2003,"glob":2004,"Ġserver":2005,"TESTFN":2006,"Ġdist":2007,"Ġwork":2008,"Ġbreak":2009,"inear":2010,"DAT":2011,"Ġfp":2012,"Ġkw":2013,"fil":2014,"OUBLE":2015,"table":2016,"ution":2017,"rand":2018,"yle":2019,"]]":2020,"Ġvar":2021,"Set":2022,"Ġhave":2023,"Dict":2024,"assi":2025,"Ġheader":2026,"ĠOption":2027,"ransport":2028,"Ġutil":2029,"mplemented":2030,"ĠDOUBLE":2031,"Ġoffset":2032,"RES":2033,"au":2034,"Str":2035,"42":2036,"gex":2037,"Ġvalues":2038,"ont":2039,"fail":2040,"Ġ\",":2041,"Ġtraining":2042,"struct":2043,"ose":2044,"df":2045,"200":2046,"ai":2047,"feature":2048,"rcnn":2049,"Ġidx":2050,"pipeline":2051,"30":2052,"licy":2053,"src":2054,"child":2055,"Model":2056,"Ġcodecs":2057,"seed":2058,"gram":2059,"Ġtotal":2060,"Handler":2061,"pad":2062,"Ġnumpy":2063,"leanup":2064,"lineno":2065,"Ar":2066,"ingle":2067,"pool":2068,"ain":2069,"ILLIC":2070,"YRILLIC":2071,"chedule":2072,"Ġ..":2073,"ĠCYRILLIC":2074,"Ġ32":2075,"'t":2076,"Ġnon":2077,"Ġspecifi":2078,"indices":2079,"clude":2080,"ide":2081,"cape":2082,"vision":2083,"atchNorm":2084,"REE":2085,"ning":2086,"lag":2087,"OW":2088,"files":2089,"rect":2090,"ote":2091,"host":2092,"Exception":2093,"anes":2094,"Ġlevel":2095,"dio":2096,">\"\"\"<":2097,"org":2098,"Ġbias":2099,"height":2100,"75":2101,"Ġmean":2102,"current":2103,"Ġinit":2104,"arm":2105,"alled":2106,"crement":2107,"EX":2108,"Ġsplit":2109,"Ġroot":2110,"ameter":2111,"Ġbboxes":2112,"relu":2113,"The":2114,"Ġqu":2115,"Ġonly":2116,"Ġhasattr":2117,"http":2118,"channel":2119,")[":2120,"Sample":2121,"ĠĠĠĠĠĠĠĠĠ":2122,"Ġneg":2123,"environ":2124,"Ġnms":2125,"rb":2126,"orig":2127,"ĠDecimal":2128,"posal":2129,"non":2130,"Ġign":2131,"Ġdir":2132,"optimizer":2133,"expected":2134,"Ġmo":2135,"Ġany":2136,"ference":2137,"sses":2138,"zen":2139,"distributed":2140,"strip":2141,"tas":2142,"checkpoint":2143,"78":2144,"tribu":2145,"act":2146,"trol":2147,"async":2148,"Ġcommand":2149,"order":2150,"Ġthread":2151,"instances":2152,"itialize":2153,"matrix":2154,"Ġmap":2155,"td":2156,"rozen":2157,"asic":2158,"assertIn":2159,"Random":2160,"content":2161,"bias":2162,"Ġposition":2163,"ear":2164,"Ġhead":2165,"Ġcopy":2166,"Ġcmd":2167,"groups":2168,"EL":2169,"06":2170,"Ġvalid":2171,"Ġtokenizer":2172,"By":2173,"Ġclo":2174,"Ġresponse":2175,"As":2176,"probs":2177,"Ġseg":2178,"hash":2179,"alog":2180,"can":2181,"Ġpad":2182,"Ġproposals":2183,"SS":2184,"Ġerrors":2185,"tps":2186,"ground":2187,"stat":2188,"ampling":2189,"Ġ&":2190,"gen":2191,"Ġloop":2192,"Ġpoint":2193,"aug":2194,"stdout":2195,"down":2196,"\"].":2197,"empty":2198,"Ġarguments":2199,"AG":2200,"pop":2201,"called":2202,"package":2203,"bool":2204,"thread":2205,"ĠUn":2206,"Ġ:,":2207,"18":2208,"UP":2209,"ript":2210,"build":2211,"nection":2212,"stop":2213,"full":2214,"Ġexc":2215,"dump":2216,"lic":2217,"55":2218,"Ser":2219,"store":2220,"anchors":2221,"Box":2222,"txt":2223,"wise":2224,"Load":2225,"ĠTypeError":2226,"pair":2227,"ĠY":2228,"atform":2229,"igh":2230,"ift":2231,"ake":2232,"INT":2233,"exc":2234,"VER":2235,"options":2236,"Ġcal":2237,"SError":2238,"Ġkeep":2239,"Ġoper":2240,"Ġgetattr":2241,"bose":2242,"gument":2243,"property":2244,"meta":2245,"Ġsave":2246,"conn":2247,"Ġhidden":2248,"Parser":2249,"sampler":2250,"dd":2251,"Ġ}<":2252,"Ġ100":2253,"=[\"":2254,"like":2255,"Ġpack":2256,"Ġup":2257,"cond":2258,"Mock":2259,"Ġglobal":2260,"Ġct":2261,"lete":2262,"Ġchann":2263,"fields":2264,"Ġgra":2265,"Ġadj":2266,"ng":2267,"Ġfol":2268,"Ġuser":2269,"heads":2270,"Ġassign":2271,"iltin":2272,"----------------":2273,"pk":2274,"NAM":2275,"spam":2276,"</":2277,"(\"--":2278,"ple":2279,"Ġlines":2280,"Ġexec":2281,"Ġprefix":2282,"moid":2283,"reshape":2284,"ĠOptional":2285,"Ġpretrained":2286,"teg":2287,"remove":2288,"Ġfiles":2289,"Ġattribu":2290,"]):":2291,"UR":2292,"ATION":2293,"ared":2294,"Ġattr":2295,"Ġoptimizer":2296,"utable":2297,"Ġfeature":2298,"ify":2299,"ww":2300,"Code":2301,"Ġattention":2302,"Ġdepth":2303,"Ġtmp":2304,"ĠPython":2305,"13":2306,"FI":2307,"={":2308,"Ġ64":2309,"Ġlocal":2310,"Ġinto":2311,"tribute":2312,"::":2313,"try":2314,"][\"":2315,"Linear":2316,"assertNot":2317,"api":2318,"addr":2319,"../":2320,"ie":2321,"Ġtr":2322,"stract":2323,"Implemented":2324,"Ġprocess":2325,"hidden":2326,"status":2327,"thresh":2328,"Ġanchor":2329,"fore":2330,"rnn":2331,"Ġ42":2332,"xf":2333,"Ġite":2334,"Ġgener":2335,"Ġsum":2336,"Sampler":2337,"Ġcolor":2338,"Ġevalu":2339,"cores":2340,"ord":2341,"lambda":2342,"Ġoptional":2343,"wd":2344,"Ġav":2345,"Ġdate":2346,"dec":2347,"logger":2348,"Ġctx":2349,"ĠZ":2350,"mpu":2351,"Ġstage":2352,"bad":2353,"ench":2354,"Ġpickle":2355,"tests":2356,"Ġlength":2357,"iable":2358,"ĠAn":2359,"HEAD":2360,"CN":2361,"ĠAC":2362,"queue":2363,"Ġty":2364,"Ġcount":2365,"ive":2366,"oft":2367,":`":2368,"equal":2369,"ash":2370,"titem":2371,"Ġexception":2372,"dirs":2373,"samples":2374,"Ġcv":2375,"INF":2376,"oi":2377,"two":2378,"Ġnet":2379,"proposals":2380,"errors":2381,"callback":2382,"assifi":2383,"BatchNorm":2384,"Ġsame":2385,"IGIT":2386,"Ch":2387,"PRO":2388,"tence":2389,"inputs":2390,"({":2391,"Ġ\"\"<":2392,"expand":2393,"(\"-":2394,"IZE":2395,"olution":2396,"Regex":2397,"Ġspec":2398,"ĠRes":2399,"885":2400,"Ġmath":2401,"coun":2402,"clip":2403,"disp":2404,"********":2405,"')<":2406,"cpu":2407,"gu":2408,"ntax":2409,"Ġfc":2410,"Ġasyncio":2411,"static":2412,".\",<":2413,"exists":2414,"Ġdoes":2415,"ĠK":2416,"exit":2417,"96":2418,"pc":2419,"ĠDe":2420,"Ġax":2421,"tokenizer":2422,"From":2423,"true":2424,"Ġwrite":2425,"Ġtransforms":2426,"Ġentry":2427,"insert":2428,"flow":2429,"__<":2430,"workspace":2431,"Run":2432,"Ġscores":2433,"ĠSt":2434,"Ġparams":2435,"ĠNot":2436,"Ġht":2437,"8859":2438,"PT":2439,"rit":2440,"xd":2441,"startswith":2442,"request":2443,"ORM":2444,"Ġste":2445,"ness":2446,"zz":2447,"Ġnames":2448,"Ġencode":2449,"Ġfound":2450,"cket":2451,"cmd":2452,"Ġmm":2453,"ols":2454,"Ġmain":2455,"ĠDIGIT":2456,"board":2457,"tric":2458,"17":2459,"ĠDi":2460,"Warning":2461,"Ġmeta":2462,"Ġ{}\".":2463,"requires":2464,"Ġnd":2465,"service":2466,"dete":2467,"generator":2468,"env":2469,"armup":2470,"1000":2471,"lease":2472,"Col":2473,"mpty":2474,"tail":2475,"future":2476,"nms":2477,"rable":2478,"thing":2479,"rt":2480,"Ġsrc":2481,"2017":2482,"Ġsorted":2483,"Ġepoch":2484,"apping":2485,"Ġheight":2486,"assertIsInstance":2487,"HTTP":2488,"UTE":2489,"(\"\\":2490,"oun":2491,"Context":2492,"ranch":2493,"23":2494,"sizes":2495,"Ġfinally":2496,"ssl":2497,"ummy":2498,"\"][":2499,"ments":2500,"stru":2501,"Ġignore":2502,"stall":2503,"Ġafter":2504,"Ġsequence":2505,"KE":2506,"Ġssl":2507,"ting":2508,"lections":2509,"Ġca":2510,"ĠLE":2511,"limit":2512,"byte":2513,"pha":2514,"ML":2515,"Comp":2516,"cremental":2517,"84":2518,"00000000":2519,"IA":2520,"part":2521,"vocab":2522,"predi":2523,"body":2524,"Ġar":2525,"verage":2526,"Ġallow":2527,"auth":2528,"Ġtargets":2529,"})<":2530,"Ġmod":2531,"bench":2532,"Ġfil":2533,"Ġoutputs":2534,"ARK":2535,"Ġbin":2536,"Ġmay":2537,"(\"<":2538,"Ġdecode":2539,"ures":2540,"uto":2541,"resource":2542,"istr":2543,"ined":2544,"ĠAt":2545,"006":2546,"CL":2547,"44":2548,"numpy":2549,"ĠRIGHT":2550,"77":2551,"dition":2552,"Ġdisp":2553,"tivation":2554,"question":2555,"Ġio":2556,"images":2557,"ĠLEFT":2558,"Down":2559,"gon":2560,"Ġorder":2561,"Ġoriginal":2562,"Ġarray":2563,"ense":2564,"iso":2565,"Loader":2566,"\"{":2567,"lower":2568,"Ġcheckpoint":2569,"EM":2570,"lap":2571,"Ġlr":2572,"Ġusing":2573,"redu":2574,"Ġelement":2575,"Path":2576,"serv":2577,"sible":2578,"Ġrepr":2579,"ba":2580,"Ġflip":2581,"uration":2582,"Ġstream":2583,"Ġinputs":2584,"INE":2585,"FA":2586,"filter":2587,"imple":2588,"Ġupdate":2589,"Ġstatus":2590,"STR":2591,"tmp":2592,"cay":2593,"1234":2594,"Ġtrans":2595,"Ġcalled":2596,"ancel":2597,"Ġenv":2598,"cord":2599,"core":2600,"Ġfinal":2601,"change":2602,"Ġte":2603,"Ġanchors":2604,"pass":2605,"ĠDefault":2606,"HO":2607,"Get":2608,"Ġ20":2609,"ĠsetUp":2610,"Ġextra":2611,"plo":2612,"unsqueeze":2613,"complete":2614,"Ġsingle":2615,"iled":2616,"ĠSe":2617,"REEK":2618,"forward":2619,"title":2620,"Ġbut":2621,"Ġwarnings":2622,"Ġcrop":2623,"ctron":2624,"Ġinfo":2625,"(\".":2626,"Decimal":2627,"cc":2628,"Node":2629,"__)<":2630,"0001":2631,"Ġoptions":2632,"Ġdirectory":2633,"ĠImage":2634,"timeError":2635,"lm":2636,"quired":2637,"Ġstack":2638,"().__":2639,"Ġproto":2640,"Ġsm":2641,"BIC":2642,"Ġsock":2643,"ĠGREEK":2644,"Sub":2645,"Token":2646,":\\":2647,"FC":2648,"sep":2649,"quential":2650,"mit":2651,"ating":2652,"adata":2653,"Ġraw":2654,"convs":2655,"Ġbar":2656,"ctionary":2657,"normal":2658,"AA":2659,"parent":2660,"spect":2661,"dropout":2662,"ud":2663,"Ġman":2664,"Ġparse":2665,"Ġscript":2666,"cheduler":2667,"ĠNotImplemented":2668,"vars":2669,"fin":2670,"debug":2671,"Ġ\"\")<":2672,"classmethod":2673,"ropy":2674,"sync":2675,"Ġwidget":2676,"ĠBase":2677,"istry":2678,"mk":2679,"ties":2680,"delta":2681,"Ġspecified":2682,"drop":2683,"uni":2684,"swer":2685,"Ġref":2686,"Result":2687,"92":2688,"]))<":2689,"Ġbot":2690,"Ġold":2691,"six":2692,"(\"/":2693,"older":2694,"ected":2695,"Ġfollow":2696,")\\":2697,"iters":2698,"004":2699,"Le":2700,"Ġflags":2701,"resnet":2702,"Ġ'\"":2703,"stderr":2704,"Ġcharac":2705,"ĠCONT":2706,"aaaa":2707,"ĠException":2708,"conds":2709,"dings":2710,"frames":2711,"dit":2712,"paths":2713,"https":2714,"ONE":2715,"Ġtypes":2716,"scription":2717,"Ġscore":2718,"fl":2719,"xB":2720,"lem":2721,"sions":2722,"123":2723,"Ġbackbone":2724,"gory":2725,"former":2726,"bot":2727,"ular":2728,"Temp":2729,"rs":2730,"case":2731,"preds":2732,"SIZE":2733,"Text":2734,"255":2735,"Ġbyte":2736,"ROL":2737,"xC":2738,"Ġpatch":2739,"Ġcontent":2740,"Ġloader":2741,"trics":2742,"This":2743,"edge":2744,"issing":2745,"Th":2746,"ject":2747,"Ġembed":2748,"world":2749,">]<":2750,"Ġiou":2751,"gest":2752,"signature":2753,"LU":2754,"Ġab":2755,"ĠST":2756,"enti":2757,"Ġredu":2758,"Ġact":2759,"101":2760,"ĠCO":2761,"ROI":2762,"training":2763,"ICAL":2764,"window":2765,"Ġmpu":2766,"Ġimple":2767,"Ġsy":2768,"Ġtests":2769,"ĠCONTROL":2770,"Ġpair":2771,"dis":2772,")\",<":2773,"86":2774,"fpn":2775,"ĠOSError":2776,"gb":2777,"blocks":2778,"Ġdis":2779,"Ġselect":2780,"configure":2781,"signal":2782,"ailable":2783,"Ġbool":2784,"atial":2785,"ported":2786,"bit":2787,"mantic":2788,"tributeError":2789,"Ġwrap":2790,"assertRaisesRegex":2791,"Hel":2792,"dered":2793,"Info":2794,"math":2795,"xF":2796,"Ġtwo":2797,"div":2798,"pretrained":2799,"Ġ256":2800,"buf":2801,"Stream":2802,"ixed":2803,"28":2804,"Cleanup":2805,"lene":2806,"ĠĠĠĠĠĠĠĠĠĠĠĠĠĠĠĠĠĠĠĠĠĠ":2807,"ayer":2808,"light":2809,"Ġwhere":2810,"models":2811,"levels":2812,"Ġtar":2813,"Unless":2814,"Flip":2815,"search":2816,"compress":2817,"YPE":2818,"xE":2819,"NAME":2820,"',<":2821,"Form":2822,"Ġfield":2823,"peat":2824,"andard":2825,"quire":2826,"getitem":2827,"\"]:<":2828,"timeout":2829,"005":2830,"(\"%":2831,"mooth":2832,"staticmethod":2833,"ĠMy":2834,"attribu":2835,"Ġlogits":2836,"Ġkwargs":2837,">__":2838,"Pi":2839,"memory":2840,"Ġrpn":2841,"center":2842,"clear":2843,"Bytes":2844,"argv":2845,"planes":2846,"crop":2847,"mul":2848,"Ġparent":2849,"tlene":2850,"tleneck":2851,"Client":2852,"place":2853,"sigmoid":2854,"MS":2855,"tar":2856,"invalid":2857,"Ġfi":2858,"number":2859,"anchor":2860,"INTER":2861,"acc":2862,"TRA":2863,"Ġhandler":2864,"Config":2865,"backbone":2866,"007":2867,"Block":2868,"Ġhandle":2869,"Ġreturns":2870,"ĠMARK":2871,"ws":2872,"Ġdest":2873,"SO":2874,"xml":2875,"itle":2876,"DATA":2877,"xD":2878,"Ġclip":2879,"RABIC":2880,"PAC":2881,"Ġdiffe":2882,"pickle":2883,"ĠACUTE":2884,"ĠARABIC":2885,"Sh":2886,"Ġskip":2887,"teger":2888,"Sequential":2889,"xff":2890,"skipUnless":2891,"Bu":2892,"Ġmemory":2893,"Ġsubprocess":2894,"uid":2895,"lated":2896,"tition":2897,"Ġaug":2898,"ESIS":2899,"most":2900,"35":2901,"Ġwas":2902,"Ġsig":2903,"ĠData":2904,"ĠIt":2905,"Ġits":2906,"Option":2907,"Ġ[(\"":2908,"Ġ_,":2909,"Ġbeam":2910,"Ġchange":2911,"Ġ\"{":2912,"Ġcase":2913,"platform":2914,"]):<":2915,"aded":2916,"ail":2917,"Ġ128":2918,"lush":2919,"ending":2920,"Ġtyping":2921,"Ids":2922,"]),<":2923,"mm":2924,"benchmark":2925,"present":2926,"Ġstep":2927,"stream":2928,"Ġyou":2929,"network":2930,"ERTICAL":2931,"ĠDict":2932,"flag":2933,"tree":2934,"Ġlayers":2935,"decay":2936,"Ġboxlist":2937,"Ro":2938,"bl":2939,"ffix":2940,"Ġobjects":2941,"gate":2942,"Ġlib":2943,"single":2944,"Ġcollections":2945,">)":2946,"uint":2947,"ĠKey":2948,"raction":2949,"ĠVERTICAL":2950,"]),":2951,"imp":2952,"pecial":2953,"Ġutils":2954,"imum":2955,"nown":2956,"Ġdt":2957,"face":2958,"stages":2959,"07":2960,"ĠBox":2961,"Ġcallback":2962,"real":2963,"hether":2964,"umber":2965,"========":2966,"(?":2967,">):<":2968,"fer":2969,"Ġ11":2970,"Ġ15":2971,"after":2972,"cn":2973,"const":2974,"bert":2975,"ĠPO":2976,"ker":2977,"seek":2978,"Ġthan":2979,"done":2980,"pattern":2981,"convert":2982,"Ġstyle":2983,"\"]),<":2984,"Ġmasks":2985,"ULT":2986,"KEY":2987,"Ġcap":2988,"Ġsome":2989,"tools":2990,"81":2991,"Pre":2992,"Ġcat":2993,"\\<":2994,"Ġempty":2995,"element":2996,"Format":2997,"hook":2998,"Ġparam":2999,"transforms":3000,"reduce":3001,"Ġroi":3002,"([\"":3003,"DIR":3004,"padding":3005,"Ġrequest":3006,"mportError":3007,"control":3008,"ĠFor":3009,"region":3010,"Ġsignal":3011,"reen":3012,"help":3013,"Mask":3014,"95":3015,"Ġ\"\",":3016,"fect":3017,"ccess":3018,"dat":3019,"response":3020,"90":3021,"CON":3022,"rary":3023,"reader":3024,"lice":3025,"Process":3026,"ĠJ":3027,"joint":3028,"1111":3029,"Ġneed":3030,"Layer":3031,"so":3032,"adj":3033,"ĠConv":3034,"dev":3035,"strides":3036,"Ġclose":3037,"pow":3038,"arDown":3039,"addCleanup":3040,"ORIZ":3041,"MAX":3042,"OWN":3043,"EV":3044,"until":3045,"Ġdown":3046,"hello":3047,"Ġtitle":3048,"Ġchild":3049,"tadata":3050,"dirname":3051,"ĠRun":3052,"decimal":3053,"oU":3054,"Ġlosses":3055,"Ġargparse":3056,"graph":3057,"Ġaxis":3058,"afe":3059,"Ġfull":3060,"Eval":3061,"Ġthen":3062,"Ġrank":3063,"Ġns":3064,"Ġreturned":3065,"ful":3066,"Ġmaster":3067,"Ġwa":3068,"Ġdet":3069,"Ġbefore":3070,"calls":3071,"Var":3072,"uster":3073,"Ġfind":3074,"9999":3075,"Server":3076,"proposal":3077,"short":3078,"ĠPar":3079,"medi":3080,"...,":3081,"Ġitems":3082,"\">":3083,"cp":3084,"det":3085,"Ġdebug":3086,"Ġnormal":3087,"ONTAL":3088,"ORIZONTAL":3089,")\",":3090,"='":3091,"ized":3092,"abled":3093,"show":3094,"builtin":3095,"Reader":3096,"way":3097,"warnings":3098,"Ġret":3099,"Ġpackage":3100,"Ġtra":3101,"(__":3102,"cent":3103,"termin":3104,"html":3105,"dictor":3106,"global":3107,"pkg":3108,"action":3109,"26":3110,"Ġconn":3111,"Ġtk":3112,"Ġclasses":3113,"ĠHORIZONTAL":3114,"Ġdatetime":3115,"urtle":3116,"contain":3117,"nb":3118,"ĠQU":3119,"flip":3120,"Ġgen":3121,"xA":3122,"Ġrequires":3123,"ones":3124,"manager":3125,"sym":3126,"If":3127,"her":3128,"lat":3129,"vl":3130,"Ġmat":3131,"36":3132,"BU":3133,"atios":3134,"ĠTuple":3135,"final":3136,"evalu":3137,"94":3138,"warn":3139,"decoder":3140,"delete":3141,"Ġau":3142,"pare":3143,"Ġ\"../":3144,"Ġdictionary":3145,"Ġ\"\"\"\\<":3146,"Content":3147,"cos":3148,"neg":3149,"processing":3150,"IX":3151,"ection":3152,"Ġtri":3153,"ell":3154,"ather":3155,"Ġlong":3156,"section":3157,"INGLE":3158,"respon":3159,"COL":3160,"FILE":3161,"nan":3162,"Ġindices":3163,"unct":3164,"Ġcoco":3165,"states":3166,"ustom":3167,"CNN":3168,"Ġcenter":3169,"shift":3170,"extend":3171,"folder":3172,"Ġmy":3173,"For":3174,"fy":3175,"sq":3176,"Ġtrue":3177,"ĠLo":3178,"Ġtemplate":3179,"Ġattribute":3180,"Ġparameters":3181,"ready":3182,"Ġplt":3183,"Ġsel":3184,"rel":3185,"functional":3186,"tigu":3187,"Ġdf":3188,"Ġhost":3189,"Ġfail":3190,"tiguous":3191,"PL":3192,"raise":3193,"Ġwarmup":3194,"ĠTo":3195,"oftmax":3196,":]<":3197,"SION":3198,"Ġip":3199,"ilder":3200,"metas":3201,"ReLU":3202,"21":3203,"ĠIN":3204,"Resize":3205,"Ġstruct":3206,"Ġbuf":3207,"also":3208,"Ġcomple":3209,"001":3210,"âĢ":3211,"assign":3212,"readline":3213,"tails":3214,"Ġxml":3215,"FL":3216,"query":3217,"Message":3218,"writer":3219,"chunk":3220,"Ġwindow":3221,"\"][\"":3222,"ctx":3223,"Ġmore":3224,")\"<":3225,"handle":3226,"ility":3227,"mem":3228,"Ġbet":3229,"Invalid":3230,"Ġtimeout":3231,"Ġdetectron":3232,".\")<":3233,"bb":3234,"eq":3235,"Element":3236,"widget":3237,"leep":3238,"ĠCh":3239,"tom":3240,"sentence":3241,"SC":3242,"Logger":3243,"Ġ1024":3244,"SSL":3245,"__\",":3246,"Ġcontains":3247,"Ġstdout":3248,":.":3249,"Long":3250,"Po":3251,"Ent":3252,"Multi":3253,"Ġarch":3254,"oly":3255,"08":3256,"Ġbeta":3257,"Ġpool":3258,"]]<":3259,"umn":3260,"ĠĠĠĠĠĠĠĠĠĠĠĠĠĠĠĠĠĠĠĠĠĠĠĠĠĠĠĠĠĠĠĠĠĠĠ":3261,"Codec":3262,"With":3263,"5678":3264,"pipe":3265,"astype":3266,"Ġgroups":3267,"sitive":3268,"linear":3269,"ĠAny":3270,"76":3271,"CTER":3272,"dt":3273,"Ġpattern":3274,"__.":3275,"CUM":3276,"PUT":3277,"sure":3278,"orage":3279,"RACTER":3280,"HARACTER":3281,"loads":3282,"PACE":3283,"Iter":3284,"rdered":3285,"ords":3286,"ween":3287,"extractor":3288,"hi":3289,"alized":3290,"Ġfn":3291,"ĠNotImplementedError":3292,"Ġ},<":3293,"Ġap":3294,"Ġexten":3295,"Ġalso":3296,"Writer":3297,"ĠĠĠĠĠĠĠĠĠĠĠĠĠ":3298,"uffle":3299,"[...,":3300,"allable":3301,"ABLE":3302,"PC":3303,"WOR":3304,"}\")<":3305,"Ġauth":3306,"Ġpipeline":3307,"headers":3308,"ĠQ":3309,"ĠSINGLE":3310,"Ġtransport":3311,"dims":3312,"ORT":3313,"Ġrepresent":3314,"008":3315,"29":3316,"ffi":3317,"ored":3318,"Ġsampling":3319,"=[<":3320,"String":3321,"Object":3322,"tex":3323,"Ġpart":3324,"executable":3325,"ved":3326,"Ġfrozen":3327,"ĠLIGHT":3328,"plot":3329,"Ver":3330,"Ġform":3331,"Ġstderr":3332,"ĠHT":3333,"branch":3334,"yy":3335,"ĠFile":3336,")\")<":3337,"Doc":3338,"utor":3339,"Ġprotocol":3340,"master":3341,"style":3342,"ical":3343,"utput":3344,"contiguous":3345,"apter":3346,"perm":3347,"pytorch":3348,"gress":3349,"Ġstat":3350,"Ġconvert":3351,"assertIsNone":3352,"beam":3353,"BN":3354,"inf":3355,"gle":3356,"annotation":3357,"rderedDict":3358,";<":3359,"EP":3360,"NS":3361,"sort":3362,"ayload":3363,"27":3364,"gener":3365,"bind":3366,"conf":3367,"cated":3368,">\\":3369,"cr":3370,"ĠCHARACTER":3371,"attack":3372,"Ġrc":3373,"Ġcontaining":3374,"ETS":3375,"ĠUP":3376,"outputs":3377,"Ġsampler":3378,"IME":3379,"FPN":3380,"gor":3381,"optim":3382,"ĠArgument":3383,"avg":3384,"31":3385,"clone":3386,"ates":3387,"cast":3388,"()[":3389,"hen":3390,"Ġ[])<":3391,"lon":3392,"ĠTEST":3393,"aper":3394,"ĠImportError":3395,"strict":3396,"policy":3397,"mentum":3398,"ASE":3399,"transpose":3400,"Ġright":3401,"dient":3402,"Ġdifferent":3403,"BO":3404,"some":3405,"verse":3406,"Ġground":3407,"precation":3408,"aved":3409,"Ġurllib":3410,"helper":3411,"onent":3412,"subprocess":3413,"pus":3414,"LEX":3415,"datasets":3416,"Ġthreading":3417,"40":3418,"Ġ).":3419,"Ġport":3420,"ESS":3421,"area":3422,"idxs":3423,"sv":3424,"Ġactivation":3425,"eps":3426,"ERESIS":3427,"()),":3428,"ĠDIA":3429,"ĠPro":3430,"Ġrois":3431,"dumps":3432,"ĠDIAERESIS":3433,"Ġ1000":3434,"ries":3435,"Ġratio":3436,"Ġverbose":3437,"cancel":3438,"sepose":3439,"ither":3440,"Ġworld":3441,"45":3442,"now":3443,"scheduler":3444,"Ġshow":3445,"fmt":3446,"-+":3447,"ternal":3448,"Ġinstances":3449,"No":3450,"OUT":3451,"ĠPath":3452,"Ġsen":3453,"Ġchunk":3454,"Ġ...<":3455,"Ġgrad":3456,"NUM":3457,"transport":3458,"changed":3459,"keras":3460,"words":3461,"ICE":3462,"closed":3463,"events":3464,"Time":3465,"vel":3466,"inner":3467,"Ġso":3468,"Ġinitial":3469,"Ġaddress":3470,"Ġprovide":3471,"Ġidenti":3472,"IoU":3473,"dtype":3474,"dar":3475,"Ġrel":3476,"}\"<":3477,"Ġbuffer":3478,"BytesIO":3479,"Ġexist":3480,"Ġchannels":3481,"98":3482,"Ġ),":3483,"Ġpas":3484,"protocol":3485,"big":3486,"dm":3487,"></":3488,"Ġtag":3489,"hed":3490,"lain":3491,"very":3492,"ources":3493,"Ġcorrespon":3494,"`.<":3495,"wb":3496,"dest":3497,"Ġ[],":3498,"ĠDist":3499,"Ġprev":3500,"Ġmodels":3501,"Ġvis":3502,"visor":3503,"FLEX":3504,"PAT":3505,"hand":3506,"reset":3507,"day":3508,"IRCUM":3509,"IRCUMFLEX":3510,"PIP":3511,"except":3512,"common":3513,"Ġcache":3514,"Ġrequired":3515,"imgs":3516,"Normalize":3517,"precationWarning":3518,"pri":3519,"Ġast":3520,"Call":3521,"ops":3522,"apply":3523,"GE":3524,"sleep":3525,"deep":3526,"peed":3527,"Ġdefined":3528,"arge":3529,"locale":3530,"sive":3531,"Ġpolicy":3532,"Ġleft":3533,">\",":3534,"didate":3535,"Header":3536,"Ġpredictions":3537,"mary":3538,"warning":3539,"ĠCIRCUMFLEX":3540,"outine":3541,"uble":3542,"Su":3543,"ors":3544,"ends":3545,"checkequal":3546,"Ġfd":3547,"333":3548,"bg":3549,"Ġli":3550,"location":3551,"Ġ\"*":3552,"attn":3553,"LOCK":3554,"Ġchannel":3555,"diff":3556,"Ġframes":3557,"rpn":3558,"poly":3559,"Ġtable":3560,"Ġ[(":3561,"Man":3562,"tz":3563,"recv":3564,"Ġcompile":3565,"truth":3566,"ork":3567,"proto":3568,"unicode":3569,"fier":3570,"formation":3571,"OUR":3572,"Ġvariable":3573,"ECT":3574,"tf":3575,"}\".":3576,"Ġlineno":3577,"asyncio":3578,"encoder":3579,"Ġvocab":3580,"nume":3581,"rng":3582,"tach":3583,"children":3584,"Ġcm":3585,"ĠRuntimeError":3586,"rgb":3587,"ily":3588,"mapping":3589,"Argument":3590,"Ġbetween":3591,"ĠĠĠĠĠĠĠĠĠĠĠĠ":3592,"Ġemail":3593,"Ġgrid":3594,"Ġ30":3595,"ĠBert":3596,"job":3597,"verbose":3598,"oice":3599,"Ġdone":3600,"ĠTensor":3601,"Ġalign":3602,"domain":3603,"aloader":3604,"structor":3605,"Max":3606,"Ġvi":3607,"sid":3608,"003":3609,">>>>":3610,"Ġrow":3611,"ĠPOINTER":3612,"Al":3613,"Ġ:]<":3614,"Ġmaskrcnn":3615,"www":3616,"An":3617,"used":3618,"ATOR":3619,"/\",<":3620,"OK":3621,"mpt":3622,"atcher":3623,"mber":3624,"ools":3625,"RCNN":3626,"Train":3627,"EXT":3628,"PROTO":3629,"Ġmmcv":3630,"LS":3631,"ib":3632,"Assign":3633,"ins":3634,"Ġdilation":3635,"128":3636,"ASK":3637,"Ġbest":3638,"Ġdb":3639,"leno":3640,"[:-":3641,"ĠCo":3642,"ffff":3643,"API":3644,"predictions":3645,"88":3646,"Default":3647,"auto":3648,"Ġzero":3649,"entries":3650,"NO":3651,"rup":3652,"Ġimp":3653,"Inter":3654,"((\"":3655,"strings":3656,"Ġheaders":3657,"Ġ[-":3658,"Ġtempfile":3659,"Pose":3660,"wn":3661,"indent":3662,"Ġmapping":3663,"Ġnetwork":3664,"workers":3665,"losses":3666,")\"":3667,"OC":3668,"PY":3669,"uage":3670,"Ġ512":3671,"anguage":3672,"flatten":3673,"ĠRE":3674,"Ġ[[":3675,"ordin":3676,"AF":3677,"Ad":3678,"lvl":3679,"yntax":3680,"hell":3681,"Ġabs":3682,"endswith":3683,"ĠtearDown":3684,"PER":3685,"dilation":3686,"escape":3687,"Ġus":3688,"spaces":3689,"Ġhash":3690,"basic":3691,"Ġbody":3692,"Ġquery":3693,"identi":3694,"sequence":3695,"Ġmem":3696,"stdin":3697,"flo":3698,"Ġgot":3699,"Ġproposal":3700,"akref":3701,")]":3702,"65":3703,"ater":3704,"sm":3705,"fill":3706,"Incremental":3707,"ASS":3708,"Parallel":3709,"ric":3710,"fake":3711,"examples":3712,"Entropy":3713,"none":3714,"lamp":3715,"posit":3716,"display":3717,"cro":3718,"ition":3719,"Ġ\"(":3720,"connection":3721,"48":3722,"Foo":3723,"LY":3724,"Ġcate":3725,"Ġdst":3726,"partition":3727,"Ġstrings":3728,"rossEntropy":3729,"ideo":3730,"counts":3731,"Ġthere":3732,"Ġmethods":3733,"setup":3734,"abstract":3735,"stead":3736,"Encoder":3737,"same":3738,"ĠSU":3739,"Ġidle":3740,"512":3741,"keypoints":3742,"Trans":3743,"mis":3744,"Ġinterpre":3745,"ULL":3746,"assertNotEqual":3747,"93":3748,"simple":3749,"Ġreplace":3750,"Ġweights":3751,"Att":3752,"assification":3753,"ensePose":3754,"Com":3755,"ven":3756,"resize":3757,"fied":3758,"fiden":3759,"peri":3760,"pick":3761,"Ġalpha":3762,"Decoder":3763,"connect":3764,"Ġreduction":3765,"tered":3766,"Ġstri":3767,"Ġsearch":3768,"Ġdocument":3769,">\")<":3770,"BB":3771,"Ġids":3772,"steps":3773,"234":3774,"laps":3775,"ĠPer":3776,"scales":3777,"seconds":3778,"Ġ13":3779,"ious":3780,"pairs":3781,"[<":3782,"anti":3783,"this":3784,"ĠĠĠĠĠĠĠĠĠĠĠĠĠĠĠĠĠĠĠĠĠĠĠĠĠĠ":3785,"Ġnamed":3786,"dire":3787,"running":3788,"ABC":3789,"TRAIN":3790,"Value":3791,"mar":3792,"Ġhttp":3793,"Over":3794,"Ġ\"[":3795,"Ġexit":3796,"ctype":3797,"ĠSh":3798,"FAULT":3799,"arse":3800,"ans":3801,"Ġprob":3802,"embeddings":3803,"Manager":3804,"amma":3805,"Mix":3806,"User":3807,"pid":3808,"qdm":3809,"Ġinspect":3810,"getvalue":3811,"Ġcoun":3812,"cision":3813,"Ġcallable":3814,"Ġ((":3815,"traceback":3816,"cm":3817,"Ġinclude":3818,"esc":3819,"FFFF":3820,"Ġfields":3821,"Pool":3822,"Ġworkspace":3823,")).":3824,"hy":3825,"rot":3826,"itch":3827,"Ġgc":3828,"Ġsetup":3829,"Ġspatial":3830,"SOL":3831,"Ġ14":3832,"unctools":3833,"cer":3834,"Ġinteger":3835,"Ġfollowing":3836,"Ġ\")<":3837,"ish":3838,"Float":3839,"initialize":3840,"fast":3841,"Ġpost":3842,"Ġcharacter":3843,"ARE":3844,"parts":3845,"ATE":3846,"ird":3847,"ics":3848,"factory":3849,"break":3850,"cli":3851,"pan":3852,"uring":3853,"ndarray":3854,"UTF":3855,"COM":3856,"POINT":3857,"ĠKeyError":3858,"ace":3859,"eg":3860,"ls":3861,"metric":3862,"directory":3863,"Dis":3864,"slo":3865,"Ġquestion":3866,"Ġsamples":3867,"CKET":3868,"Ġpassed":3869,"Event":3870,"chat":3871,"ĠGRA":3872,"Frame":3873,"ick":3874,"addle":3875,"interval":3876,"97":3877,"Generator":3878,"button":3879,"Ġdimen":3880,"Ġpoints":3881,"PU":3882,"Ġinformation":3883,"proj":3884,"Ġparts":3885,"1333":3886,"2000":3887,"install":3888,"leg":3889,"Ġlock":3890,"ĠOF":3891,"Ġdisplay":3892,"rossEntropyLoss":3893,"Add":3894,"ĠET":3895,"metrics":3896,"unlink":3897,"audio":3898,"symlink":3899,"olygon":3900,"repeat":3901,"Ġbad":3902,"Ġdropout":3903,"baz":3904,"dst":3905,"ĠDOWN":3906,"icro":3907,"threshold":3908,"LongTensor":3909,":\",":3910,"tb":3911,"__()":3912,"Ġoperator":3913,"/\"<":3914,">\"":3915,"uter":3916,"wer":3917,"detach":3918,"Ġresource":3919,"Python":3920,"Scale":3921,"Ġplanes":3922,"stats":3923,"SG":3924,"divisor":3925,"capi":3926,"ACK":3927,"okie":3928,"ĠAttributeError":3929,"Tuple":3930,">...":3931,"les":3932,"Ġfut":3933,"ged":3934,"Ġelem":3935,"Ġ255":3936,"Ġdrop":3937,"Ġstrides":3938,"ĠGRAVE":3939,"Ġtree":3940,"sis":3941,"ested":3942,"Int":3943,"alf":3944,"pts":3945,"Index":3946,"Ġacc":3947,"ratios":3948,"include":3949,"modeling":3950,"Ġmodules":3951,"Function":3952,"cb":3953,"__.__":3954,"ERR":3955,"track":3956,"PROTOCOL":3957,"GET":3958,"002":3959,"Ġden":3960,"Ġsecond":3961,"Ġiteration":3962,"Ġprediction":3963,"Pad":3964,"year":3965,"Ġinv":3966,"dig":3967,"ImageFrom":3968,"Dist":3969,"any":3970,"prec":3971,"Ġdistutils":3972,"ĠArguments":3973,"Create":3974,"COS":3975,"Ġsuite":3976,"assifier":3977,"BC":3978,"ason":3979,"Ġuni":3980,"page":3981,"answer":3982,"br":3983,"flush":3984,"sampling":3985,"category":3986,"Ġtkinter":3987,"ImageFromFile":3988,"=_":3989,"ines":3990,"Ġfix":3991,"Conf":3992,"RL":3993,"__\":<":3994,"DEF":3995,"datetime":3996,"Ġaddr":3997,"OTATION":3998,"suite":3999,"Ġavailable":4000,"66":4001,"Ġass":4002,"Ġdat":4003,"boxlist":4004,"regression":4005,"signatures":4006,"Ġarea":4007,"2222":4008,"pository":4009,"IVE":4010,"semantic":4011,"Ġtqdm":4012,"Ġeither":4013,"lication":4014,"Ġ<<":4015,"ured":4016,"Ġinstead":4017,"ĠMock":4018,"subTest":4019,"]).":4020,"safe":4021,"war":4022,"sidual":4023,"Button":4024,"nc":4025,"Ġ\"#":4026,"Ġfmt":4027,"Ġindent":4028,"registry":4029,"skipIf":4030,"stds":4031,"Ġturtle":4032,"fileno":4033,"Ġstop":4034,"Reg":4035,"RandomFlip":4036,"MIN":4037,"RPN":4038,"ial":4039,"Ġinitialize":4040,"partial":4041,"ĠMe":4042,"Ġsupported":4043,"iterator":4044,"collect":4045,"defaults":4046,"Ġfunctions":4047,"ISO":4048,"yntaxError":4049,"CC":4050,"TYPE":4051,"bla":4052,"dummy":4053,"Ġremove":4054,"tolist":4055,"prev":4056,",))<":4057,"Ann":4058,"BBox":4059,"Ġflag":4060,"Ġrecord":4061,"document":4062,"segm":4063,"mediate":4064,"cwd":4065,"1024":4066,"Check":4067,"plain":4068,"Ġequal":4069,"dataclass":4070,"Ġparameter":4071,"2014":4072,"Ġpredicted":4073,"Collect":4074,"IAL":4075,"rest":4076,"Ġtp":4077,"Ġboun":4078,"verter":4079,"LoadImageFromFile":4080,"_,":4081,"Ġ\"+":4082,"oper":4083,"Ġshutil":4084,"ĠUser":4085,"ived":4086,"PORT":4087,"alpha":4088,"found":4089,"Ġ\"./":4090,"stribution":4091,"Ġattributes":4092,"PATH":4093,"CrossEntropyLoss":4094,"Ġwriter":4095,"Ġbeen":4096,"Ġ::":4097,"hasattr":4098,"topk":4099,"original":4100,"mkdir":4101,"Ġimplementation":4102,"ĠHTTP":4103,"deepcopy":4104,"codecs":4105,"Ġkeyword":4106,"Ġexamples":4107,"ĠResNet":4108,"IF":4109,"lst":4110,"Ġsent":4111,"arange":4112,"(\"_":4113,"Ġstandard":4114,"ĠNote":4115,"xyz":4116,"silon":4117,"posix":4118,"Ġmultiple":4119,"complex":4120,":]":4121,"allow":4122,"Ġinst":4123,"Ġ28":4124,"Ġprogress":4125,"ĠQUOTATION":4126,"stamp":4127,"ansion":4128,"ways":4129,"caption":4130,"Ġ{},":4131,"kv":4132,"Ġtz":4133,"ero":4134,"Ġunion":4135,"ĠHE":4136,"Ġevents":4137,"Ġgenerate":4138,"Ġactual":4139,"DA":4140,"LI":4141,"font":4142,"Ġbl":4143,"Ġimgs":4144,"Template":4145,"orkspace":4146,"Assigner":4147,"53":4148,"}\",":4149,"coords":4150,"Ġwhether":4151,"ĠUN":4152,"048":4153,"Ġaudio":4154,"description":4155,"shared":4156,"epochs":4157,"wrapper":4158,"Ġmodi":4159,"Ext":4160,"ME":4161,"af":4162,"testcapi":4163,"Ġwithout":4164,"randint":4165,"Mixin":4166,"sim":4167,"Ġndarray":4168,"specifi":4169,"tokenize":4170,"cust":4171,"ĠExample":4172,"Ġtraceback":4173,"dot":4174,"comment":4175,"oid":4176,"rin":4177,"orary":4178,"vious":4179,"oolean":4180,"binary":4181,"best":4182,"med":4183,"hex":4184,"Ġimportlib":4185,"indows":4186,"Ġfilter":4187,"attribute":4188,"Version":4189,":%":4190,"missing":4191,"vas":4192,"alid":4193,"Ġwrit":4194,"ĠBy":4195,"effect":4196,"ArgumentParser":4197,"release":4198,"ubclass":4199,"Ġunder":4200,"backward":4201,"chars":4202,"Ġdelta":4203,"Fe":4204,"ood":4205,"tences":4206,"ĠDensePose":4207,"cesses":4208,"csv":4209,"custom":4210,"()))<":4211,"ĠFoo":4212,"Request":4213,"licit":4214,"Ġbytearray":4215,"58":4216,"OF":4217,"az":4218,"Ġ\":":4219,"'\\":4220,"SIG":4221,"ĠWe":4222,"Pipe":4223,"fraction":4224,"getattr":4225,"ĠEn":4226,"arns":4227,"Ġencoded":4228,"author":4229,"fidence":4230,"Output":4231,"Ġannotations":4232,"maxsize":4233,"Ġdatasets":4234,"91":4235,"payload":4236,"inition":4237,"roy":4238,"Struct":4239,"ret":4240,"itys":4241,"Ġ17":4242,"ResNet":4243,"ityscape":4244,"olute":4245,"Ġraised":4246,"Ġsignature":4247,"60":4248,"Meta":4249,"cert":4250,"unch":4251,"Ġ*,":4252,"bound":4253,"Ġtb":4254,"cd":4255,"rag":4256,"attrs":4257,"Ġ57":4258,"Parse":4259,"means":4260,"****************":4261,"YP":4262,"inst":4263,"named":4264,"Ġanswer":4265,"Ġ800":4266,"Per":4267,"TLS":4268,"ank":4269,"ĠFORM":4270,"Ġmetric":4271,"Ġbuil":4272,"END":4273,"agic":4274,"37":4275,"Oper":4276,"uted":4277,"logging":4278,"parameter":4279,"callable":4280,"counter":4281,"HI":4282,"raises":4283,"quote":4284,"ART":4285,"Thread":4286,")(":4287,"38":4288,"RET":4289,"initial":4290,"Ġcannot":4291,"mach":4292,"polation":4293,"itespace":4294,"Ġfeatmap":4295,"usion":4296,"prox":4297,"REG":4298,"Ġevaluation":4299,"Ġselected":4300,"bstract":4301,"Ġpri":4302,"Ġcharset":4303,"XX":4304,"mid":4305,"getLogger":4306,"DATAS":4307,"fs":4308,"orter":4309,"Ġreal":4310,"Ġremo":4311,"ynam":4312,"Ġshort":4313,"efore":4314,"gts":4315,"reater":4316,"Log":4317,"Ġregion":4318,"uniform":4319,"special":4320,"Ġsystem":4321,"system":4322,"Async":4323,"lied":4324,"ĠTO":4325,"ĠOrderedDict":4326,"acquire":4327,"cura":4328,"Ġallowed":4329,"fut":4330,"oral":4331,"aries":4332,"Ġ24":4333,"cap":4334,"Read":4335,"amily":4336,")],<":4337,"ctive":4338,"clamp":4339,"cope":4340,"extract":4341,"dom":4342,"Ġlink":4343,"details":4344,"Ġpaddle":4345,"Ġmark":4346,"Ġ[],<":4347,"cessed":4348,"Map":4349,"Warns":4350,"Ġperform":4351,"Method":4352,"sqrt":4353,"frozen":4354,"sche":4355,"softmax":4356,"Ġcontainer":4357,"hostname":4358,"dataloader":4359,"\"[":4360,"_/":4361,"zone":4362,"Ġve":4363,"recur":4364,"Ġinvalid":4365,"ceived":4366,"Ġthresh":4367,")])<":4368,"sertion":4369,"three":4370,"tended":4371,"Ġsection":4372,"Ġpytorch":4373,"Ġbinary":4374,"Ġmatrix":4375,"voc":4376,"req":4377,"ueue":4378,"into":4379,"parator":4380,"Ġbounding":4381,"=%":4382,"Ġdec":4383,"iteration":4384,"Ġdoctest":4385,"aaaaaaaa":4386,"Iteration":4387,"agicMock":4388,"Sign":4389,"Ġside":4390,"Ġmomentum":4391,"INFO":4392,"Ġfilters":4393,"PIPE":4394,")\"\"\"<":4395,"BASE":4396,"Ġ\"'":4397,"Ġ-=":4398,"509":4399,"doctest":4400,"axis":4401,"rowser":4402,"DB":4403,"Gener":4404,"jp":4405,"logit":4406,"Ġcoro":4407,"slots":4408,"Ġboth":4409,"cluster":4410,"Resource":4411,"{}\".":4412,"Ġmemoryview":4413,"\"'":4414,"writ":4415,"raceback":4416,"caten":4417,"Ġmetavar":4418,"MASK":4419,"Wrap":4420,"rois":4421,"culate":4422,"Ġword":4423,"utes":4424,"Ġfill":4425,"Ġreset":4426,"ĠTh":4427,"Ġcoordin":4428,"ĠName":4429,"Ġblocks":4430,"assertNotIn":4431,"FORM":4432,"Ġctypes":4433,"Ġrate":4434,"cloud":4435,"theclass":4436,"feed":4437,"zzzz":4438,"detection":4439,"teral":4440,"quences":4441,"unding":4442,"ĠTH":4443,"DEFAULT":4444,"ifts":4445,"ĠCOCO":4446,"ĠCom":4447,"Ġloc":4448,"Ġdescription":4449,"Ġrunning":4450,"Ġitertools":4451,"suffix":4452,"failure":4453,"attributes":4454,"NT":4455,"]:":4456,"Ġspam":4457,"Ġapply":4458,"latin":4459,"ERROR":4460,"ï¼":4461,"assertWarns":4462,"pointer":4463,"RED":4464,"term":4465,"ints":4466,"ĠBRA":4467,"Sequence":4468,"Keyboard":4469,"Service":4470,"Ġattrs":4471,"Ġcorresponding":4472,"Smooth":4473,"VAL":4474,"Ġpix":4475,"Ġbuiltin":4476,"raph":4477,"Ġcolumn":4478,"AX":4479,"Ġreport":4480,"Ġexpect":4481,"outs":4482,"pix":4483,"Ġ80":4484,":-":4485,"oted":4486,"cell":4487,"---+":4488,"Ġ*<":4489,"Ġconst":4490,"Ġhigh":4491,"ĠUnicode":4492,"ĠStream":4493,"Ġcharacters":4494,"Ġwrapper":4495,"Ġdimension":4496,"ityscapes":4497,"Bad":4498,"iof":4499,"optic":4500,"Ġ50":4501,"Color":4502,"choice":4503,"upper":4504,"Ġconf":4505,"need":4506,"polygon":4507,"gre":4508,"Ġcustom":4509,"flowError":4510,">\"\"\"":4511,"[[":4512,"edit":4513,"jump":4514,"align":4515,"Ġ18":4516,"permute":4517,"Ġcategory":4518,"curacy":4519,"500":4520,"Op":4521,"mix":4522,"Ġnargs":4523,"Ġreq":4524,"ĠNumber":4525,"Ġmatched":4526,"fold":4527,"once":4528,"arrow":4529,"Ġtesting":4530,"verted":4531,"ĠDE":4532,"Ġnamespace":4533,"background":4534,"Tokenizer":4535,"OS":4536,"Ġzipfile":4537,"ĠBRACKET":4538,"ants":4539,"ottleneck":4540,"abel":4541,"coroutine":4542,"Ġalready":4543,"extension":4544,"FLAG":4545,")}":4546,"verify":4547,"Ġlocale":4548,"mbol":4549,"Ġenviron":4550,"encoded":4551,"ĠDataset":4552,"\"}<":4553,".*":4554,"47":4555,"NG":4556,"Ġmetrics":4557,"Ġsuffix":4558,"Extra":4559,",)<":4560,"On":4561,"WR":4562,"Zip":4563,"Ġindi":4564,"Ġgenerator":4565,"ĠAP":4566,"sha":4567,"regular":4568,"Ġlogprobs":4569,"Structure":4570,"Aug":4571,"Enum":4572,"bi":4573,"gpus":4574,"Ġaverage":4575,"Ġmer":4576,"Ġmetadata":4577,"Input":4578,"png":4579,"IoUAssigner":4580,"Ġsend":4581,"Ġpositive":4582,"expr":4583,"AGE":4584,"abstractmethod":4585,"Simple":4586,"VIS":4587,"kg":4588,"alk":4589,"Ġnow":4590,"site":4591,"Ġwin":4592,"umul":4593,"Ġattn":4594,"Ġexpression":4595,"angle":4596,"ditional":4597,"NOT":4598,"Ġtgt":4599,"eng":4600,"times":4601,"active":4602,"(\\":4603,"Ġhand":4604,"tention":4605,"swers":4606,"relative":4607,"CR":4608,"XML":4609,"metadata":4610,"ĠCallable":4611,"fileobj":4612,"tensors":4613,"akes":4614,"Ġnormalize":4615,"abcdef":4616,"Ġfailed":4617,"TOP":4618,"Ġ\"../_":4619,"SPACE":4620,"Ġ\"|":4621,"Ġinner":4622,"opts":4623,"bucket":4624,"fork":4625,"Ġcompute":4626,"Ġassigner":4627,"56789":4628,"\"},<":4629,"CENT":4630,"dle":4631,"gat":4632,"roken":4633,"Ġans":4634,"basename":4635,"validate":4636,"objects":4637,"ugh":4638,"archive":4639,"Ġtensors":4640,"Ġcommon":4641,"charset":4642,"Ġcorrect":4643,"sentences":4644,"overlaps":4645,"Size":4646,"URE":4647,"cf":4648,"cross":4649,"fcs":4650,"ually":4651,"Ġeps":4652,"mag":4653,"entropy":4654,"Ġcodec":4655,"vari":4656,"oices":4657,"Subclass":4658,">\"<":4659,"scape":4660,"second":4661,"INPUT":4662,"allback":4663,"proxy":4664,"Ġsubclass":4665,"Ġsmall":4666,"let":4667,"Ġparallel":4668,"Ġsizeof":4669,"Ġfactor":4670,"deltas":4671,"elem":4672,"tip":4673,"Ġthey":4674,"Ġ23":4675,"precated":4676,"Ġprogram":4677,"ĠWhen":4678,"54":4679,"LR":4680,"before":4681,"ĠEND":4682,"Ġglobals":4683,"agn":4684,"dge":4685,"nf":4686,"pr":4687,"009":4688,"setUp":4689,"())":4690,"Ġweakref":4691,"embedding":4692,"Ġ\\<":4693,"candidate":4694,"ece":4695,"Ġtruth":4696,"Clo":4697,"cut":4698,"ob":4699,"INED":4700,"Ġseed":4701,"Ġshift":4702,"THON":4703,"Desc":4704,"FE":4705,"lign":4706,"Ġdire":4707,"ffered":4708,"origin":4709,"Ġsmtp":4710,"uation":4711,"}/":4712,"lite":4713,"(\"__":4714,"Ġ---------":4715,"\"])":4716,"AttributeError":4717,"Child":4718,"Operation":4719,"Wrapper":4720,"hist":4721,"poo":4722,"ĠInput":4723,"Ġcreated":4724,"Cl":4725,"ited":4726,"tell":4727,"Ġbranch":4728,"Ġposix":4729,"assertIsNot":4730,"Ġbased":4731,"Ġplatform":4732,"RuntimeError":4733,"87":4734,"bc":4735,"proc":4736,"predictor":4737,"cies":4738,"CLASS":4739,"Ġelements":4740,"CRE":4741,"ha":4742,"Ġ*=":4743,"Ġ\"\\\\":4744,"pytest":4745,"riterion":4746,".,":4747,"72":4748,"And":4749,"fds":4750,"ination":4751,"isdir":4752,"lineKeyboard":4753,"Param":4754,"aving":4755,"Ġiterable":4756,"ĠParameters":4757,":])<":4758,"eded":4759,"star":4760,"dialog":4761,"rier":4762,"else":4763,"ĠPo":4764,"READ":4765,"Ġscales":4766,"Instances":4767,"numel":4768,"\"}":4769,"cleanup":4770,"MaxIoUAssigner":4771,"ynamic":4772,"SmoothL":4773,"LL":4774,"`,":4775,"Ġreference":4776,"127":4777,"densepose":4778,"push":4779,"Ġipaddress":4780,"Ġauthor":4781,"Ġusage":4782,"(**":4783,"Spec":4784,"beta":4785,"decompress":4786,"record":4787,"Example":4788,"charmap":4789,"Ġlimit":4790,"Ġfuture":4791,"predict":4792,"compare":4793,"Ġneeds":4794,"Ġwait":4795,"EE":4796,"GG":4797,"chron":4798,"isfile":4799,"logprobs":4800,"Ġneck":4801,"Ġdomain":4802,"DeprecationWarning":4803,"ookie":4804,"USER":4805,"!!":4806,",),":4807,"Socket":4808,"duct":4809,"Ġiss":4810,"Ġep":4811,"otations":4812,"01234":4813,"ILDE":4814,"Ġpython":4815,"WORK":4816,"Cat":4817,"OSError":4818,"SM":4819,"](":4820,"border":4821,"uri":4822,"Ġconnection":4823,"ability":4824,"available":4825,"okup":4826,"abspath":4827,"pkl":4828,"Ġevaluate":4829,"Ġhttps":4830,"floor":4831,"blob":4832,"inel":4833,"Ġrecent":4834,"cause":4835,"Ġoptim":4836,"Ġmasked":4837,"curses":4838,"Sp":4839,"`<":4840,"lt":4841,"Ġ('":4842,"ĠTILDE":4843,"--<":4844,"Ġmail":4845,"Ġpaths":4846,"HOST":4847,"mostEqual":4848,"MET":4849,"SER":4850,"rpc":4851,"ĠStr":4852,"ROUP":4853,"Ġnodes":4854,"SOCK":4855,"AlmostEqual":4856,"Ġjoint":4857,"ĠSet":4858,"ĠAs":4859,"Ġseconds":4860,"ĠMagicMock":4861,"Ġrot":4862,"``.<":4863,"Ġcounter":4864,"My":4865,"micro":4866,"ĠError":4867,"Ġqueue":4868,"ori":4869,"ĠConfig":4870,"Ġsentence":4871,"70":4872,"RI":4873,"Ġinstall":4874,"Ġ40":4875,"CTION":4876,"compiler":4877,"high":4878,"va":4879,"rough":4880,"namespace":4881,"visible":4882,"aky":4883,"BRE":4884,"lector":4885,"Ġoc":4886,"atist":4887,"Ġtok":4888,"ALF":4889,"ĠPIL":4890,"LED":4891,"'))<":4892,"Ġlike":4893,"ished":4894,"stances":4895,"subclass":4896,"Ġaccess":4897,"locations":4898,"generate":4899,"Fin":4900,"II":4901,"fname":4902,"inplace":4903,"Ġfont":4904,"resolution":4905,"ĠBad":4906,"\")),":4907,"Ġ{})<":4908,"Division":4909,"Encode":4910,"RESS":4911,"alidation":4912,"DO":4913,"zy":4914,"Ġ\"\",<":4915,"idle":4916,"Repository":4917,"Ġsizes":4918,"sertionError":4919,"pdb":4920,"Ġ]":4921,"span":4922,"oogle":4923,"ostic":4924,"Ġstatement":4925,"ToTensor":4926,"Ġrcnn":4927,"AU":4928,"sem":4929,"stmt":4930,"builder":4931,"Ġsetattr":4932,"Dete":4933,"ributed":4934,"tasks":4935,"handlers":4936,":\")<":4937,"Ġâ":4938,"Ġpolygon":4939,"ĠAd":4940,"224":4941,"ModuleList":4942,"Ġadded":4943,"threads":4944,"ĠSTR":4945,"gatron":4946,"Ġentries":4947,"lates":4948,"ached":4949,"ĠIndex":4950,"VERSION":4951,"Video":4952,"}.":4953,"ĠONE":4954,"Ġrecur":4955,"(\"{":4956,"Ġdiff":4957,"Ġloaded":4958,"Ġ|\\":4959,"ferences":4960,"Ġpairs":4961,"')":4962,"gi":4963,"maps":4964,"Ġhow":4965,"ĠDEV":4966,"Ġtextwrap":4967,"early":4968,"Ġavg":4969,"AND":4970,"MAP":4971,"uch":4972,"Ġsw":4973,"Ġbucket":4974,"Ġregister":4975,"agnostic":4976,"road":4977,"Ġdistributed":4978,"Ġhook":4979,"ATED":4980,"ĠID":4981,"infos":4982,"double":4983,"Ġexpand":4984,"SU":4985,"pd":4986,"Ġannotation":4987,"Ġmon":4988,"resume":4989,"Ġ200":4990,"()):<":4991,"ĠHe":4992,"Ġcomment":4993,"Ġgenerated":4994,"BUG":4995,"Annotations":4996,"App":4997,"Source":4998,"inv":4999,"Ġcre":5000,"tions":5001,"ĠSig":5002,"listdir":5003,"Ġresnet":5004,"Ġdefaults":5005,"ARATOR":5006,"Ġotherwise":5007,"?=":5008,"Bert":5009,"SET":5010,"duration":5011,"ves":5012,"storage":5013,"vices":5014,"cally":5015,"RandomSampler":5016,"Ġinterpreters":5017,"Transform":5018,"inject":5019,"Ġpd":5020,"Ġbound":5021,"ĠIP":5022,"Ġsee":5023,"=(\"":5024,"Do":5025,"both":5026,"dr":5027,"ga":5028,"qa":5029,"sd":5030,"Ġcell":5031,"Ġ\"\".":5032,"ĠLe":5033,"ĠSEP":5034,"0000000000000000":5035,"constant":5036,"container":5037,"Ġprovided":5038,"82":5039,"_{":5040,"mg":5041,"mal":5042,"uc":5043,"inp":5044,"licate":5045,"spatial":5046,"Ġrelative":5047,"ĠComp":5048,"ription":5049,"super":5050,"extensions":5051,"Ġmmdet":5052,"UE":5053,"ware":5054,"where":5055,"seen":5056,"Ġ\"{}":5057,"Ġreader":5058,"Ġhere":5059,"cient":5060,"LOC":5061,"ufffe":5062,"scriptor":5063,"ĠSEPARATOR":5064,"\"\")<":5065,"CP":5066,"gh":5067,"vers":5068,"ublic":5069,"Ġshuffle":5070,"grams":5071,"supported":5072,"OUND":5073,"ĠSee":5074,"OURCE":5075,"Ġsep":5076,"--------------------------------":5077,"ccessful":5078,"bos":5079,"eled":5080,"known":5081,"pending":5082,"ulated":5083,"utdown":5084,"keyword":5085,"unknown":5086,"11111111":5087,"09":5088,"Single":5089,"ycle":5090,"remo":5091,"Ġgamma":5092,"Raw":5093,"ĠEach":5094,"Ġtokenize":5095,"300":5096,"OP":5097,"gin":5098,"Ġcb":5099,"Ġbr":5100,"ĠText":5101,"ressed":5102,"ilar":5103,"prepare":5104,"iterable":5105,"FloatTensor":5106,"XY":5107,"null":5108,"modi":5109,"library":5110,"Status":5111,"beams":5112,"unique":5113,"Hello":5114,"Extractor":5115,"CERT":5116,"FUN":5117,"cid":5118,"inplanes":5119,"():":5120,"ĠFast":5121,"Ġrescale":5122,"Ġcontents":5123,"67":5124,"BOX":5125,"DP":5126,"Popen":5127,"free":5128,"ulate":5129,"Ġview":5130,"inery":5131,"oriz":5132,"ONLY":5133,"Ġdefaultdict":5134,"Parameter":5135,"ĠDEVICE":5136,"''":5137,"Mapping":5138,"Ġfname":5139,"Ġduring":5140,"poll":5141,"sorted":5142,"Ġunicode":5143,"coro":5144,"Ġpipe":5145,"override":5146,"Ġoperation":5147,"Ġimplement":5148,"gories":5149,"ife":5150,"CTYPE":5151,"structures":5152,"ĠCOM":5153,"->":5154,"Det":5155,"oot":5156,"etch":5157,"Ġgetargs":5158,"ĠNS":5159,"makedirs":5160,"periment":5161,"Ġser":5162,"Ġmissing":5163,"Ġexists":5164,"()\")<":5165,"ĠDAT":5166,"usage":5167,"COCO":5168,"Ġwords":5169,"dl":5170,"large":5171,"Ġfunctools":5172,"digest":5173,"unchanged":5174,"river":5175,"exist":5176,"Ġgradient":5177,"Ġstats":5178,"operator":5179,"ball":5180,"she":5181,"uuid":5182,"Ġ(-":5183,"Ġ19":5184,"arguments":5185,"Exec":5186,"Returns":5187,"Ġnegative":5188,"({\"":5189,"NE":5190,"Vi":5191,"chain":5192,"dius":5193,"sib":5194,"REAM":5195,"\")]<":5196,"Ġconvolution":5197,"Ġdoesn":5198,"Ġreduce":5199,"]\",":5200,"_\"":5201,"gather":5202,"ush":5203,"}\",<":5204,"normalize":5205,"Ġtimedelta":5206,"merge":5207,"MSG":5208,"AUT":5209,"Workspace":5210,"gy":5211,"enc":5212,"Ġsort":5213,"Ġslice":5214,"Ġinds":5215,"sist":5216,"force":5217,"AME":5218,"Defect":5219,"IAlign":5220,"Mode":5221,"]+":5222,"car":5223,"alization":5224,"Ġfl":5225,"Ġsim":5226,"Ġsetting":5227,"Ġsuch":5228,"struction":5229,"41":5230,"DS":5231,"Ġ()<":5232,"Ġcalls":5233,"trunc":5234,"Ġnonlocal":5235,"ĠUnion":5236,"39":5237,"Jo":5238,"await":5239,"fr":5240,"hot":5241,"sur":5242,"\"]))<":5243,"annel":5244,"Exit":5245,"ĠContent":5246,"Ġlearning":5247,"Ġbuilt":5248,"=\",":5249,"Qu":5250,"VOC":5251,"player":5252,"rong":5253,"schedule":5254,"Ġtimes":5255,"ASC":5256,"Ġworkers":5257,"filters":5258,"Core":5259,"Greater":5260,"inference":5261,"Ġsimple":5262,"Ġdig":5263,"Ġ2048":5264,"ĠBu":5265,"Ġpreds":5266,"Ġyour":5267,"Start":5268,"ffected":5269,"StreamReader":5270,"destroy":5271,"FCOS":5272,"book":5273,"tc":5274,"xiv":5275,"Ġthese":5276,"Ġsupp":5277,"nodes":5278,"Ġspecify":5279,"Ġmany":5280,"Ġbottom":5281,"Ġstrict":5282,"Queue":5283,"RON":5284,"WS":5285,"bed":5286,"Ġbutton":5287,"shuffle":5288,"ĠBLOCK":5289,"\")[":5290,"\")),<":5291,"undle":5292,"latent":5293,"cording":5294,"kwds":5295,"ĠExtended":5296,"xxx":5297,"dispatch":5298,"RoI":5299,"ĠToken":5300,"Number":5301,"eof":5302,"gc":5303,"arxiv":5304,"Ġpoo":5305,"ings":5306,"cased":5307,"ĠFe":5308,"ĠNorm":5309,"Ġlm":5310,"Ġjust":5311,"Ġ...,":5312,"locals":5313,"penden":5314,"Ġmanager":5315,"bottom":5316,"herit":5317,"email":5318,"vol":5319,"Ġtakes":5320,"defined":5321,"ĠLINE":5322,"Ġdecoder":5323,"ĠModule":5324,"Ġattack":5325,"Ġround":5326,"Ġsegmentation":5327,"HEADS":5328,"entity":5329,"ĠBoxList":5330,"']":5331,"89":5332,"Embed":5333,"vt":5334,"sec":5335,"Ġpkg":5336,"Ġresize":5337,"Ġhy":5338,"blocking":5339,"menu":5340,"CCE":5341,"hing":5342,"tv":5343,"ĠTime":5344,"Ġord":5345,"signed":5346,"Ġnewline":5347,"DataParallel":5348,"IPv":5349,"orizont":5350,"43":5351,"PS":5352,"half":5353,"mi":5354,"strap":5355,"member":5356,"Ġcsv":5357,"Ġbig":5358,"Ġthem":5359,"Ġproc":5360,"mbers":5361,"URL":5362,"DivisionError":5363,"SL":5364,"saved":5365,"{\"":5366,"semb":5367,"acter":5368,"bytecode":5369,"Ġcropped":5370,"direction":5371,"FORMAT":5372,"Identi":5373,"warmup":5374,"Ġpop":5375,"unpack":5376,"Ġwant":5377,"ĠNo":5378,"IPT":5379,"Protocol":5380,"QUAL":5381,"Ġfrozenset":5382,"eroDivisionError":5383,"CCEED":5384,",)":5385,"home":5386,"ice":5387,"ora":5388,"tity":5389,"Ġpaper":5390,"Ġstem":5391,"Ġinte":5392,"diffe":5393,"Ġconstruct":5394,"Ġrand":5395,"Ġbeing":5396,"Ġpick":5397,"selector":5398,"syntax":5399,"Processor":5400,"ĠSUCCEED":5401,"OverflowError":5402,"atistics":5403,"SyntaxError":5404,"jit":5405,"aris":5406,"__\",<":5407,"Ġ{:.":5408,"Stage":5409,"Ġcomplex":5410,"catenate":5411,"-<":5412,">(":5413,">}<":5414,"PRE":5415,"ponse":5416,"repo":5417,"Ġtorchvision":5418,"Ġsemantic":5419,"ĠEX":5420,"without":5421,"month":5422,"Helper":5423,"ĠExtendedContext":5424,"57":5425,"AY":5426,"WO":5427,"_<":5428,"ima":5429,"pa":5430,"selection":5431,"Ġtl":5432,"Ġsaved":5433,"Ġrepeat":5434,"Ġevery":5435,"Ġedge":5436,"prog":5437,"Ġpartial":5438,"ĠNUM":5439,"Ġtimers":5440,"MOD":5441,"Ġtopk":5442,"depths":5443,"Ġsegment":5444,"Ġcoordinates":5445,"FIG":5446,"vg":5447,"Ġ^":5448,"Ġ\"?":5449,"geome":5450,"Ġshe":5451,"come":5452,"ĠCAR":5453,"activation":5454,"configs":5455,"000000":5456,"Ġmatches":5457,"prediction":5458,"builtins":5459,"We":5460,"rstrip":5461,"Ġta":5462,"Ġflush":5463,"utc":5464,"ĠURL":5465,"Ġspace":5466,"Ġsampled":5467,"visual":5468,"ĠResource":5469,"Evalu":5470,"Suite":5471,"GB":5472,"aut":5473,"cmp":5474,"ens":5475,"Ġtheir":5476,"clError":5477,"Ġdiv":5478,"iling":5479,"Ġdecoding":5480,"ffset":5481,"Ġopcode":5482,"ARN":5483,"transformer":5484,"packages":5485,"paper":5486,"zma":5487,"})":5488,"INET":5489,"ĠBatchNorm":5490,"timer":5491,"compute":5492,"FFD":5493,"Ġoverride":5494,"Ġassigned":5495,"Ġnormalization":5496,"Ġpp":5497,"Ġshared":5498,"Ġcurses":5499,"Ġconfiguration":5500,"POS":5501,"Ġdisable":5502,"================":5503,"ane":5504,"Ġsqu":5505,"Ġmost":5506,"pods":5507,"Ġtoo":5508,"ĠCode":5509,"matmul":5510,"ĠIncremental":5511,"okies":5512,"Ġfake":5513,"Ġchanges":5514,"LayerNorm":5515,"something":5516,"Ġabsolute":5517,"Callable":5518,"['":5519,"na":5520,"prompt":5521,"Ġclassification":5522,"Ġrng":5523,"readlines":5524,"formed":5525,"Ġiterator":5526,"tracker":5527,"ZipFile":5528,"'.":5529,"/\",":5530,"}\"":5531,"Ġtxt":5532,"Ġmlvl":5533,"cam":5534,"Ġdelim":5535,"tension":5536,"ĠFFFD":5537,"Ġprecision":5538,"Ġangle":5539,"methods":5540,"Ġkeypoints":5541,"splitlines":5542,"xxxx":5543,"nonzero":5544,"password":5545,"SOLVER":5546,"polygons":5547,"Item":5548,"mixed":5549,"slice":5550,"amera":5551,"ĠStop":5552,"Ġdetails":5553,"Ġuses":5554,"Stop":5555,"workspaces":5556,"errno":5557,"skipTest":5558,"localhost":5559,"negative":5560,"gain":5561,"ĠCol":5562,"inity":5563,"Ġ%(":5564,"Ġkind":5565,"across":5566,"COD":5567,"metaclass":5568,"nbsp":5569,"Ġextension":5570,"Ġidlelib":5571,"51":5572,"61":5573,"NN":5574,"hid":5575,"mesh":5576,"cho":5577,"Ġnume":5578,"sian":5579,"ĠTRA":5580,"ĠCED":5581,"isc":5582,"Ġresolution":5583,"STREAM":5584,"Ġalways":5585,"ILLA":5586,"rupt":5587,"ĠCEDILLA":5588,"Basic":5589,"Ġtermin":5590,"ink":5591,"lear":5592,"meth":5593,"Ġcnf":5594,"polate":5595,"oci":5596,"ARCH":5597,"RESN":5598,"âĢĻ":5599,"Ġoccur":5600,"hour":5601,"lang":5602,"Ġjoin":5603,"Ġspecial":5604,"Ġmix":5605,"ĠSub":5606,"IND":5607,"comm":5608,"ANCE":5609,"NAMES":5610,"darwin":5611,"Ġthreshold":5612,"83":5613,"_%":5614,"ger":5615,"obs":5616,"lection":5617,"learning":5618,"=\"\",":5619,"Ġ:]":5620,"Address":5621,"!\")<":5622,"BER":5623,"EC":5624,"TIME":5625,"USE":5626,"Ġservice":5627,"atal":5628,"anced":5629,"Ġpredict":5630,"contextmanager":5631,"ĠInlineKeyboard":5632,"Ġdetection":5633,"IncrementalDecoder":5634,"Ġpytorchvideo":5635,"SMTP":5636,"LAR":5637,"pb":5638,"inspect":5639,"Ġtake":5640,"Ġbn":5641,"Ġosp":5642,"ystem":5643,"Ġdensepose":5644,"arison":5645,"emb":5646,"ctave":5647,"Ġ(\"\",":5648,"quiva":5649,"xywh":5650,"Ġmultiprocessing":5651,"74":5652,"Dropout":5653,"Open":5654,"Ġdump":5655,"ĠDoc":5656,"Ġprevious":5657,"Connection":5658,"docs":5659,"digits":5660,"'),":5661,"Some":5662,"lent":5663,"Ġflo":5664,"Ġob":5665,"comb":5666,"gettext":5667,"ĠClass":5668,"caffe":5669,"ffine":5670,"Ġmach":5671,"owner":5672,"manual":5673,"Ġbackground":5674,"which":5675,"small":5676,"SGD":5677,"catch":5678,"dll":5679,"ho":5680,"pat":5681,"stem":5682,"ene":5683,"Ġrelease":5684,"(\"\",":5685,"classifier":5686,"Ġgraph":5687,"ĠRandom":5688,"dense":5689,"Decode":5690,"Ġerrno":5691,"PTION":5692,"__()\"":5693,"CESS":5694,"dedent":5695,"rer":5696,"expect":5697,"attach":5698,"perties":5699,"THAN":5700,"Formatter":5701,"CLASSES":5702,"LINE":5703,"]*":5704,"]\")<":5705,"]])<":5706,"Ġ\"&":5707,"Ġpid":5708,"dia":5709,"assertAlmostEqual":5710,"Ġdialog":5711,"iming":5712,"DEBUG":5713,"ORS":5714,"corator":5715,"subnet":5716,"Ġnumbers":5717,"Ġanno":5718,"duce":5719,"IncrementalEncoder":5720,"ĠString":5721,"(\",":5722,"={}":5723,"pdf":5724,"enabled":5725,"chapter":5726,"Ġ'%":5727,"shake":5728,"ĠNOT":5729,"activ":5730,"Ġpossible":5731,"Selector":5732,"Response":5733,"ĠContext":5734,"HAI":5735,"when":5736,"served":5737,"'.<":5738,"Action":5739,"KEN":5740,"false":5741,"sn":5742,"ĠINF":5743,"Ġrest":5744,"lier":5745,"ĠTk":5746,"concat":5747,"Ġthrough":5748,"ynchron":5749,"accept":5750,"Ġmaximum":5751,"Ġloading":5752,"MENT":5753,"Pattern":5754,"Tree":5755,"ait":5756,"ral":5757,"terable":5758,"reward":5759,"Ġnf":5760,"Ġsche":5761,"ctr":5762,"quality":5763,"Ġcluster":5764,"ĠISO":5765,"ĠWindows":5766,"ĠGet":5767,"State":5768,"Ġregression":5769,"Network":5770,"Level":5771,"entities":5772,"Ġfullname":5773,"Ġalignment":5774,":],":5775,"Dir":5776,"Len":5777,"cityscapes":5778,"tab":5779,"versed":5780,"ĠPre":5781,"week":5782,"Ġlst":5783,"Ġtarfile":5784,"specific":5785,"68":5786,"Hex":5787,"hu":5788,"assertGreater":5789,"Ġforce":5790,"ĠTHAI":5791,"concatenate":5792,"Ġexact":5793,"Ġdesc":5794,"theme":5795,"Ġdownsample":5796,"\"\",":5797,"New":5798,"Ġinference":5799,"Ġ116":5800,"mac":5801,"Ġdirect":5802,"exe":5803,"Ġmen":5804,"layernorm":5805,"ĠMulti":5806,"bases":5807,"ĠTHREE":5808,"Hook":5809,"bird":5810,"squ":5811,"trip":5812,"yyyy":5813,"roadcast":5814,"/\"":5815,"Group":5816,"Line":5817,"cing":5818,"dcn":5819,"ince":5820,"inator":5821,"Ġph":5822,"Ġsq":5823,"ithub":5824,"Ġdelete":5825,"four":5826,"Ġcookie":5827,"ĠHALF":5828,"Ġneeded":5829,"Ġspecific":5830,"Ġcvpods":5831,"Ġembedding":5832,"orizontal":5833,"675":5834,"wri":5835,"~~":5836,"Ġimplemented":5837,"Ġcut":5838,"()]<":5839,"Ġmeth":5840,"tags":5841,"ĠRFC":5842,"Ġchars":5843,"Attribute":5844,"issue":5845,"Ġignored":5846,"pooler":5847,"Found":5848,"raries":5849,"ving":5850,"asarray":5851,"answers":5852,"converter":5853,"ĠCUR":5854,"Ġconstructor":5855,"ĠABO":5856,"ĠNE":5857,"boot":5858,"Ġscreen":5859,"Proxy":5860,"Ġexpansion":5861,"Help":5862,"regularizer":5863,"\"^":5864,"aN":5865,"mtime":5866,"mlp":5867,"Ġfalse":5868,"Ġinclu":5869,"Ġok":5870,"uplicate":5871,"ĠDeprecationWarning":5872,"Ġabout":5873,"DEFINED":5874,")',":5875,"actions":5876,"rfc":5877,"arr":5878,"ence":5879,"cogn":5880,"Ġ\"\"\",<":5881,"cade":5882,"olve":5883,"aml":5884,"ĠOn":5885,"ĠVar":5886,"ESTION":5887,"rence":5888,"Ġ60":5889,"Ġpytest":5890,"Ġpositional":5891,"PYTHON":5892,"ĠBytes":5893,"FLAGS":5894,"/\")<":5895,"384":5896,"}\\":5897,"Ġclean":5898,"Ġcontrol":5899,"Ġ36":5900,"Ġyear":5901,"Control":5902,"ĠRO":5903,"ĠGPU":5904,"splits":5905,"ĠReg":5906,"567":5907,"multiple":5908,"contains":5909,"Ġunique":5910,"Bundle":5911,"DI":5912,"Ġjob":5913,"Ġcf":5914,"atible":5915,"isinstance":5916,"exact":5917,"fgNode":5918,"ouse":5919,"ĠGener":5920,"usters":5921,"expression":5922,"mtree":5923,"ĠXML":5924,"Ġsigmoid":5925,"Abstract":5926,"walk":5927,"Ġsk":5928,"Ġstatic":5929,"Ġconverted":5930,"shot":5931,"Ġhel":5932,"calc":5933,"Ġlarge":5934,"ĠACCENT":5935,"Ġabc":5936,"evaluator":5937,"epspeed":5938,"Command":5939,"ĠABOVE":5940,"52":5941,">\",<":5942,"Torch":5943,"github":5944,"narrow":5945,"Ġsn":5946,"Ġinside":5947,"ceil":5948,"Ġconsist":5949,"ĠFake":5950,"Ġmegatron":5951,"colors":5952,"Ġmailbox":5953,"SP":5954,"ensure":5955,"Ġshell":5956,"\",),<":5957,"Ġmember":5958,"Ġprepare":5959,"ĠNode":5960,"ctories":5961,"interpre":5962,"variable":5963,"={},":5964,"Document":5965,"BAL":5966,"NEL":5967,"UID":5968,"cookie":5969,"RAN":5970,"Ġsysconfig":5971,"multiprocessing":5972,"tzinfo":5973,"DATASETS":5974,"ifest":5975,"PRESS":5976,"]],":5977,"loaded":5978,"Ġmlp":5979,"Ġdot":5980,"ĠSH":5981,"Ġwithin":5982,"pyc":5983,"Ġmade":5984,"Ġproxy":5985,"trainer":5986,"Ġshifts":5987,"ĠRo":5988,"999":5989,"pcp":5990,"Temporary":5991,"ĠIPv":5992,"ilter":5993,"capt":5994,"Ġlow":5995,"ĠAl":5996,"ĠFrame":5997,"ITE":5998,"ĠOther":5999,"acy":6000,"trast":6001,"CHAN":6002,"StreamWriter":6003,"Ġarchive":6004,")],":6005,"Widget":6006,"ident":6007,"ners":6008,"lot":6009,"Ġind":6010,"Ġbit":6011,"macro":6012,"ĠTrain":6013,"Ġlower":6014,"Ġdeprecated":6015,"ĠId":6016,"usr":6017,"umed":6018,"Ġbatched":6019,"Ġstarts":6020,"Ġlet":6021,"Ġstdin":6022,"Ġvertex":6023,"Ġsyntax":6024,"machinery":6025,"Catalog":6026,"Finder":6027,"ociated":6028,"\"})<":6029,"nal":6030,"rp":6031,"ĠES":6032,"Ġouter":6033,"Unicode":6034,"contents":6035,"Ġsigma":6036,"ĠDistutils":6037,"eggs":6038,"LOCAL":6039,"All":6040,"BACK":6041,"TT":6042,"actor":6043,"required":6044,"unix":6045,"Ġaut":6046,"Ġdeep":6047,"ĠBasic":6048,"Const":6049,"runtime":6050,"192":6051,"Ġtyp":6052,"ploy":6053,"marize":6054,"quivalent":6055,"##":6056,"CS":6057,"dp":6058,"smooth":6059,"Ġdummy":6060,"ptr":6061,"ĠĠĠĠĠĠĠĠĠĠĠĠĠĠĠĠĠĠĠĠĠĠĠĠĠĠĠĠĠĠĠĠĠĠĠĠĠĠĠ":6062,"FlipAug":6063,"MultiScale":6064,"jpg":6065,"(%":6066,"GN":6067,"Send":6068,"]],<":6069,"lex":6070,"arly":6071,"Ġious":6072,"fio":6073,"quoted":6074,"\"\"\",<":6075,"ects":6076,"ĠPost":6077,"ĠMask":6078,"arest":6079,"izing":6080,"Ġ123":6081,"FormatBundle":6082,"ĠShape":6083,"BBoxHead":6084,"BE":6085,"FD":6086,"NOW":6087,"WE":6088,"got":6089,"ascade":6090,"rogate":6091,"unic":6092,"INES":6093,"isect":6094,"Ġcond":6095,"Ġsepar":6096,"Ġencoder":6097,"Ġ|<":6098,"optional":6099,"Ġ1234":6100,"wrapped":6101,"Ġclosed":6102,"Less":6103,"Point":6104,"Cookie":6105,"GROUP":6106,"Sup":6107,"tical":6108,"Ġ[]":6109,"INAL":6110,"Ġanother":6111,"scal":6112,"ĠOP":6113,"correct":6114,"spawn":6115,"Ġmatching":6116,"Ġtrunc":6117,"99999999":6118,"ĠUNDEFINED":6119,"Ġpixel":6120,"Fail":6121,"ORE":6122,"uv":6123,"Ġpts":6124,"Ġedit":6125,"aptive":6126,"ITY":6127,"freq":6128,"Ġbottleneck":6129,"MD":6130,"Ġtes":6131,"__\":":6132,"Ġdraw":6133,"Ġdistribution":6134,"vec":6135,"profile":6136,"ĠĠĠĠĠĠĠĠĠĠĠĠĠĠĠĠĠĠĠĠĠĠĠĠĠĠĠĠĠĠ":6137,"tainer":6138,"assic":6139,"Ġtarinfo":6140,"MultiScaleFlipAug":6141,"46":6142,"49":6143,"bits":6144,"Ġ(),":6145,"lazy":6146,"ĠTWO":6147,"rows":6148,"ĠĠĠĠĠĠĠĠĠĠĠĠĠĠĠĠĠĠĠĠĠĠĠĠĠĠĠĠĠĠĠĠĠĠĠĠĠĠĠĠĠĠĠĠĠĠĠĠĠĠĠĠĠĠĠĠĠĠĠĠĠĠĠĠ":6149,"Ġmeans":6150,"downsample":6151,"windows":6152,"bootstrap":6153,"Img":6154,"atmap":6155,"distribution":6156,"Ġbg":6157,"__\"":6158,"Ġauto":6159,"timestamp":6160,"cycle":6161,"ussian":6162,"Stack":6163,"segmentation":6164,"THRES":6165,",\\":6166,"alt":6167,"Ġbasic":6168,"raps":6169,"__\")<":6170,"ĠSQU":6171,"ases":6172,"ower":6173,"interp":6174,"LoadAnnotations":6175,"DefaultFormatBundle":6176,"ĠSQUARE":6177,"-%":6178,"gz":6179,"sk":6180,"xp":6181,"constructor":6182,"Ġgrb":6183,"Ġdeque":6184,"Ġprompt":6185,"ĠUse":6186,"ACT":6187,"Meter":6188,"Coder":6189,"={\"":6190,"THRESH":6191,"Lock":6192,"cpp":6193,"ham":6194,"Ġ\"@":6195,"Ġtab":6196,"Ġfast":6197,"cached":6198,"ETECT":6199,"should":6200,"Ġsequences":6201,"access":6202,"ASH":6203,"docstring":6204,"tkinter":6205,"mmlab":6206,"AUG":6207,"62":6208,"Auth":6209,"Skip":6210,"draw":6211,"Ġ\",<":6212,"leaky":6213,"roid":6214,"Ġpe":6215,"Ġpage":6216,"direct":6217,"lendar":6218,"vector":6219,"Ġwhat":6220,"ĠInstances":6221,"Ġinterpolation":6222,"Nodes":6223,"Optimizer":6224,"63":6225,"CAP":6226,"LD":6227,"LM":6228,"rv":6229,"see":6230,"utation":6231,"setting":6232,"ĠCoun":6233,"ONG":6234,"bove":6235,"Ġspa":6236,"executor":6237,"Ġdetected":6238,"ImageToTensor":6239,"Ġlocals":6240,"ctypes":6241,"Ġassociated":6242,"uncher":6243,"Ġdecimal":6244,"engine":6245,"ĠCodec":6246,"/%":6247,"OrderedDict":6248,"]\\":6249,"cpython":6250,"Ġ\"^":6251,"Ġabove":6252,"rive":6253,"Ġ25":6254,"Ġsem":6255,"Ġproperty":6256,"epsilon":6257,"oked":6258,"Count":6259,"Assert":6260,"Compose":6261,"STRING":6262,"Ġboxlists":6263,"Ġcapt":6264,"Ġvisual":6265,"FEAT":6266,"ĠâĨ":6267,".%":6268,":,":6269,"Ne":6270,"Of":6271,"_.":6272,"nested":6273,"pag":6274,"separator":6275,"Ġ21":6276,"backend":6277,"bytearray":6278,"tmpdir":6279,"Ġidentity":6280,"Avg":6281,"Dep":6282,"report":6283,"Ġ\"$":6284,"Ġbz":6285,"vals":6286,"preprocess":6287,"Ġlanguage":6288,"250":6289,"Ġcandidate":6290,"Ġquote":6291,"Ġdecoded":6292,"Ġupdated":6293,"ffic":6294,"plotlib":6295,"Ġgroundtruth":6296,"autograd":6297,"CA":6298,"]\"":6299,"pip":6300,"inary":6301,"Ġfcos":6302,"deform":6303,"logs":6304,"ural":6305,"Ġaffected":6306,"typecode":6307,"ĠAll":6308,"ĠAsync":6309,"press":6310,"shutdown":6311,"Ġratios":6312,"\")))<":6313,"videos":6314,"Encoding":6315,"finished":6316,"identical":6317,"ier":6318,"ks":6319,"onic":6320,"coDataset":6321,"ough":6322,"gradient":6323,"ĠValidation":6324,"barrier":6325,"Ġscaled":6326,"Dialog":6327,"canvas":6328,"CONFIG":6329,"ĠidleConf":6330,")'},":6331,"Bar":6332,"LP":6333,"Vis":6334,"bag":6335,"sect":6336,"continue":6337,"ERS":6338,"Initialize":6339,"Masks":6340,"Feature":6341,"ĠInlineKeyboardButton":6342,"udio":6343,"roll":6344,"Ġpdb":6345,"clr":6346,"=\"\",<":6347,"Ġaspect":6348,"tokenization":6349,"Convert":6350,"Ġuntil":6351,"collections":6352,"plus":6353,"Ġinterface":6354,"sendfile":6355,"Ġpairwise":6356,"Shared":6357,"Crop":6358,"Date":6359,"bpcp":6360,"Ġscal":6361,"urrent":6362,"ĠLabel":6363,"Ġgdb":6364,"ĠSOL":6365,"ĠFE":6366,"ĠNAME":6367,"lengths":6368,"monot":6369,"marks":6370,"randn":6371,"Ġfolder":6372,"Dets":6373,"\"\"<":6374,"CF":6375,"cannot":6376,"setitem":6377,"anet":6378,"erature":6379,"Ġplace":6380,"Ġbs":6381,"Ġ([":6382,"Ġstar":6383,"ĠCl":6384,"xyxy":6385,"winapi":6386,"StringIO":6387,"Ġvariables":6388,"MT":6389,"Pri":6390,"}}":6391,"Ġ$":6392,"route":6393,"Ġinp":6394,"Ġmid":6395,"Ġest":6396,"ĠLZ":6397,"sparse":6398,"momentum":6399,"Ġchapter":6400,"days":6401,"IGH":6402,"ĠGPT":6403,"segment":6404,"Ġcomplete":6405,"CHANNEL":6406,"ĠâĨĵ":6407,"79":6408,"GR":6409,"Post":6410,"emit":6411,"family":6412,"hn":6413,"void":6414,"Ġdefine":6415,"(\"#":6416,"umns":6417,"Ġ22":6418,"Ġ>>":6419,"Ġprocessed":6420,"[:]":6421,"Ġchoices":6422,"Ġbuilder":6423,"Ġaccept":6424,"ĠDete":6425,"Runner":6426,"Description":6427,"malloc":6428,"ailed":6429,"faster":6430,"ln":6431,"Ġcli":6432,"Ġinsert":6433,"lies":6434,"fromHex":6435,"Ġseen":6436,"logical":6437,"ARY":6438,"clients":6439,"AUTH":6440,"Ġflatten":6441,"GAN":6442,"`:":6443,"agraph":6444,"ee":6445,"ux":6446,"dele":6447,"received":6448,"ĠTraceback":6449,"Ġdivision":6450,"dicts":6451,"masked":6452,"ffers":6453,"ipv":6454,"batches":6455,"Ġbases":6456,"MAG":6457,"issubclass":6458,"impl":6459,"HIFT":6460,"ĠVariable":6461,"oom":6462,"ptime":6463,"dependen":6464,"Ġclear":6465,"(\"[":6466,"()\"":6467,"Ġxy":6468,"keywords":6469,"[:]<":6470,"Ġwhitespace":6471,"ĠVideo":6472,"refcount":6473,"Ġbackward":6474,"ĠHEBRE":6475,"YPES":6476,"ĠHEBREW":6477,"59":6478,"Handle":6479,"cip":6480,"functools":6481,"Ġetc":6482,"qualname":6483,"edu":6484,"ĠLO":6485,"().<":6486,"ĠEOF":6487,"RAM":6488,"summary":6489,"UNK":6490,"globals":6491,"Ġcommands":6492,"Ġkeepdim":6493,"12345678":6494,"Ġtransformer":6495,"evaluate":6496,"mission":6497,"lstm":6498,"Ġepsilon":6499,"ĠStopIteration":6500,"ĠCounter":6501,"Mon":6502,"ghi":6503,"just":6504,"ocal":6505,"pot":6506,"Ġlevels":6507,"integer":6508,"definition":6509,"Ġbla":6510,"Ġbert":6511,"may":6512,"Ġday":6513,"ERO":6514,"iler":6515,"importlib":6516,"checkpoints":6517,"DEN":6518,"NotFound":6519,"bottleneck":6520,")\".":6521,"+\",":6522,"Bottleneck":6523,"eff":6524,"pas":6525,"lookup":6526,"uting":6527,"resses":6528,"ilinear":6529,"ĠFraction":6530,"Ġcoords":6531,"REQU":6532,"Ġonce":6533,"torchvision":6534,"interpolate":6535,"Ġ\".\"":6536,"scribe":6537,"ĠYou":6538,"foreground":6539,"Ġexceptions":6540,"Ġcases":6541,"Ġhttpx":6542,"Ġmerge":6543,"RoIExtractor":6544,"IGHEST":6545,"IDE":6546,"ISTR":6547,"Pdb":6548,"fusion":6549,"sten":6550,"retin":6551,"tices":6552,"Ġdon":6553,"precision":6554,"worker":6555,"Ġreadline":6556,"Ġdispatch":6557,"Optional":6558,"evaluation":6559,"rinsi":6560,"ASCII":6561,".\",":6562,"gr":6563,"game":6564,"Ġ=?":6565,"atter":6566,"Ġtail":6567,"Ref":6568,"ĠPL":6569,"ranges":6570,"mbols":6571,"Ġraises":6572,"\")])<":6573,"Exp":6574,"LOAD":6575,"BLOCK":6576,"Fix":6577,"SON":6578,"WID":6579,"ftime":6580,"go":6581,"sa":6582,"Ġmp":6583,"ina":6584,"anh":6585,"Ġpan":6586,"Ġ(%":6587,"umb":6588,"ĠLOW":6589,"Ġdebu":6590,"keypoint":6591,"caller":6592,"dale":6593,"([[":6594,"using":6595,"sigma":6596,"POST":6597,"ĠTESTFN":6598,"ĠMessage":6599,"Only":6600,"ĠDATA":6601,"*\\":6602,"PP":6603,"average":6604,"kind":6605,"rew":6606,"Ġ\";":6607,"arp":6608,"Ġpt":6609,"Ġscope":6610,"union":6611,"Ġway":6612,"sizeof":6613,"ĠAdd":6614,"ĠNet":6615,"Loop":6616,"Ġaccuracy":6617,"Ġaccording":6618,"Named":6619,"Ġcorner":6620,"childNodes":6621,"memoryview":6622,"Ġlibrary":6623,"ISTRY":6624,"HIGHEST":6625,"TEM":6626,"tn":6627,"tgt":6628,"Ġremain":6629,"ĠCN":6630,"Ġ31":6631,"ĠĠĠĠĠĠĠĠĠĠĠĠĠĠĠĠĠ":6632,"Ġbecause":6633,"Ġrunner":6634,"Ġleast":6635,"OLON":6636,"Ġ\",\")<":6637,"2007":6638,"havi":6639,"Ġmenu":6640,"10000":6641,"dtemp":6642,"tics":6643,"ĠTEXT":6644,"ĠEQUAL":6645,"Ġlinear":6646,"expansion":6647,"positional":6648,"Ġenvironment":6649,"Close":6650,"Ġ----------<":6651,"highlight":6652,"/*":6653,"375":6654,"lvis":6655,"tearDown":6656,"Ġpol":6657,"Ġsmooth":6658,"argmax":6659,"vertex":6660,"Ġfileobj":6661,"\")):<":6662,"templates":6663,"piece":6664,"commands":6665,"symbol":6666,"recursive":6667,"ĠCARON":6668,"COR":6669,"MIS":6670,"gamma":6671,"mult":6672,"delay":6673,"setstate":6674,"ĠAverage":6675,"ĠANG":6676,"web":6677,"ĠOR":6678,"sampled":6679,"neck":6680,"abcd":6681,"Ġopts":6682,"Names":6683,"exceptions":6684,"Ġzlib":6685,"Ġvars":6686,"Anchor":6687,"insdale":6688,"REGISTRY":6689,"ĠAPI":6690,"RawIO":6691,"Def":6692,"UDA":6693,"dn":6694,"hd":6695,"ike":6696,"__,<":6697,"mable":6698,"ĠCreate":6699,"external":6700,"Ġfeed":6701,"Ġoverlap":6702,"FCBBoxHead":6703,"centerness":6704,"Ġexisting":6705,"Ġwritten":6706,"history":6707,"\".<":6708,"Dec":6709,"Window":6710,"scope":6711,"delim":6712,"Ġscheduler":6713,"Ġbb":6714,"Ġ())<":6715,"laces":6716,"Err":6717,"maximum":6718,"column":6719,"Ġ103":6720,"RoIAlign":6721,"onents":6722,"Ġvia":6723,"Ġbuiltins":6724,"candidates":6725,"BL":6726,"YT":6727,"nargs":6728,"vate":6729,"Ġcam":6730,"Ġescape":6731,"Ġ:-":6732,"Ġconfigs":6733,"does":6734,"matched":6735,"Ġappend":6736,"mitted":6737,"edges":6738,"black":6739,"require":6740,"Ġsure":6741,"Ġdy":6742,"isnan":6743,"()),<":6744,"Ġproj":6745,"Ġensure":6746,"REMO":6747,"ĠOver":6748,"Ġcomm":6749,"OLLAR":6750,"traj":6751,"Ġextract":6752,"Ġtasks":6753,"Ġsteps":6754,"Ġembeddings":6755,"fficient":6756,"22222222":6757,"RESNETS":6758,":/":6759,"rmtree":6760,"Ġdll":6761,"ĠCheck":6762,"TestSuite":6763,"Ġpresent":6764,"cords":6765,"Ġcalculate":6766,"Ġexecutable":6767,"mkdtemp":6768,"Ġstrip":6769,"POINTING":6770,"ĠANGLE":6771,"\"+":6772,"AIL":6773,"{{":6774,"Ġcriterion":6775,"lish":6776,"tok":6777,"ĠSPACE":6778,"Ġdep":6779,"Ġouts":6780,"Raise":6781,"ĠOutput":6782,"Ġpassword":6783,"based":6784,"pthread":6785,"NotImplemented":6786,"Ġregular":6787,"mailbox":6788,"Ġheads":6789,"reduction":6790,"sole":6791,"initialized":6792,"AREN":6793,"Filter":6794,"aiming":6795,"jor":6796,"nl":6797,"alanced":6798,"heap":6799,"Ġmu":6800,"confidence":6801,"Ġhol":6802,"project":6803,"Ġ300":6804,"STFN":6805,"actual":6806,"fullname":6807,"Ġcaller":6808,"Ġsym":6809,"Ġwrapped":6810,"ĠChar":6811,"ĠCommand":6812,"WORKSPACE":6813,"Ġhelper":6814,")}<":6815,"TYPES":6816,"WH":6817,"Ġgzip":6818,"Ġtrainer":6819,"Ġdeltas":6820,"binding":6821,"Args":6822,"ĠLoad":6823,"assigner":6824,"handshake":6825,"Disposition":6826,"ĠCURLY":6827,"VICE":6828,"ae":6829,"soft":6830,"inte":6831,"reason":6832,"Ġpat":6833,"Ġ10000":6834,"strptime":6835,"labeled":6836,"Ġpytree":6837,"Ġregistry":6838,"Ġinterval":6839,"findall":6840,"Ġfeats":6841,"Ġmessages":6842,"overflow":6843,"Ġwaiter":6844,"Ġrepresenting":6845,"Ġrepresentation":6846,"Ġsentinel":6847,")'],":6848,"Lib":6849,"SH":6850,"alias":6851,"lities":6852,"INAN":6853,"Ġthree":6854,"Recv":6855,"ominator":6856,"Ġ48":6857,"ĠEN":6858,"ĠObject":6859,"corners":6860,"quiet":6861,"044":6862,"\"\\\\":6863,"Ġsupports":6864,"rowd":6865,"Ġzipfp":6866,"Ġmaps":6867,"threading":6868,"ĠSTART":6869,"branches":6870,"Ġtzinfo":6871,"RETINAN":6872,"WIDTH":6873,"ARENTH":6874,"RETINANET":6875,">`":6876,"Google":6877,"IST":6878,"Met":6879,"RPC":6880,"]\",<":6881,"language":6882,"winfo":6883,"yield":6884,"Ġfallback":6885,"Ġboolean":6886,"Ġdocstring":6887,"slash":6888,"realpath":6889,"Constant":6890,"ĠSOLID":6891,"ARENTHESIS":6892,"Mark":6893,"TclError":6894,"tl":6895,"reference":6896,"standard":6897,"aller":6898,"racket":6899,"getcwd":6900,"ntpath":6901,"ĠTrans":6902,"ĠĠĠĠĠĠĠĠĠĠĠĠĠĠĠĠĠĠĠĠ":6903,"ITION":6904,"Ġ/,":6905,"ĠWhether":6906,"ĠOpen":6907,"Ġpyre":6908,"LOBAL":6909,"sually":6910,"Attention":6911,"environment":6912,"lapsed":6913,"WORD":6914,"svc":6915,"ĠSUB":6916,"AttModel":6917,"zzzzzzzz":6918,"Ġindicate":6919,"73":6920,"une":6921,"umulate":6922,"Ġstorage":6923,"istered":6924,"codec":6925,"ĠPARENTHESIS":6926,"ospec":6927,"reading":6928,"Ġdetector":6929,"Byte":6930,"power":6931,"cancelled":6932,"ĠNUMBER":6933,"WEIGHT":6934,"ĠSOLIDUS":6935,"800":6936,"=\\":6937,"VAR":6938,"fetch":6939,"uard":6940,"Ġ\"!":6941,"dian":6942,"Ġobs":6943,"sets":6944,"setdefault":6945,"Ġenum":6946,"funcs":6947,"KeyError":6948,"Ġcurrently":6949,"Ġthreads":6950,"BoxList":6951,"Ġoperations":6952,"Ġupper":6953,"BatchNormalization":6954,"EVENT":6955,"SCR":6956,"aaaaaaaaaaaaaaaa":6957,"pixel":6958,"ITER":6959,"].<":6960,"mu":6961,"sin":6962,"yes":6963,"tems":6964,"Ġinplace":6965,"Ġdefinition":6966,"terals":6967,"posed":6968,"ĠTurtle":6969,"Ġ(\"-":6970,"typ":6971,"Store":6972,"Extension":6973,"summarize":6974,"TestsFrom":6975,"Ġexecution":6976,"Ġsummary":6977,"Ġmatplotlib":6978,"panoptic":6979,"Ġ::=":6980,"middle":6981,"ĠBytesIO":6982,"monotonic":6983,"FIL":6984,"ian":6985,"Ġge":6986,"readed":6987,"Ġresidual":6988,"fication":6989,"resources":6990,"apshot":6991,"velo":6992,"tempdir":6993,"water":6994,"MODE":6995,"functions":6996,"Ġperm":6997,"while":6998,"Buffered":6999,"Ġremoved":7000,"395":7001,"Ġtcl":7002,"Ġfamily":7003,"Ġcleanup":7004,"Ġ({":7005,"assertLess":7006,"cases":7007,"Ġlocation":7008,"ĠMAX":7009,"foobar":7010,"Ġcontextlib":7011,"Ġadditional":7012,"patches":7013,"ELL":7014,"frozenset":7015,"remote":7016,"Evaluator":7017,"\";":7018,"Ġfour":7019,"Ġfbpcp":7020,"Ġcert":7021,"lost":7022,"Ġborder":7023,"Ġow":7024,"otor":7025,"ĠSyntaxError":7026,"ĠFOUR":7027,"Ġymin":7028,"Ġ/=":7029,"RACTION":7030,"Ġbufio":7031,"ENABLE":7032,"FUNCTYPE":7033,"Ġdigits":7034,"\"',":7035,"-\\":7036,"Can":7037,"TEXT":7038,"Traceback":7039,"oke":7040,"ui":7041,"vid":7042,"yaml":7043,"regex":7044,"ston":7045,"define":7046,"tour":7047,"Ġcons":7048,"Ġ{!":7049,"screen":7050,"acme":7051,"Ġpathlib":7052,"dbm":7053,"refine":7054,"LOW":7055,"matches":7056,"POSE":7057,"Ġdownload":7058,"Ġmemio":7059,"---+---+":7060,"surrogate":7061,"Embedding":7062,"scalar":7063,"rator":7064,"inside":7065,"Ġcached":7066,"disc":7067,"(\"\")<":7068,"weakref":7069,"([])<":7070,"closing":7071,"...\")<":7072,"download":7073,"ĠPathManager":7074,"antize":7075,"ĠIDLE":7076,"geometry":7077,"ANCEL":7078,"Batch":7079,"Non":7080,"hat":7081,"mro":7082,"udo":7083,"ority":7084,"Ġflat":7085,"enum":7086,"Ġequivalent":7087,"literal":7088,"arger":7089,"spli":7090,"product":7091,"ically":7092,"failed":7093,"Ġwere":7094,"processor":7095,"Ġcompression":7096,"ffect":7097,"{}'":7098,"randrange":7099,"Ġexecuted":7100,"ĠHTML":7101,"HeaderDefect":7102,"pickler":7103,".\".":7104,"71":7105,"AK":7106,"Fast":7107,"Pass":7108,"Same":7109,"gree":7110,"land":7111,"unit":7112,"ĠDep":7113,"atty":7114,"Remove":7115,").\"\"\"<":7116,"Ġprocesses":7117,"Ġlists":7118,"Ġ500":7119,"csr":7120,"Ġkeypoint":7121,"noise":7122,"filenames":7123,"matcher":7124,"Ġintermediate":7125,"markup":7126,"OLD":7127,"Ġaround":7128,"Ġordering":7129,"ĠDefaults":7130,"HOD":7131,"ĠDataLoader":7132,"blue":7133,"Ġprobability":7134,"Ġfixer":7135,"Perm":7136,"Ġmonth":7137,"SingleRoIExtractor":7138,"CONT":7139,"Sum":7140,"Task":7141,"Ġinternal":7142,"ely":7143,"upsample":7144,"tol":7145,"Ġhalf":7146,"Ġori":7147,"Inf":7148,"Construct":7149,"Ġtimer":7150,"Ġnoqa":7151,"rightness":7152,"IMIT":7153,"positions":7154,"ELINES":7155,"URN":7156,"ancelled":7157,"finite":7158,"Ġselection":7159,"identity":7160,"AsyncClient":7161,"scheme":7162,"\"(?":7163,"$\",":7164,"seudo":7165,"atom":7166,"Ġts":7167,"role":7168,"Ġeven":7169,"__),":7170,"rib":7171,"Ġds":7172,"Ġstored":7173,"lists":7174,"ĠDo":7175,"bus":7176,"application":7177,"Ġpartition":7178,"Ġproject":7179,"ĠMet":7180,"ĠNO":7181,"grads":7182,"Ġcomb":7183,"\\\\\\":7184,"Attr":7185,"Ġchanged":7186,"ĠHEAD":7187,"RequestHandler":7188,"Ġissubclass":7189,"ĠIndexError":7190,"SCRIPT":7191,"NON":7192,"gpt":7193,"sted":7194,"Ġ~":7195,"selected":7196,"Ġslow":7197,"serve":7198,"Ġwould":7199,"getter":7200,"Ġtheme":7201,"ĠPIP":7202,"irc":7203,"Ġpose":7204,"internal":7205,"ribution":7206,"successful":7207,"Memory":7208,"Ġsegm":7209,"Ġhtml":7210,"detector":7211,"ĠBoxes":7212,"GT":7213,"gan":7214,"hs":7215,"mime":7216,"ude":7217,"aroot":7218,"Ġsafe":7219,"pet":7220,"\",)),<":7221,"opener":7222,"ĠSY":7223,"etina":7224,"ĠPY":7225,"normalized":7226,"ĠRequest":7227,"Ġweek":7228,"LOSS":7229,"AAAA":7230,"Options":7231,"BBOX":7232,"BOT":7233,"DC":7234,"Iterable":7235,"Or":7236,"WARN":7237,"broadcast":7238,"ever":7239,"ortion":7240,"learn":7241,"tify":7242,"Ġms":7243,"Ġearly":7244,"ggreg":7245,"Ġchr":7246,"formatter":7247,"LEFT":7248,"Ġ56":7249,"subg":7250,"Seg":7251,"theta":7252,"CocoDataset":7253,"Ġcenterness":7254,"ĠPerm":7255,"CAPE":7256,"splitext":7257,"BIN":7258,"jk":7259,"Ġsci":7260,"Ġinplanes":7261,"Ġbo":7262,"uess":7263,"Ġ-----":7264,"verts":7265,"Ġxmin":7266,"strftime":7267,"ĠBottleneck":7268,"ĠMO":7269,"ggle":7270,"Ġ\"<<":7271,"minator":7272,"Ġargval":7273,"IZER":7274,"vironment":7275,"whitespace":7276,"Ġ\"_\"":7277,"AssertionError":7278,"numbers":7279,"Transformer":7280,"Ġnamedtuple":7281,"Ġdirectly":7282,"unicate":7283,"NotFoundError":7284,"REMOVE":7285,"!\"<":7286,"GAR":7287,"Use":7288,"bz":7289,"lations":7290,"rec":7291,"Ġtd":7292,"arb":7293,"Ġfree":7294,"urm":7295,"urn":7296,"Ġwr":7297,"Ġstatistics":7298,"ĠSHA":7299,"ĠAbstract":7300,"Ġhex":7301,"Ġopname":7302,"loadTestsFrom":7303,"Comple":7304,"POOL":7305,"2001":7306,"Ġdirname":7307,"Ġevaluator":7308,"Channel":7309,"entication":7310,"accumul":7311,"Ġcompiler":7312,"Ġswitch":7313,"attachment":7314,"Ġconsisting":7315,"\"',<":7316,"Windows":7317,"ares":7318,"alen":7319,"Ġ]:<":7320,"rename":7321,"Ġ\">":7322,"enable":7323,"defects":7324,"Ġrect":7325,"Ġreward":7326,"ĠSHIFT":7327,"ĠDOT":7328,"ĠModel":7329,"mount":7330,"ARG":7331,"Ġ[\"-":7332,"ASN":7333,"DataLoader":7334,"Ġfunctional":7335,"manifest":7336,"3333":7337,"Ġreply":7338,"TOKEN":7339,"augment":7340,"disable":7341,"Ġaugmentation":7342,"constra":7343,"ĠDistributed":7344,"MINUS":7345,"schema":7346,"OM":7347,"TEN":7348,"Write":7349,"watcher":7350,"ãĢ":7351,"Ġnb":7352,"Ġspeed":7353,"dic":7354,"ading":7355,"Ġagain":7356,"ĠSimple":7357,"ĠSSL":7358,"apers":7359,"propri":7360,"accounts":7361,"mini":7362,"works":7363,"Ġcompare":7364,"147":7365,"firm":7366,"overlap":7367,"ĠAttention":7368,"Ġabstract":7369,"gateway":7370,"ĠConvModule":7371,"âĢĿ":7372,"Ġprovides":7373,"symlinks":7374,"Ġautom":7375,"ĠPLUS":7376,"propriate":7377,".\"":7378,"FP":7379,"YY":7380,"_=":7381,"aws":7382,"Ġfig":7383,"Ġreason":7384,"ands":7385,"ĠTemp":7386,"=\"\\":7387,"Ġ*,<":7388,"ĠSO":7389,"pathname":7390,"Ġconcat":7391,"Ġconfidence":7392,"focal":7393,"ĠInvalid":7394,"Ġcalling":7395,"Ġzipf":7396,"ULATION":7397,"Ġvarious":7398,"ighted":7399,"InvalidOperation":7400,"Signature":7401,"rpclib":7402,"Join":7403,"AvgPool":7404,">-":7405,"Util":7406,"ialize":7407,"king":7408,"}:":7409,"deploy":7410,"Ġ\"(\"":7411,"ĠTAB":7412,"Ġgo":7413,"Ġlook":7414,"ĠNULL":7415,"ĠWith":7416,"Ġsets":7417,"shapes":7418,"ĠHel":7419,"Ġitself":7420,"Ġsubset":7421,"Pick":7422,"joints":7423,"Ġvector":7424,"TIMEOUT":7425,"Ġletter":7426,"Ġtester":7427,"Mo":7428,"NAN":7429,"Tk":7430,"fb":7431,"shell":7432,"rounding":7433,"pear":7434,"Ġemit":7435,"oned":7436,"ĠCFUNCTYPE":7437,"ĠPAT":7438,"temporal":7439,"))),<":7440,"Ġactive":7441,"PyObject":7442,"scripts":7443,"FIX":7444,"Pickle":7445,"CONST":7446,"memtest":7447,"Ġpooling":7448,"pickled":7449,"Ġpolygons":7450,"Ġmachine":7451,"ĠOnly":7452,"\"><":7453,"Num":7454,"RFC":7455,"SUP":7456,"frag":7457,"plier":7458,"runc":7459,"sug":7460,"inc":7461,"rac":7462,"Ġ115":7463,"Ġstore":7464,"ĠAT":7465,"ĠMIME":7466,"Ġlzma":7467,"maph":7468,"ARD":7469,"Ġuseful":7470,"SEPOSE":7471,"HECK":7472,"ufffd":7473,"Predictor":7474,"DATASET":7475,"Identifier":7476,"ĠColor":7477,"ĠESCAPE":7478,"!\\":7479,"++":7480,">.":7481,"Copy":7482,"FOR":7483,"HR":7484,"Lab":7485,"Main":7486,"Pack":7487,"_()<":7488,"fun":7489,"ards":7490,"Ġpayload":7491,"distance":7492,"\",))<":7493,"quit":7494,"clar":7495,"Ġgiv":7496,"Ġgreen":7497,"()[\"":7498,"tenv":7499,"Ġthing":7500,"Ġmesh":7501,"Ġusually":7502,"Ġprofile":7503,"Ġchat":7504,"ICT":7505,"ROP":7506,"IPV":7507,"Keys":7508,"multipart":7509,"Ġvalidation":7510,"Ġdestination":7511,"Ġaux":7512,"memio":7513,"ĠProcess":7514,"Any":7515,"Ġmemuse":7516,"legal":7517,"written":7518,"Ġdirectories":7519,"Length":7520,"DETECT":7521,"Frozen":7522,"Focal":7523,"IENT":7524,"NC":7525,"fol":7526,"ied":7527,"must":7528,"slow":7529,"Ġfg":7530,"cost":7531,"Ġ'{}'":7532,"ĠTON":7533,"ĠCfgNode":7534,"ĠSUP":7535,"ĠBar":7536,"ĠButton":7537,"Ġpredictor":7538,"lying":7539,"Ġymax":7540,"isthing":7541,"Ġnecess":7542,"Update":7543,"tives":7544,"Ġexecutor":7545,"IndexError":7546,"Distributed":7547,"wards":7548,"Ġmodify":7549,"Ġ\":\"":7550,"ĠStreamReader":7551,"ĠPoint":7552,"ĠAssertionError":7553,"ĠAverageMeter":7554,"Ġscipy":7555,"ĠTONOS":7556,"\"(":7557,"LC":7558,"TR":7559,"bilinear":7560,"cnt":7561,"git":7562,"dets":7563,"atin":7564,"Ġpprint":7565,"rase":7566,"Ġ\"\":<":7567,"Ġhist":7568,"Ġxmax":7569,"TestResult":7570,"ĠMeta":7571,"[::-":7572,"fixer":7573,"Exc":7574,"Ġcollect":7575,"Ġmini":7576,"Ġargrepr":7577,"Ġfilenames":7578,"returncode":7579,"Ġvalidate":7580,"KEYPOINT":7581,"digit":7582,"warp":7583,"ĠFastAPI":7584,"Ġtags":7585,"successfulSet":7586,"CV":7587,"cx":7588,"kes":7589,"reverse":7590,"radius":7591,"=\"%":7592,"Ġhard":7593,"Ġmems":7594,"ĠEnum":7595,"Ġwhose":7596,"undo":7597,"ticle":7598,"Ġurls":7599,"Ġ\"/\"":7600,"Ġdirs":7601,"optimize":7602,"ï¼Ł":7603,"Detector":7604,"Ġgradients":7605,");":7606,"+\"":7607,"400":7608,"Ac":7609,"DD":7610,"clock":7611,"zlib":7612,"inherit":7613,"descriptor":7614,"Ġai":7615,"ateway":7616,"INK":7617,"ETE":7618,"ITIAL":7619,"Ġprec":7620,"ĠRPN":7621,"ĠUp":7622,"------------":7623,"Ġcompress":7624,"Proto":7625,"Ġreading":7626,"translate":7627,"offsets":7628,"Ġkwds":7629,"detectron":7630,"Buffer":7631,"SCAL":7632,"Ġissue":7633,"Ġsupplied":7634,"ĠTRANS":7635,"havior":7636,"Custom":7637,"DF":7638,"Empty":7639,"ILE":7640,"JECT":7641,"Rel":7642,"Table":7643,"UND":7644,"bri":7645,"ming":7646,"Ġ(?":7647,"ulong":7648,"clusters":7649,"positive":7650,"ĠCustom":7651,"Ġdescriptor":7652,"weak":7653,"DEP":7654,"reply":7655,"\".\\":7656,"trie":7657,"Ġ\"-\"":7658,"Ġfactory":7659,"ĠĠĠĠĠĠĠĠĠĠĠĠĠĠĠĠĠĠĠĠĠĠĠĠĠĠĠĠĠĠĠĠĠĠĠĠĠĠĠĠĠĠ":7660,"ĠâĨĵ<":7661,"ĠTABULATION":7662,"FocalLoss":7663,"\"%":7664,"NaN":7665,"iases":7666,"kill":7667,"octave":7668,"dep":7669,"recall":7670,"residual":7671,"chr":7672,"hes":7673,"argin":7674,"Ġdistance":7675,"ĠACK":7676,"Ġdev":7677,"atting":7678,"Ġthose":7679,"ĠBlock":7680,"readable":7681,"ORY":7682,"nearest":7683,"tinuation":7684,"ĠPyTorch":7685,"Ġinterp":7686,"``,":7687,"TextIO":7688,"Predi":7689,"ĠcocoEval":7690,"Ġapprox":7691,"Ġwriting":7692,"LEDGE":7693,"ĠOtherwise":7694,"NOWLEDGE":7695,"ĠACKNOWLEDGE":7696,"Cannot":7697,"HEN":7698,"PLE":7699,"You":7700,"[_":7701,"good":7702,"orsel":7703,"tid":7704,"tifi":7705,"chmod":7706,"Ġpush":7707,"Ġrecall":7708,"xture":7709,"Ġdisc":7710,"ĠFunction":7711,"ship":7712,"imread":7713,"Ġprog":7714,"Ġcoarse":7715,"ADD":7716,"Namespace":7717,"Union":7718,"users":7719,"Ġqkv":7720,"Ġworker":7721,"assigned":7722,"versal":7723,"PRESSED":7724,"ĠFEED":7725,"Dummy":7726,"Gt":7727,"sage":7728,"tabs":7729,"ufe":7730,"ormable":7731,"desc":7732,"stuff":7733,"Ġinf":7734,"Ġred":7735,"approx":7736,"Ġconversion":7737,"shal":7738,"Ġdataclass":7739,"ĠIO":7740,"timedelta":7741,"Ġstarting":7742,"refs":7743,"LOG":7744,"Ġtemporal":7745,"Ġbackend":7746,"execute":7747,"rtual":7748,"Clients":7749,"elements":7750,"allowed":7751,"boundary":7752,"VALUE":7753,"Ġpooler":7754,"::<":7755,"EH":7756,"Gra":7757,"Guard":7758,"RIGHT":7759,"System":7760,"ĠEqual":7761,"Ġfixed":7762,"Ġdeform":7763,"ising":7764,"ĠAc":7765,"Ġparsed":7766,"Ġenc":7767,"ĠHYP":7768,"Ġcolors":7769,"Ġhandlers":7770,"bigmemtest":7771,"MISSION":7772,"ĠTRANSMISSION":7773,"ĠHYPHEN":7774,"69":7775,"_)<":7776,"aw":7777,"dy":7778,"green":7779,"ru":7780,"tcl":7781,"xfc":7782,"integ":7783,"Ġcp":7784,"Ġsince":7785,"peer":7786,"__:<":7787,"under":7788,"cons":7789,"Ġcondition":7790,"ĠFRACTION":7791,"Ġtimezone":7792,"STD":7793,"042":7794,"Ġexplicit":7795,"Ġorigin":7796,"Ġapplied":7797,"gui":7798,"ĠQUESTION":7799,"Interrupt":7800,"EventLoop":7801,"Ġmodified":7802,"}/{":7803,"'\"":7804,"*.":7805,"NONE":7806,"SAM":7807,"_):<":7808,"bow":7809,"cen":7810,"cri":7811,"ctime":7812,"cus":7813,"criterion":7814,"dw":7815,"dont":7816,"dinsdale":7817,"rm":7818,"alDist":7819,"Ġix":7820,"Ġput":7821,"assertRegex":7822,"coord":7823,"ntl":7824,"pathway":7825,"program":7826,"ĠInt":7827,"ĠBack":7828,"locked":7829,"Ġenti":7830,"START":7831,"043":7832,"ĠInstruction":7833,"IPS":7834,"decoded":7835,"PEP":7836,"riptor":7837,"PROCESS":7838,"mmar":7839,"datas":7840,"Ġchunks":7841,"bgr":7842,"LIB":7843,"Generic":7844,"maphore":7845,"?\",":7846,"End":7847,"FB":7848,"Failed":7849,"Label":7850,"bd":7851,"eos":7852,"rsplit":7853,"decoding":7854,"Ġfun":7855,"routes":7856,"Ġsl":7857,"heel":7858,"Ġbits":7859,"Ġreceived":7860,"\",)<":7861,"argtypes":7862,"Ġdx":7863,"ATCH":7864,"Ġgetopt":7865,"Ġkp":7866,"ĠVER":7867,"note":7868,"ĠclientId":7869,"Ġverify":7870,"PTY":7871,"Ġsymbol":7872,"Ġtrack":7873,"Ġfailures":7874,"TemporaryFile":7875,"fficult":7876,"Match":7877,"Rng":7878,"ZeroDivisionError":7879,"rfind":7880,"sb":7881,"Ġgpu":7882,"strong":7883,"ĠISOL":7884,"Ġ(\"(?":7885,"ĠNon":7886,"Ġobjectness":7887,"ĠThese":7888,"Expected":7889,"plat":7890,"Directory":7891,"ĠsetUpClass":7892,"Ġcaption":7893,"Subject":7894,"misc":7895,"Executor":7896,"Ġdelimiter":7897,"maybe":7898,"ĠISOLATED":7899,"RF":7900,"VP":7901,"WA":7902,"aussian":7903,"boolean":7904,"dra":7905,"fatal":7906,"npy":7907,"oring":7908,"Ġnested":7909,"Ġdry":7910,"Ġdcn":7911,"atically":7912,"Ġexperiment":7913,"Ġbegin":7914,"scan":7915,"Ġknown":7916,"itect":7917,"loading":7918,"Local":7919,"Ġ|=":7920,"categories":7921,"Program":7922,"Ġapplication":7923,"Ġflipped":7924,"gorical":7925,"Ġidentifier":7926,"ParseError":7927,"\"[\\":7928,"existing":7929,"Ġsimilar":7930,"'\")<":7931,"NORM":7932,"]}":7933,"ftp":7934,"uck":7935,"|<":7936,"Ġfout":7937,"Ġreverse":7938,"Ġfore":7939,"throw":7940,"Ġdw":7941,"popen":7942,"experiment":7943,"Ġhaving":7944,"Ġdescri":7945,"ĠDummy":7946,"ĠFPN":7947,"Ġclassifier":7948,"Ġsever":7949,"nums":7950,"ĠWorkspace":7951,"cursor":7952,"Ġcurr":7953,"Ġtuples":7954,"ampwidth":7955,"hooks":7956,"Ġtrigrams":7957,"restype":7958,"failureException":7959,"Ġrecursive":7960,"Ġcaptured":7961,"*\",":7962,"/{":7963,"456":7964,">'":7965,"Transport":7966,"ey":7967,"hor":7968,"nor":7969,"pw":7970,"pted":7971,"Ã©":7972,"deepspeed":7973,"Ġcu":7974,"choices":7975,"Ġwarning":7976,"oday":7977,"vier":7978,"Ġoutfile":7979,"Ġenable":7980,"\")],<":7981,"comments":7982,"ARGET":7983,"compatible":7984,"))]<":7985,"roundtrip":7986,"Ġsuc":7987,"Ġpadx":7988,"ĠZERO":7989,"SSLContext":7990,"DocTest":7991,"Ġdocumentation":7992,"Ġhooks":7993,"DecodeError":7994,"retinanet":7995,"rinsics":7996,"BA":7997,"CIAL":7998,"ims":7999,"ĠâĢ":8000,"Ġcar":8001,"chdir":8002,"Ġmixed":8003,"Ġ\"\"),<":8004,"ATSS":8005,"focus":8006,"previous":8007,"Ġrule":8008,"Ġseek":8009,"Ġunit":8010,"ROKE":8011,"ILON":8012,"Ġspan":8013,"033":8014,"2022":8015,"swap":8016,"Heads":8017,"sentinel":8018,"augs":8019,"ĠSTROKE":8020,"Ġrequests":8021,"CONV":8022,"Ġcategories":8023,"LIST":8024,"Query":8025,"ĠStringIO":8026,"suggest":8027,"Imp":8028,"Import":8029,"Like":8030,"SY":8031,"bet":8032,"cript":8033,"relation":8034,"Ġ\"**":8035,"Ġcla":8036,"(\">":8037,"tower":8038,"lens":8039,"ĠSource":8040,"ETA":8041,"share":8042,"codes":8043,"Ġbelow":8044,"Ġcanvas":8045,"Ġnoise":8046,"bins":8047,"posts":8048,"Ġ\"/\"<":8049,"bitrary":8050,"Ġskipped":8051,"Ġappropriate":8052,"gorith":8053,"Ġinterpreter":8054,"Ġcounts":8055,"Logprobs":8056,"futures":8057,"editwin":8058,"Ġmerged":8059,"ĠLZMA":8060,"'\",<":8061,"GLOBAL":8062,"Make":8063,"bic":8064,"clean":8065,"hop":8066,"kp":8067,"deque":8068,"stock":8069,"allo":8070,"Ġbaz":8071,"Ġ201":8072,"Ġdecay":8073,"Ġmembers":8074,"session":8075,"heading":8076,"curdir":8077,"zipfile":8078,"Ġcoroutine":8079,"clusive":8080,"Ġready":8081,"finally":8082,"divm":8083,"Ġchildren":8084,"BUF":8085,"Ġcorresponds":8086,"Ġnetworks":8087,"Ġdataloader":8088,"specified":8089,"assertIsNotNone":8090,"View":8091,"NotImplementedError":8092,"296":8093,">[":8094,"CD":8095,"GEN":8096,"PAR":8097,"every":8098,"Ġcc":8099,"enu":8100,"rou":8101,"Ġbind":8102,"adow":8103,"Ġwell":8104,"fish":8105,"confirm":8106,"ĠDesc":8107,"ĠFULL":8108,"ĠPRO":8109,"Ġproduce":8110,"ĠSMTP":8111,"Ġformatter":8112,"Ġattemp":8113,"tributes":8114,"Ġarr":8115,"Ġtrial":8116,"Ġremote":8117,"POOLER":8118,"Back":8119,"CHECK":8120,"affine":8121,"brid":8122,"fpath":8123,"tt":8124,"ym":8125,"ä¸":8126,"lopen":8127,"person":8128,"Ġseparator":8129,"Condition":8130,"ective":8131,"ĠOK":8132,"Ġlarger":8133,"efly":8134,"Ġ127":8135,"sendto":8136,"12345":8137,"flat":8138,"Ġsomething":8139,"Ġextensions":8140,"Ġinitialized":8141,"BBoxCoder":8142,"********************************":8143,"ĠEXCL":8144,"activations":8145,"DENSEPOSE":8146,"064":8147,":\"":8148,"NMS":8149,"PA":8150,"but":8151,"qp":8152,"alg":8153,"Ġiters":8154,"rogram":8155,"adv":8156,"Ġdynamic":8157,"ĠABC":8158,"ATER":8159,"anno":8160,"ĠĠĠĠĠĠĠĠĠĠĠĠĠĠĠĠĠĠĠĠĠ":8161,"....":8162,"__(*":8163,"\")',":8164,"ĠVUL":8165,"ĠGRE":8166,"clientId":8167,"Ġdetections":8168,"RESOURCE":8169,"addrinfo":8170,"detect":8171,"7777":8172,"ĠcatId":8173,"Forward":8174,"Ġhostname":8175,"Ġextended":8176,"ffili":8177,"boxlists":8178,"ĠStreamWriter":8179,"0123456789":8180,"EncodeError":8181,"Ġscheme":8182,"MAGES":8183,"Ġ-------<":8184,"ĠVULGAR":8185,"'\"<":8186,":\\\\":8187,">%":8188,"EOF":8189,"Top":8190,"hide":8191,"play":8192,"sun":8193,"deli":8194,"members":8195,"Ġfobj":8196,"Ġcross":8197,"Ġpoly":8198,"loy":8199,"rack":8200,"Ġda":8201,"Ġdecorator":8202,"Ġproper":8203,"):\\":8204,"ĠEM":8205,"tokentypes":8206,"aren":8207,"waiter":8208,"triple":8209,"urllib":8210,"('-":8211,"Ġoverlaps":8212,"callbacks":8213,"lappy":8214,"importer":8215,"pickling":8216,"Ġinstanti":8217,"writing":8218,"autospec":8219,"Ġnumeric":8220,"Failure":8221,"dependencies":8222,"Ca":8223,"MULT":8224,"egg":8225,"ole":8226,"speed":8227,"wr":8228,"sequences":8229,"Ġfre":8230,"Ġfpn":8231,"Ġcer":8232,"itor":8233,"Ġregex":8234,"cover":8235,"Ġdom":8236,"Ġstds":8237,"conver":8238,"resolve":8239,"ĠPolygon":8240,"ĠMapping":8241,"Ġcould":8242,"Ġcookies":8243,"usted":8244,"ĠThere":8245,"ualizer":8246,"absolute":8247,"crementalen":8248,"Ġsplits":8249,"soon":8250,"Ġstructure":8251,"Training":8252,"Region":8253,"abcdefghi":8254,"Ġsqlite":8255,"Ġfastapi":8256,"crementalencoder":8257,"ZIP":8258,"gine":8259,"kit":8260,"osp":8261,"tran":8262,"tanh":8263,"was":8264,"Ġpending":8265,"Ġdefines":8266,"Ġ''":8267,"olved":8268,"vider":8269,"Ġ(\"\\":8270,"Ġradius":8271,"ĠNew":8272,"aves":8273,"Arg":8274,"Boxes":8275,"Component":8276,"CLIENT":8277,"servation":8278,"Ġfollowed":8279,"Builder":8280,"BACKB":8281,"Ġpanoptic":8282,";\",":8283,"Loc":8284,"Wait":8285,"bisect":8286,"dup":8287,"how":8288,"Ġ?":8289,"Ġlatent":8290,"Ġcamera":8291,"Ġour":8292,"utco":8293,"Ġrece":8294,"cookies":8295,"rived":8296,"pol":8297,"odom":8298,"condition":8299,"=\"\")<":8300,"Ġlookup":8301,"processed":8302,"shifts":8303,"readinto":8304,"runner":8305,"ENCOD":8306,"AMATION":8307,"mailboxes":8308,"ĠUnix":8309,"pairwise":8310,"URI":8311,"isoformat":8312,"Ġconnect":8313,"buttons":8314,"Ġaudioop":8315,"machine":8316,"Split":8317,"bosity":8318,"Ġpooled":8319,"utcoffset":8320,"BATCH":8321,"RGB":8322,"ZZ":8323,"broken":8324,"drive":8325,"xac":8326,"ĠRaises":8327,"Ġ\"=\"":8328,"arrange":8329,"Ġcwd":8330,"itude":8331,"Ġ101":8332,"atience":8333,"Ġstick":8334,"Ġgts":8335,"ĠSer":8336,"()[-":8337,"export":8338,"Ġhit":8339,"formConv":8340,"Ġdatabase":8341,"layout":8342,"ĠMED":8343,"checkJoin":8344,"backends":8345,"([],":8346,"))),":8347,"Ġ{}:":8348,"categorical":8349,"Ġcombin":8350,"begin":8351,"Ġassignment":8352,"ĠZeroDivisionError":8353,"Policy":8354,"OUTPUT":8355,"ĠHeader":8356,"ĠIncrementalEncoder":8357,"roidb":8358,"arbage":8359,"ĠEXCLAMATION":8360,"%%":8361,",),<":8362,"EF":8363,"ImportError":8364,"ODE":8365,"[(":8366,"^\\":8367,"oise":8368,"tls":8369,"Ġxt":8370,"Ġsources":8371,"Ġinteg":8372,"itter":8373,"Ġod":8374,"ortoise":8375,"getstate":8376,"too":8377,"()}<":8378,"prep":8379,"041":8380,"character":8381,"HAVE":8382,"nonlocal":8383,"(\"./":8384,"Ġrepresents":8385,"METHOD":8386,"SkipTest":8387,";\"<":8388,"NET":8389,"cascade":8390,"ftest":8391,"fsen":8392,"past":8393,"tty":8394,"xab":8395,"xdf":8396,"Ġlin":8397,"Ġzeros":8398,"remain":8399,"reversed":8400,"tile":8401,"Ġpr":8402,"Ġnone":8403,"Ġss":8404,"0010":8405,"elf":8406,"ĠSum":8407,"Ġxp":8408,"linesep":8409,"TestBase":8410,"TestLoader":8411,"quick":8412,"newline":8413,"ĠInter":8414,"Ġcomparison":8415,"Ġacross":8416,"Ġformatted":8417,"PECT":8418,"padded":8419,"expanduser":8420,"Ġallows":8421,"HOME":8422,"Ġselector":8423,"endings":8424,"rupted":8425,"RPNHead":8426,"recursion":8427,"Ġlocations":8428,"SUB":8429,"Ġdivmod":8430,"ĠIncrementalDecoder":8431,"Ġseparate":8432,"Ġnecessary":8433,"=<":8434,">,":8435,"EB":8436,"GA":8437,"Rot":8438,"Sig":8439,"Tab":8440,"fri":8441,"tot":8442,"yte":8443,"getenv":8444,"Ġblob":8445,"(\"+":8446,"gether":8447,"ĠCor":8448,"ĠSome":8449,"[\"_":8450,"dae":8451,"typing":8452,"cols":8453,"onym":8454,"IGNORE":8455,"returns":8456,"Ġsuccess":8457,"CHOR":8458,"aux":8459,"Ġpadded":8460,"connected":8461,"Ġ'\"'":8462,"EVEN":8463,"vely":8464,"smtp":8465,"Ġblue":8466,"interpreters":8467,"Ġindicates":8468,"briefly":8469,"ĠLZMAFile":8470,"Cfg":8471,"Fixed":8472,"HASH":8473,"OO":8474,"XZ":8475,"][:,":8476,"cdata":8477,"alty":8478,"Internal":8479,"ĠMAC":8480,"imgIds":8481,"Ġtimestamp":8482,"))))<":8483,"Ġdouble":8484,"success":8485,"disabled":8486,"Ġconstant":8487,"Future":8488,"Imple":8489,"Xt":8490,"wraps":8491,"{<":8492,"inverse":8493,"meter":8494,"Ġsur":8495,"uncased":8496,"Ġactions":8497,"Ġtestcommon":8498,"Ġ224":8499,"ĠAS":8500,"ĠDEL":8501,"Ġmemo":8502,"ubyte":8503,"berta":8504,"Storage":8505,"ROUND":8506,"ugins":8507,"))[":8508,"Ġnever":8509,"Ġ...\")<":8510,"BaseTest":8511,"2012":8512,"Ġtracemalloc":8513,"Ġ90":8514,"Ġepochs":8515,"Ġselectors":8516,"blank":8517,"flops":8518,"nccl":8519,"Descriptor":8520,"?=<":8521,"weekday":8522,"Ġphase":8523,"ĠRegistry":8524,"ĠMACRON":8525,"\"):":8526,"'\",":8527,"404":8528,"AV":8529,"Epoch":8530,"PIL":8531,"SING":8532,"_\",<":8533,"evt":8534,"fit":8535,"tm":8536,"vit":8537,"}{":8538,"describe":8539,"ats":8540,"assemb":8541,"mems":8542,"mega":8543,"Ġplot":8544,"__\"):<":8545,"lices":8546,"getsock":8547,"ĠSample":8548,"ĠSTOP":8549,"datagram":8550,"ĠIoU":8551,"ĠBe":8552,"scene":8553,"Ġ400":8554,"Ġ:=":8555,"phase":8556,"See":8557,"Ġregistered":8558,"symbols":8559,"Ġblank":8560,"Ġunderlying":8561,"TLSv":8562,"sibly":8563,"communicate":8564,"Ġholding":8565,"IPSIS":8566,"Cor":8567,"Target":8568,"`.":8569,"icon":8570,"sla":8571,"Ġcr":8572,"ractive":8573,"oting":8574,"=\"\"):<":8575,"Ġdele":8576,"processes":8577,"properties":8578,"ĠBACK":8579,"Ġunlink":8580,"ifc":8581,"ICODE":8582,"sgi":8583,"Section":8584,"xbb":8585,"EXTRA":8586,"ensemb":8587,"Ġfailure":8588,"InvalidHeaderDefect":8589,"Timeout":8590,"dialect":8591,"Ġexactly":8592,"RANGE":8593,"captured":8594,"!<":8595,"\"/":8596,"5000":8597,">]":8598,"GAT":8599,"MARK":8600,"There":8601,"WW":8602,"gid":8603,"wchar":8604,"xef":8605,"Ġ,":8606,"des":8607,"Ġschedule":8608,"lict":8609,"()).":8610,"coded":8611,"Ġresources":8612,"Install":8613,"ĠMo":8614,"Ġheap":8615,"outer":8616,"LECT":8617,"accuracy":8618,"ĠGroup":8619,"urls":8620,"switch":8621,"assertNotIs":8622,"reduced":8623,"ĠDistribution":8624,"simplefilter":8625,"macros":8626,"NeXt":8627,"REQUEST":8628,"Ġcuda":8629,"2048":8630,":]:<":8631,"=?":8632,"Act":8633,"Del":8634,"NOWN":8635,"TCP":8636,"band":8637,"ja":8638,"mas":8639,"Ġ\"[\"":8640,"ana":8641,"Ġomitted":8642,"Ġreferences":8643,"Ġmime":8644,"(\"\\\\":8645,"thandler":8646,"ulthandler":8647,"ĠLESS":8648,"Ġ27":8649,"\"]]<":8650,"ĠFrom":8651,"prop":8652,"timezone":8653,"ĠNe":8654,"ĠassertBad":8655,"ĠVer":8656,"Ġconfigure":8657,"Ġargv":8658,"binop":8659,"``<":8660,"123456789":8661,"Transpose":8662,"ResourceTemplate":8663,"Ġscaling":8664,"ĠGREATER":8665,"/<":8666,"AIN":8667,"euc":8668,"hr":8669,"spe":8670,"zon":8671,"Ġlight":8672,"Ġfine":8673,"Ġcop":8674,"__))<":8675,"(\"../":8676,"that":8677,"Ġstill":8678,"Ġdims":8679,"ĠField":8680,"ATT":8681,"jobs":8682,"compression":8683,"tries":8684,"039":8685,"{}.":8686,"Ġanns":8687,"Setup":8688,"VERSE":8689,"Ġcalc":8690,"Ġbinascii":8691,"ĠSequence":8692,"Ġpixels":8693,"BREAK":8694,"Ġboundary":8695,"1111111111111111":8696,"Ġconvolutional":8697,"volume":8698,"Ġsquare":8699,"56701234":8700,"TextIOWrapper":8701,"tificate":8702,"fsencode":8703,";&":8704,"OB":8705,"Offset":8706,"mos":8707,"utime":8708,"|\\":8709,"eries":8710,"Ġcy":8711,"Ġcycle":8712,"Ġmar":8713,"coeff":8714,"Ġam":8715,"Ġ192":8716,"setattr":8717,"ERSCRIPT":8718,"datamodule":8719,"Ġexport":8720,"()\",":8721,"exclude":8722,"addresses":8723,"Ġrgb":8724,"017":8725,"Ġknow":8726,"minimum":8727,"cating":8728,"dbl":8729,"Ġpiece":8730,"Ġ160":8731,"traps":8732,"Ġdetect":8733,"rolled":8734,"Build":8735,"Ġxmlns":8736,"Ġxmlrpclib":8737,"clips":8738,"Ġconstructs":8739,"PTIONS":8740,"regularizers":8741,"Ġincluding":8742,"ĠSUPERSCRIPT":8743,"IK":8744,"bdist":8745,"gdb":8746,"ields":8747,"pformat":8748,"ring":8749,"wrong":8750,"xl":8751,"mpath":8752,"Ġpower":8753,"Ġsite":8754,"quantize":8755,"Ġ'\\":8756,"tool":8757,"database":8758,"Ġdelay":8759,"Ġdedent":8760,"ocker":8761,"Ġnameless":8762,"Ġunless":8763,"Ġvoc":8764,"bob":8765,"=[],<":8766,"STAT":8767,"nections":8768,"compressed":8769,"bsocket":8770,"Ġsignatures":8771,"Ġfinder":8772,"Ġcaffe":8773,"Ġrefine":8774,"PACK":8775,"ĠtearDownClass":8776,"similar":8777,"VALID":8778,"SERVER":8779,"ĠSTRING":8780,"ĠCOMMA":8781,"ĠShapeSpec":8782,"Ġestima":8783,"discard":8784,"landmarks":8785,"itecture":8786,"364":8787,":\",<":8788,"dc":8789,"mut":8790,"zd":8791,"online":8792,"Ġincremental":8793,"Ġrecogn":8794,"___":8795,"intype":8796,"Ġconside":8797,"ĠFP":8798,"Ġses":8799,"Ġ(\"__":8800,"Ġchain":8801,"formats":8802,"render":8803,"][-":8804,"parsers":8805,"Ġworks":8806,"Array":8807,"Ġspecifies":8808,"AsIds":8809,"ĠZip":8810,"Ġarbitrary":8811,"OptionError":8812,"Ġliteral":8813,"ffffffff":8814,"period":8815,"greed":8816,"ĠDEFAULT":8817,"SERVICE":8818,"pdparams":8819,"PREFIX":8820,"hours":8821,"Ġstarted":8822,")*":8823,"./":8824,"BED":8825,"card":8826,"ev":8827,"hard":8828,"mmap":8829,"orten":8830,"Ġ\"~":8831,"Ġown":8832,"Ġrequire":8833,"urlopen":8834,"Ġ((\"":8835,"ĠTable":8836,"Ġtogether":8837,"\"]):<":8838,"()\\":8839,"yscale":8840,"buffers":8841,"ĠBERT":8842,"Ġcost":8843,"120":8844,"Ġlt":8845,"regentry":8846,"scaled":8847,"batchnorm":8848,"intermediate":8849,"DataFrame":8850,"MAIL":8851,"USR":8852,"xbd":8853,"Ġpady":8854,"Ġtransfer":8855,"(\".\")<":8856,"ĠLoss":8857,"CodecInfo":8858,"ï¼Į":8859,"MAPP":8860,"Ġcreating":8861,"sibility":8862,"truncate":8863,"ĠSHADE":8864,"daemon":8865,"Ġsession":8866,"MIME":8867,"_(<":8868,"xs":8869,"alive":8870,"anded":8871,"fiers":8872,"major":8873,"Ġdp":8874,"ĠSE":8875,"linspace":8876,"vised":8877,"Ġhour":8878,"food":8879,"perf":8880,"ĠEval":8881,"daAtt":8882,"Ġlinecache":8883,"Ġalias":8884,"Ġcolumns":8885,"catIds":8886,"Environment":8887,"2004":8888,"license":8889,"Ġpacked":8890,"Results":8891,"Ġlibraries":8892,"Entry":8893,"ĠQu":8894,"Adam":8895,"Ġincludes":8896,"blah":8897,"termine":8898,"grees":8899,"Ġautomatically":8900,"ensemble":8901,";</":8902,"IUM":8903,"RAT":8904,"iel":8905,"})\"<":8906,"decorator":8907,"Ġcast":8908,"Ġpwd":8909,"argsort":8910,"Ġnothing":8911,"imports":8912,"TERN":8913,"Ġparsing":8914,"Ġgetregentry":8915,"Ġanswers":8916,"maxout":8917,"cisions":8918,"Ġitr":8919,"Ġstates":8920,"Diff":8921,"IDLE":8922,"Coun":8923,"Ġasyncore":8924,"Ġbreakpoint":8925,"Ġvari":8926,"Chart":8927,"cnf":8928,"Ġbufsize":8929,"ABCDEF":8930,"started":8931,"assertGreaterEqual":8932,"Ġspaces":8933,"WARNING":8934,"Pickler":8935,"rouped":8936,"ĠMEDIUM":8937,"Cal":8938,"DES":8939,"dynamic":8940,"given":8941,"sources":8942,"}),<":8943,"Ġpublic":8944,"ceed":8945,"Ġmct":8946,"lief":8947,"lays":8948,"Ġtool":8949,"Ġexclude":8950,"abi":8951,"ĠPER":8952,"Ġpartic":8953,"010":8954,"Ġbecome":8955,"Container":8956,"\")[-":8957,"irt":8958,"cud":8959,"effi":8960,"sums":8961,"aaa":8962,"Ġones":8963,"what":8964,"ĠAtt":8965,"tarinfo":8966,"Ġaugmented":8967,"FLIP":8968,"Transfer":8969,"Recvmsg":8970,"SIGN":8971,"UV":8972,"fps":8973,"glass":8974,"have":8975,"more":8976,"ndim":8977,"Ġke":8978,"Ġ99":8979,"atan":8980,"alth":8981,"Ġcs":8982,"Ġnt":8983,"Ġevt":8984,"coordin":8985,"getargs":8986,"oxel":8987,"ĠClient":8988,"isable":8989,"toggle":8990,"Ġgather":8991,"ĠSup":8992,"Ġdetermin":8993,"ĠIds":8994,"012":8995,"Ġbehavior":8996,"Ġpreprocess":8997,"RECT":8998,"\"))":8999,"Ġlatin":9000,"libraries":9001,"Ġpathname":9002,"waitpid":9003,"Ġpycoco":9004,"Property":9005,"Ġmove":9006,"serving":9007,"Ġstacked":9008,"Ġbytecode":9009,"blur":9010,"Iterator":9011,"NODE":9012,"click":9013,"COMPRESSED":9014,"freeze":9015,"Ġsettings":9016,"Ġinteract":9017,"yyyyyyyy":9018,"FILTER":9019,"accumulation":9020,"efficient":9021,"\"')<":9022,"Acc":9023,"CAC":9024,"browser":9025,"gl":9026,"iti":9027,"kaiming":9028,"rd":9029,"xFFFF":9030,"terer":9031,"asy":9032,"Ġttk":9033,"Ġcos":9034,"Ġpen":9035,"unused":9036,"Ġapi":9037,"turtle":9038,"conner":9039,"ĠAM":9040,"ĠApp":9041,"istic":9042,"oose":9043,"ĠValue":9044,"Ġnormalized":9045,"COUN":9046,"contextlib":9047,"ANCHOR":9048,"printable":9049,"structure":9050,"EMBED":9051,"seekable":9052,"Ġtrailing":9053,"sheep":9054,"POSITION":9055,"ĠDocument":9056,"CB":9057,"Current":9058,"Field":9059,"HER":9060,"IAN":9061,"SD":9062,"Zero":9063,"_\",":9064,"nx":9065,"ining":9066,"tep":9067,"chan":9068,"serial":9069,"Ġrestore":9070,"unless":9071,"coarse":9072,"ulary":9073,"setter":9074,"Ġstuff":9075,"ĠSEM":9076,"aption":9077,"()\"<":9078,"Ġdecor":9079,"buil":9080,"percent":9081,"Ġunpack":9082,"ĠOS":9083,"irror":9084,"ĠVAL":9085,"dog":9086,"Ġexpr":9087,"Ġvery":9088,"Ġavoid":9089,"Ġmetaclass":9090,"Ġdisabled":9091,"divid":9092,"Ġappear":9093,"HeaderParseError":9094,"PERS":9095,"+\"-":9096,"centers":9097,"High":9098,"MER":9099,"Trunc":9100,"Validation":9101,"bility":9102,"gap":9103,"pin":9104,"wel":9105,"zoo":9106,"rev":9107,"restore":9108,"chair":9109,"Ġpx":9110,"heatmap":9111,"Ġba":9112,"argname":9113,"opri":9114,"INS":9115,"Ġ26":9116,"texts":9117,"provider":9118,"Ġrb":9119,"pyston":9120,"ĠBot":9121,"maxDets":9122,"ooler":9123,"acing":9124,"Ġpointer":9125,"bounding":9126,"notify":9127,"Ġcheckpoints":9128,"Ġalong":9129,"Files":9130,"scriminator":9131,"Ġscene":9132,"BaseTestCase":9133,"Ġiterations":9134,"signum":9135,"Char":9136,"(\"<<":9137,"FAST":9138,"768":9139,"Ġprotocols":9140,"itchen":9141,"sistent":9142,"Registry":9143,"XYWH":9144,"totype":9145,"Ġconsidered":9146,"cudnn":9147,"+\\":9148,"UUID":9149,"bce":9150,"Ġuri":9151,"Ġ\"..":9152,"Ġtransp":9153,"Ġsd":9154,"listen":9155,"latest":9156,"vertices":9157,"\"]),":9158,"ĠFILE":9159,"ATURE":9160,"\"\".":9161,"Ġclr":9162,"Ġmacro":9163,"Ġprodu":9164,"Ġenabled":9165,"Ġchoice":9166,"areas":9167,"acters":9168,"Ġ59":9169,"ĠRET":9170,"Ġversions":9171,"xbf":9172,"ounded":9173,"Ġtranslate":9174,"ĠBoxMode":9175,"chunks":9176,"croll":9177,"ĠPerform":9178,"audioop":9179,"AssertEqual":9180,"UNKNOWN":9181,"TENS":9182,"normpath":9183,"2965":9184,"+\"-\"+":9185,"GC":9186,"Last":9187,"RC":9188,"cnn":9189,"lus":9190,"otes":9191,"rw":9192,"rtest":9193,"vc":9194,"zoom":9195,"debu":9196,"Ġrecalls":9197,"Ġmk":9198,"Ġmight":9199,"Ġwrong":9200,"Ġhi":9201,"amb":9202,"ĠBF":9203,"Ġheatmap":9204,"DEX":9205,"featmap":9206,"newlines":9207,"Ġrounding":9208,"prefixes":9209,"ABSTFN":9210,"BaseModel":9211,"tarfile":9212,"patterns":9213,"CONN":9214,"ĠJSON":9215,"magic":9216,"Classification":9217,"SharedFCBBoxHead":9218,"AnchorGenerator":9219,"RATIO":9220,"TASK":9221,"ban":9222,"city":9223,"ggs":9224,"ik":9225,"rule":9226,"vpc":9227,"xed":9228,"Ġctr":9229,"Ġpin":9230,"lick":9231,"ĠLR":9232,"ĠLab":9233,"ĠCANCEL":9234,"illed":9235,"ĠSystem":9236,"listlib":9237,"fromkeys":9238,"ĠIdenti":9239,"pyplot":9240,"Ġpretrain":9241,">>\",":9242,"closure":9243,"objectness":9244,"Ġcomputed":9245,"ĠContainer":9246,"Ġleg":9247,"152":9248,"traces":9249,"transfer":9250,"UNIX":9251,"Ġlengths":9252,"ditor":9253,"ROIHeads":9254,"Ġdestroy":9255,"Ġdifference":9256,"paren":9257,"unctuation":9258,"ĠQueue":9259,"Ġinitialization":9260,"Ġcoordinate":9261,"!!!!":9262,"difference":9263,"ĠGPUs":9264,"gorithm":9265,"ENCODING":9266,"EXTRACT":9267,"TENSOR":9268,"Bn":9269,"DY":9270,"Func":9271,"Fine":9272,"Hash":9273,"Menu":9274,"ories":9275,"ency":9276,"Ġbrowser":9277,"peated":9278,"Ġren":9279,"Ġ(:":9280,"Ġduration":9281,"ĠTop":9282,"ĠCalled":9283,"para":9284,"ĠFCOS":9285,"Repr":9286,"ĠIRF":9287,"Ġmag":9288,"Ġproperties":9289,"Ġsha":9290,"pires":9291,"Ġcollate":9292,"skipped":9293,"Ġruntime":9294,"Ġless":9295,"SEG":9296,"Ġquoted":9297,"ParserTestCase":9298,"ĠResult":9299,"ĠChannel":9300,"RETRA":9301,"CRIPT":9302,"Ġdirection":9303,"INDIC":9304,"capture":9305,"Ġbitmap":9306,"ĠPYTHON":9307,"Ġgives":9308,"Ġstdscr":9309,"POSITIONAL":9310,"ĠIRFBlock":9311,"199":9312,"?<":9313,"BD":9314,"CUR":9315,"Missing":9316,"fcos":9317,"hic":9318,"rst":9319,"ðŁ":9320,"aturation":9321,"arth":9322,"Ġfs":9323,"lobj":9324,"mazon":9325,"ket":9326,"ĠSIG":9327,"calendar":9328,"oll":9329,"...<":9330,"125":9331,"accu":9332,"sitional":9333,"Ġaccount":9334,"pprint":9335,"Ġface":9336,"creen":9337,"ĠTypeVar":9338,"extended":9339,"MockRawIO":9340,"ĠImageNet":9341,"fspath":9342,"variate":9343,"ĠInputExample":9344,"Ġschema":9345,"ĠAddress":9346,"Ġintegers":9347,"dividual":9348,";\\":9349,"IFI":9350,"PR":9351,"Ptr":9352,"RD":9353,"[\\":9354,"bf":9355,"hw":9356,"zure":9357,"Ġ\"//":9358,"Ġtt":9359,"sired":9360,"(\"(":9361,"rich":9362,"istent":9363,"olds":9364,"prod":9365,"sho":9366,"ube":9367,"Ġparagraph":9368,"Ġsec":9369,"scatter":9370,"Ġcover":9371,"ĠElement":9372,"Ġentity":9373,"APP":9374,">>>":9375,"ifted":9376,"ĠUT":9377,"Types":9378,"usterer":9379,"submit":9380,"Ġcomments":9381,"ĠTestInfo":9382,"Ġperson":9383,"such":9384,"Ġcalcu":9385,"Compute":9386,"Ġmodname":9387,"Ġstacklevel":9388,"Leaky":9389,"shortcut":9390,"PIPELINES":9391,"Ġ\"*\"":9392,"numerator":9393,"Ġdimensions":9394,"Ġinstalled":9395,"ynchronized":9396,"GroupNorm":9397,"ĠValidationResult":9398,"CHANNELS":9399,"Ġblack":9400,"GENER":9401,"RETRAINED":9402,"LeakyReLU":9403,"\"#":9404,"'{":9405,"204":9406,"It":9407,"Print":9408,"RUN":9409,"VERT":9410,"]>(":9411,"camera":9412,"sity":9413,"xaa":9414,"metry":9415,"cepted":9416,"ital":9417,"pem":9418,"__(\"":9419,"testfile":9420,"Ġwri":9421,"Ġwarp":9422,"atibility":9423,"INST":9424,"cach":9425,"ĠBZ":9426,"Ġfileinput":9427,"Ġdicts":9428,"Ġ:].":9429,"ĠEPS":9430,"DENT":9431,"jsonl":9432,"ENCE":9433,"))\"\"\"<":9434,"abcde":9435,"links":9436,"Deep":9437,"FFF":9438,"mantics":9439,"localtime":9440,"ĠPyObject":9441,"matching":9442,"Ġoperand":9443,"Ġfcntl":9444,"Ġcause":9445,"Ġdisk":9446,"bitmap":9447,"Ġwater":9448,"Ġvisit":9449,"ibling":9450,"Methods":9451,"ViT":9452,"Ġpickled":9453,"Ġowner":9454,"SUPPORT":9455,"delitem":9456,"Ab":9457,"echo":9458,"ni":9459,"sr":9460,"vcore":9461,"orer":9462,"Ġtw":9463,"Ġcity":9464,"tick":9465,"divide":9466,"Ġreversed":9467,"testing":9468,"Record":9469,"ĠImple":9470,"Ġ\"<\"":9471,"imgId":9472,"tyle":9473,"Ġtokenization":9474,"indexes":9475,"ModuleType":9476,"Ġactiv":9477,"ĠConvert":9478,"Ġsuccessful":9479,"trailing":9480,"xdc":9481,"detections":9482,"Compiler":9483,"MaskHead":9484,"SCII":9485,"private":9486,"BBAM":9487,"CERTFILE":9488,"StopIteration":9489,"~~~~":9490,"similarity":9491,"\"'<":9492,"225":9493,";\")<":9494,"DLL":9495,"TA":9496,"XT":9497,"kn":9498,"mAP":9499,"mutable":9500,"qs":9501,"xFF":9502,"divisible":9503,"Ġbroken":9504,"Ġov":9505,"pex":9506,"rays":9507,"ckpt":9508,"unregister":9509,"quent":9510,"Ġ[]),<":9511,"ĠCall":9512,"tency":9513,"outfile":9514,"scr":9515,"ĠMax":9516,"ĠEIGHT":9517,"tsdf":9518,"Ġlang":9519,"minus":9520,"validation":9521,"netD":9522,"((-":9523,"expl":9524,"explicit":9525,"Ġpydoc":9526,"VEL":9527,"multiplier":9528,"Ġtmpdir":9529,"Ġscripts":9530,"finalize":9531,"legator":9532,"ĠWeb":9533,"Ġhighlight":9534,"umulative":9535,"Ġflops":9536,"aptiveAvgPool":9537,"Visualizer":9538,"Ġdebugger":9539,"ĠTransformer":9540,"follow":9541,"SAMPL":9542,"GER":9543,"GONE":9544,"Note":9545,"URES":9546,"jection":9547,"nbytes":9548,"ov":9549,"qkv":9550,"reload":9551,"repository":9552,"stit":9553,"leak":9554,"leph":9555,"erd":9556,"Ġcpu":9557,"Ġops":9558,"sively":9559,"Ġ({}":9560,"Ġreturning":9561,"ĠLinear":9562,"ĠCan":9563,"illi":9564,"ĠSIX":9565,"linalg":9566,"ptcloud":9567,"Ġclone":9568,"Ġrv":9569,"Ġvol":9570,"imen":9571,"Ġpygame":9572,"Ġscan":9573,"Ġtemperature":9574,"Ġtransformation":9575,"SELECT":9576,"cret":9577,"cluding":9578,"Ġqk":9579,"queezer":9580,"UNICODE":9581,"structured":9582,"Ġpositions":9583,"ĠStack":9584,"Ġboto":9585,"Ġsyms":9586,"sqlite":9587,"-+-+":9588,"ĠREVERSE":9589,"Ġreplacement":9590,"ĠUnicodeEncodeError":9591,"CORD":9592,"tours":9593,"ĠMetadata":9594,"ĠDescription":9595,"Ġpycocotools":9596,"hicle":9597,"AST":9598,"Part":9599,"Score":9600,"ULE":9601,"crc":9602,"tal":9603,"wed":9604,"Ã¶":9605,"Ġfprint":9606,"router":9607,"Ġincrementalencoder":9608,"Ġmuch":9609,"console":9610,"=\"/":9611,"tobytes":9612,"ĠSame":9613,"ĠSEVEN":9614,"Ġconverter":9615,"Ġdets":9616,"Ġderived":9617,"rypt":9618,"Ġ</":9619,"ORCH":9620,"signals":9621,"ĠGiven":9622,"statement":9623,"scaler":9624,"subtype":9625,"starttag":9626,"interface":9627,"ILD":9628,"ISK":9629,"FFIX":9630,"sidebar":9631,"xcd":9632,"Ġerrmsg":9633,"distutils":9634,"]]]":9635,"grammar":9636,"Ġupsample":9637,"Ġdisplays":9638,"Ġsmaller":9639,"regions":9640,"needs":9641,"EncodeAsIds":9642,"schedules":9643,"Ġdeepcopy":9644,"Infinity":9645,"!\",":9646,"Called":9647,"SHA":9648,"SIM":9649,"When":9650,"]\"<":9651,"dora":9652,"even":9653,"fallback":9654,"ible":9655,"lstrip":9656,"nop":9657,"rl":9658,"xn":9659,"Ġquiet":9660,"rehen":9661,"tit":9662,"Ġsparse":9663,"Ġ(_":9664,"Ġstores":9665,"ĠTix":9666,"isode":9667,"ĠASCII":9668,"Ġham":9669,"ĠDis":9670,"ĠFIVE":9671,"omo":9672,"ĠBIN":9673,"nner":9674,"ĠRING":9675,"denominator":9676,"Ġpossibly":9677,"IPool":9678,"doctype":9679,"ResNeXt":9680,"Ġ96":9681,"truediv":9682,"Leaf":9683,"Multibyte":9684,"MaxPool":9685,"Ġinvoked":9686,"Features":9687,"initializer":9688,"lette":9689,"Ġsheep":9690,"Ġsklearn":9691,"ĠDetection":9692,"Ġxyz":9693,"ĠCharacter":9694,"etinaNet":9695,"Ġforeground":9696,"STATUS":9697,"ĠRETURN":9698,"822":9699,"Bot":9700,"DOLLAR":9701,"FBN":9702,"Min":9703,"PVP":9704,"dx":9705,"dry":9706,"gzip":9707,"junk":9708,"patience":9709,"tfunc":9710,"vgg":9711,"Ġys":9712,"tet":9713,"Ġ\")":9714,"ality":9715,"Ġps":9716,"Ġsoft":9717,"urizer":9718,"Ġes":9719,"unseen":9720,"(\"{}":9721,"atials":9722,"Ġdigest":9723,"[\"__":9724,"ĠAB":9725,"Ġhs":9726,"Ġhapp":9727,"Ġhref":9728,"ĠPatch":9729,"Ġunmap":9730,"ĠOGONE":9731,"LEVEL":9732,"faces":9733,"ĠGenerator":9734,"ĠGROUP":9735,"subwidget":9736,"0000000":9737,"othing":9738,"Ġsubclasses":9739,"][<":9740,"widths":9741,"Ġintersection":9742,"MAGE":9743,"Ġzinfo":9744,"groundtruth":9745,"accumulate":9746,"Bucket":9747,"Ġpackages":9748,"Ġcompleted":9749,"Ġuniform":9750,"Checkpointer":9751,"posixpath":9752,"Closed":9753,"Ġdigit":9754,"jitter":9755,"Weak":9756,"ĠFFFDx":9757,"TEMPL":9758,"Markup":9759,"Ġentire":9760,"Ġsticky":9761,"FBNET":9762,"ĠOGONEK":9763,"*)":9764,"AVE":9765,"GRAM":9766,"LONG":9767,"NULL":9768,"Sync":9769,"amazon":9770,"native":9771,"xde":9772,"xbe":9773,"increment":9774,"studio":9775,"aly":9776,"Ġsync":9777,"ced":9778,"sited":9779,"Ġaggreg":9780,"ellow":9781,"Ġreturncode":9782,"aten":9783,"Ġisn":9784,"Ġdivisible":9785,"caps":9786,"Ġcontrast":9787,"paras":9788,"ips":9789,"ĠNINE":9790,"Ġunknown":9791,"Ġmaxsize":9792,"Ġpathway":9793,"CODE":9794,"Ġrows":9795,"Ġcompiled":9796,"Ġworn":9797,"Ġ70":9798,"characters":9799,"])]<":9800,"IRST":9801,"Ġsuit":9802,"POP":9803,"xae":9804,"xavier":9805,"pooling":9806,"Ġmeaning":9807,":`(":9808,"ĠLog":9809,"bbbb":9810,"Ġpatterns":9811,"Ġbuffering":9812,"Ġvocabulary":9813,"Comment":9814,"rotate":9815,"tracked":9816,"Ġbuttons":9817,"transformers":9818,"Metric":9819,"claration":9820,"Ġdescribed":9821,":**":9822,"AI":9823,"IE":9824,"MM":9825,"Scheduler":9826,"SOURCE":9827,"google":9828,"nchannels":9829,"ply":9830,"vil":9831,"xce":9832,"separ":9833,"onical":9834,"defs":9835,"raisable":9836,"Ġefficient":9837,"uname":9838,"ĠCurrent":9839,"ĠCUDA":9840,"viation":9841,"ĠAuto":9842,"ALLE":9843,"vered":9844,"anner":9845,"Release":9846,"Converter":9847,"ĠOUT":9848,"Ġ5000":9849,"Ġkeywords":9850,"Delete":9851,"Ġcreates":9852,"Entity":9853,"Ġverb":9854,"ioclass":9855,"penalty":9856,"Ġprocessor":9857,"ContentDisposition":9858,"pytorchvideo":9859,"destination":9860,"Ġimported":9861,"Ġhashlib":9862,"WRITE":9863,"Ġindicating":9864,"pooled":9865,"Ġobtain":9866,"Ġincluded":9867,"Ġsnapshot":9868,"ĠTrainer":9869,"settings":9870,"Month":9871,"surrogateescape":9872,"BnAct":9873,"imension":9874,"AW":9875,"DT":9876,"Jar":9877,"OPT":9878,"bell":9879,"dh":9880,"driver":9881,"llegal":9882,"Ã¡":9883,"å®":9884,"ĠINT":9885,"Ġlabeled":9886,"reams":9887,"stick":9888,"chans":9889,"Ġsoftmax":9890,"difficult":9891,"Ġoctave":9892,"(\"*":9893,"(\"//":9894,"(\"::":9895,"Ġdriver":9896,"rescale":9897,"anns":9898,"ICOLON":9899,"again":9900,"Ġcomputing":9901,"created":9902,"OUS":9903,"Ġnote":9904,"1415":9905,"Ġoffsets":9906,"UPLE":9907,"compressor":9908,"responseContentDisposition":9909,"breakpoint":9910,"legacy":9911,"Ġfutures":9912,"Ġvec":9913,"Ġ-----------<":9914,"Detection":9915,"Ġunicodedata":9916,"Ġoccurs":9917,"interpreter":9918,"THRESHOLD":9919,"Price":9920,"Ġmiddle":9921,"Ġtsdf":9922,"ĠSOFT":9923,"DEPTH":9924,"abilities":9925,"ĠSEMICOLON":9926,"bcebos":9927,"180":9928,"Auto":9929,"BAD":9930,"BYT":9931,"RY":9932,"WIND":9933,"gus":9934,"guess":9935,"horizontal":9936,"references":9937,"argest":9938,"Ġssim":9939,"Ġrelated":9940,"Ġrearrange":9941,"admin":9942,"ĠSp":9943,"Ġascii":9944,"exce":9945,"Ġdeepspeed":9946,"outines":9947,"Ġ34":9948,"ĠĠĠĠĠĠĠĠĠĠĠĠĠĠĠĠĠĠĠĠĠĠĠĠĠĠĠĠĠĠĠĠĠĠ":9949,"Ġoutside":9950,"ĠBit":9951,"ĠBatch":9952,"Ġunexpected":9953,"backslash":9954,"ignored":9955,"interpolation":9956,"ADER":9957,"utex":9958,"Search":9959,"loaders":9960,"dists":9961,"ĠStandard":9962,"finder":9963,"ĠBaseModel":9964,"Ġactually":9965,"divmod":9966,"bufsize":9967,"Ġlonger":9968,"ĠBertConfig":9969,"Ġgoto":9970,"48364":9971,"ĠMethod":9972,"ĠHTTPException":9973,"Generate":9974,"SUFFIX":9975,"Does":9976,"John":9977,"Ġrandrange":9978,"xxxxxxxx":9979,"rpm":9980,"Ġ\"@\"":9981,"Fixer":9982,"Ġdebugging":9983,"ĠOverflowError":9984,"ãĢĤ":9985,"getsockname":9986,"Delta":9987,"PERSAND":9988,"WINDOW":9989,"%(":9990,"Cycle":9991,"PK":9992,"Sibling":9993,"dan":9994,"fan":9995,"hin":9996,"imap":9997,"mc":9998,"mmt":9999,"motor":10000,"xz":10001,"Ġ):":10002,"ordered":10003,"decomp":10004,"devices":10005,"asctime":10006,"Ġmicro":10007,"Ġeffect":10008,"__\"<":10009,"(\"$":10010,"setLevel":10011,"EqualSign":10012,"opa":10013,"ĠLIG":10014,"assertEqualAnd":10015,"resnext":10016,"ĠCOLON":10017,"Ġdivide":10018,"mentations":10019,"ĠAE":10020,"()])<":10021,"progress":10022,"shorten":10023,"TERISK":10024,"Ġ33":10025,"0100":10026,"Include":10027,"Ġprints":10028,"ĠHy":10029,"usually":10030,"Standard":10031,"ĠResidual":10032,"intersect":10033,"Exist":10034,"mdb":10035,"Ġjitter":10036,"Ġaddition":10037,"Ġfaulthandler":10038,"username":10039,"tuples":10040,"plex":10041,"Ġprocessing":10042,"Ġtell":10043,"Ġpatcher":10044,"ĠKeyboard":10045,"ĠParameter":10046,"Points":10047,"fidences":10048,"ATEG":10049,"Ġassume":10050,"Ġ\"+\"":10051,"Ġprior":10052,"WRIT":10053,"NEW":10054,"WorkspaceService":10055,"iscrowd":10056,"ĠROI":10057,"constraint":10058,"Relative":10059,"Ġseveral":10060,"ĠPERCENT":10061,"ĠLIGATURE":10062,"assertEqualAndEqualSign":10063,"\"*":10064,")?":10065,"CUDA":10066,"DensePose":10067,"NCH":10068,"}`":10069,"Ġæ":10070,"Ġvideos":10071,"instr":10072,"atmaps":10073,"always":10074,"arc":10075,"Ġfuse":10076,"Ġpseudo":10077,"Ġsimp":10078,"services":10079,"radd":10080,"__[":10081,"getaddrinfo":10082,"thn":10083,"ulation":10084,"ulator":10085,"Ġ'__":10086,"=\"#":10087,"=\"{":10088,"ĠSingle":10089,"Ġ29":10090,"ĠIter":10091,"Ġresolved":10092,"Ġ(\"_":10093,"Ġklass":10094,"DEV":10095,"temperature":10096,"ĠHash":10097,"gtFine":10098,"STATE":10099,"Ġ[\"\",":10100,"221":10101,"Ġweb":10102,"Ġcomponent":10103,"FileName":10104,"Ġ72":10105,"ookup":10106,"Ġrandomly":10107,"longlong":10108,"2002":10109,"genet":10110,"Ġgrammar":10111,"AAA":10112,"Ġhandles":10113,"ĠINPUT":10114,"EPS":10115,"numeric":10116,"directed":10117,"UserDict":10118,"writable":10119,"Ġresized":10120,"Something":10121,"Ġstaticmethod":10122,"ELLIPSIS":10123,"ĠDepends":10124,"eye":10125,"Ġclause":10126,"ĠASTERISK":10127,"ĠKeyboardInterrupt":10128,"=(<":10129,"Browser":10130,"Clip":10131,"CAN":10132,"CLO":10133,"IES":10134,"One":10135,"](<":10136,"bat":10137,"fed":10138,"fresh":10139,"public":10140,"zation":10141,"äº":10142,"Ġident":10143,"Ġfetch":10144,"Ġfvcore":10145,"peg":10146,"Ġdh":10147,"umsum":10148,"Ġ\"\"))<":10149,"Ġdivisor":10150,"aps":10151,"shadow":10152,"ĠBE":10153,"Ġresume":10154,"timeWarning":10155,"ableTest":10156,"oute":10157,"Ġld":10158,"regrtest":10159,"inese":10160,"login":10161,"ĠmaxDets":10162,"grouping":10163,"ĠerrorTab":10164,"prefixlen":10165,"QUESTION":10166,"factors":10167,"ĠZIP":10168,"Ġbinding":10169,"implementation":10170,"Ġfollows":10171,"helplist":10172,"dataroot":10173,"Callback":10174,"aligned":10175,"(\\)":10176,"Ġ\"\\\\\"":10177,"ĠNEW":10178,"Ġspawn":10179,"ierarch":10180,"rewall":10181,"BatchSampler":10182,"14748364":10183,"ĠPATH":10184,"SCALE":10185,"ielded":10186,"ĠIdentity":10187,"dantic":10188,">=":10189,"BF":10190,"SPE":10191,"lnet":10192,"nframes":10193,"papers":10194,"xad":10195,"xfe":10196,"xmin":10197,"ðĿ":10198,"Ġterm":10199,"sequent":10200,"Ġcid":10201,"Ġpow":10202,"Ġsynchron":10203,"Ġindividual":10204,"unds":10205,"unexpected":10206,"testfunc":10207,"Ġ-(":10208,"visibility":10209,"tend":10210,"ĠFix":10211,"ĠFAIL":10212,"Ġ45":10213,"calculate":10214,"Ġmaxlen":10215,"Ġcursor":10216,"Ġcomponents":10217,"packed":10218,"Ġloads":10219,"Ġoverflow":10220,"pendent":10221,"ENTITY":10222,"Ġfinish":10223,"changes":10224,"MSCOCO":10225,"ĠINITIAL":10226,"alizedRCNN":10227,"Trainer":10228,"Ġrotated":10229,"ĠFeature":10230,"Ġ12345":10231,"Ġeditwin":10232,"ĠAsyncMock":10233,"GoogleMap":10234,"Prediction":10235,"Ġproperly":10236,"converters":10237,"assertNotIsInstance":10238,"Ġmarshal":10239,"ĠAMPERSAND":10240,"ðĿĶ":10241,":{":10242,"Fred":10243,"Pie":10244,"Wh":10245,"ZA":10246,"fine":10247,"ia":10248,"jis":10249,"Ġ\"`":10250,"asing":10251,"Ġtran":10252,"Ġpur":10253,"Ġnc":10254,"Ġinherit":10255,"unraisable":10256,"ulder":10257,"Ġ'|":10258,"uman":10259,"Ġgpus":10260,"Ġgreater":10261,"ĠSize":10262,"ĠScale":10263,"ĠAPOST":10264,"ĠDI":10265,"ĠDOLLAR":10266,"ĠDimension":10267,"ĠFuture":10268,"0101":10269,"ossible":10270,"REF":10271,"checkParam":10272,"grade":10273,"sublayer":10274,"submodule":10275,"160":10276,"expat":10277,"ANY":10278,"Ġtemporary":10279,"Ġjump":10280,"Ġleading":10281,"SEM":10282,"subject":10283,"xeb":10284,"Ġ\"_\"<":10285,"xbc":10286,"forever":10287,"bottle":10288,"Short":10289,"Ġformatting":10290,"recvmsg":10291,"Ġexitcode":10292,"Ġ\"#\"":10293,"ĠExamples":10294,"pixels":10295,"Ġsmtplib":10296,"EEE":10297,"Ġoptimize":10298,"geometric":10299,"calcsize":10300,"ĠEOFError":10301,"ĠEQUALS":10302,"ENABLED":10303,"Ġfreeze":10304,"ROPHE":10305,"CACHE":10306,"ĠAPOSTROPHE":10307,"({}":10308,">{":10309,"Find":10310,"NCE":10311,"Tra":10312,"gf":10313,"gif":10314,"vour":10315,"rece":10316,"reet":10317,"remission":10318,"another":10319,"Ġfps":10320,"Ġcancel":10321,"tie":10322,"Ġpast":10323,"Ġinstr":10324,"itr":10325,"Ġbisect":10326,"pep":10327,"lik":10328,"uest":10329,"launcher":10330,"Ġapex":10331,"(\":":10332,"Ġiso":10333,"ĠTclError":10334,"ĠCookie":10335,"Ġgood":10336,"())[":10337,"ONES":10338,"gnitude":10339,"ĠEQ":10340,"ĠOPTIONS":10341,"Ġimmediate":10342,"icity":10343,"Typed":10344,"ĠVis":10345,"ĠHow":10346,"ĠHAM":10347,"wake":10348,"waited":10349,"0002":10350,"Ġlater":10351,"intersection":10352,"Ġbasename":10353,"OTA":10354,"nsure":10355,"ĠXP":10356,"Ġgeneric":10357,"Ġstages":10358,"Ġimplements":10359,"Interface":10360,"hyp":10361,"IFY":10362,"ĠDensePoseData":10363,"Ġ\"|\"":10364,"variant":10365,"invoke":10366,"PatternError":10367,"integral":10368,"Ġmagic":10369,"Ġcalculated":10370,")[-":10371,":],<":10372,"DOWN":10373,"FR":10374,"FOUND":10375,"JP":10376,"LT":10377,"Screen":10378,"Whether":10379,"affili":10380,"holder":10381,"rr":10382,"vstack":10383,"}_":10384,"insum":10385,"Ġfew":10386,"Ġfood":10387,"Ġfrag":10388,"ges":10389,"Ġnull":10390,"Ġbrightness":10391,"Ġwarn":10392,"Ġamp":10393,"getopt":10394,"Ġtol":10395,"ĠCL":10396,"ĠSu":10397,"etune":10398,"ĠALL":10399,"presen":10400,"ages":10401,"ector":10402,"Ġrle":10403,"apple":10404,"ĠPi":10405,"Ġyet":10406,"Ġshifted":10407,"**-":10408,"checkPatternError":10409,"inetics":10410,"Ġcomputation":10411,"AMMA":10412,"FFER":10413,"\\\\\\\\":10414,"Dictionary":10415,"CTX":10416,"Ġpertur":10417,"Ġlayernorm":10418,"Ġoverrid":10419,"Ġ\",\"":10420,"Loading":10421,"ĠAttributes":10422,"4444":10423,"Ġ'\"__":10424,"KEYWORD":10425,"WORLD":10426,"generic":10427,"microseconds":10428,"ĠLearning":10429,"ĠDATAS":10430,"bytecodec":10431,"NNTP":10432,"Ġfloor":10433,"huge":10434,"####":10435,"educe":10436,"1234567890":10437,"CONTENT":10438,"ancelledError":10439,"DistributedDataParallel":10440,"PARALLE":10441,"coordinate":10442,"WRITABLE":10443,"thnicity":10444,"PARALLEL":10445,"'][":10446,")`":10447,"=\"<":10448,"FUT":10449,"[,":10450,"boo":10451,"cand":10452,"hints":10453,"ified":10454,"aring":10455,"odulated":10456,"intain":10457,"isy":10458,"linux":10459,"fromarray":10460,"ĠAR":10461,"aby":10462,"parsed":10463,"***":10464,"Ġlon":10465,"Ġopener":10466,"boat":10467,"0003":10468,"subset":10469,"subdir":10470,"computer":10471,"Ġlinesep":10472,"Ġspatials":10473,"Ġlogic":10474,"rown":10475,"lru":10476,"Ġ\"%\"":10477,"scriptors":10478,"merMonth":10479,"Ġclosure":10480,"(?:":10481,"tzname":10482,"Ġvisible":10483,"Trained":10484,"Ġdbm":10485,"ĠNameError":10486,"Ġcreation":10487,"00000000000000000000000000000000":10488,"different":10489,"ĠResourceType":10490,"Ġdivm":10491,"Ġtypically":10492,"FEATURE":10493,"Ġclips":10494,"TEMP":10495,"Ġremaining":10496,"Ġdepends":10497,"inheritable":10498,"Ġsuccesses":10499,"Ġincrementaldecoder":10500,"GENERATOR":10501,"Ġsuitable":10502,"Piece":10503,"Binary":10504,"Email":10505,"HAS":10506,"IOU":10507,"MC":10508,"Please":10509,"Using":10510,"hm":10511,"pce":10512,"Ġ><":10513,"demo":10514,"related":10515,"dish":10516,"Ġbench":10517,"Ġdeformable":10518,"unsupported":10519,"Ġwm":10520,"Ġ[\".":10521,"made":10522,"Ġ'{":10523,"classification":10524,"Ġ\"\"),":10525,"Equals":10526,"conversion":10527,"=\"+":10528,"spin":10529,"Ġxs":10530,"Report":10531,"ĠPool":10532,"tape":10533,"015":10534,"ĠUsed":10535,"columns":10536,"ĠGra":10537,"ĠGMT":10538,"102":10539,"comparison":10540,"Ġallo":10541,"phi":10542,"ava":10543,"Ġconven":10544,"Semaphore":10545,"ĠExtension":10546,"supports":10547,"thrs":10548,"makefile":10549,"Ġwidths":10550,"Ġmultiscale":10551,"CHAR":10552,"EXIT":10553,"ighb":10554,"Ġevaluated":10555,"predicted":10556,"(\"/\")<":10557,"median":10558,"9496":10559,"priority":10560,"ĠBertFor":10561,"rinted":10562,"SIGINT":10563,"Ġhandling":10564,"ĠCOMMER":10565,"ĠNormalDist":10566,"smoothing":10567,"2222222222222222":10568,"ĠOutputs":10569,"ĠUpdate":10570,"Ġrules":10571,"Importer":10572,"ditorWindow":10573,"uestion":10574,"FUTURE":10575,"ĠCOMMERCIAL":10576,";\"":10577,"AE":10578,"AH":10579,"BIT":10580,"Obj":10581,"Patch":10582,"TXT":10583,"hit":10584,"hint":10585,"ialized":10586,"lzma":10587,"ration":10588,"sampwidth":10589,"tre":10590,"xfa":10591,"Ġask":10592,"Ġ\">\"":10593,"leave":10594,"Ġfit":10595,"Ġrecv":10596,"Ġretrie":10597,"Ġ00":10598,"Ġmis":10599,"Ġeggs":10600,"ametri":10601,"rics":10602,"Ġduplicate":10603,"ĠLine":10604,"ĠSAX":10605,"caped":10606,"Ġcontinuation":10607,"Ġ{:":10608,"shards":10609,"Rep":10610,"ipaddress":10611,"Ġprop":10612,"Init":10613,"ĠMIS":10614,"Ġ:],":10615,"Ġener":10616,"indptr":10617,"LEN":10618,"synchron":10619,"ĠGround":10620,"ĠGCN":10621,"Ġbuffers":10622,"writelines":10623,"Ġareas":10624,"ĠRead":10625,"phrase":10626,"ANG":10627,"Ġreadable":10628,"xea":10629,"Ġvertices":10630,"Ġ\\\"'":10631,"mputes":10632,"Shift":10633,"Ġ\"{\"":10634,"containers":10635,"SSLv":10636,"EXTEN":10637,"ĠPerson":10638,"fastapi":10639,"capit":10640,"sdk":10641,"ĠAlso":10642,"Author":10643,"Ġ\";\"":10644,"ynchronizedBatchNorm":10645,"amazonaws":10646,"ametrize":10647,");<":10648,"Bin":10649,"Grid":10650,"Mutable":10651,"Self":10652,"TARGET":10653,"_[":10654,"bio":10655,"eb":10656,"iver":10657,"uous":10658,"meters":10659,"Ġfr":10660,"Ġctype":10661,"Ġcore":10662,"dimen":10663,"Ġ[\"<":10664,"odo":10665,"attrib":10666,").\\":10667,"Ġproble":10668,"Ġproduct":10669,"ĠMS":10670,"gnore":10671,"weather":10672,"LENG":10673,"Ġln":10674,"backup":10675,"psample":10676,"shaped":10677,"zipFile":10678,"Ġmethodname":10679,"Select":10680,"Ġruns":10681,"execution":10682,"IMAP":10683,"Ġanything":10684,"={<":10685,"passwd":10686,"StreamHandler":10687,"Ġfileno":10688,"finalized":10689,"longest":10690,"nowait":10691,"ECTION":10692,"Ġreplaced":10693,"MEAN":10694,"Ġconstants":10695,"StageDetector":10696,"Ġ\"?\"":10697,"Ġ\"$\"":10698,"Ġscalar":10699,"Ġslowfast":10700,"ĠTemporary":10701,"XYWHBBoxCoder":10702,"!\",<":10703,":].":10704,"=\",<":10705,"First":10706,"Ld":10707,"MAN":10708,"]\"),<":10709,"gcs":10710,"pm":10711,"tw":10712,"wan":10713,"wsgi":10714,"}}<":10715,"Ġ\"]\"":10716,"alarm":10717,"Ġftp":10718,"lots":10719,"literals":10720,"Ġaffine":10721,"fic":10722,"Ġ'/":10723,"ĠClo":10724,"parametrize":10725,"Ġrather":10726,"Testing":10727,"ĠEvent":10728,"Ġengine":10729,"Ġ`{":10730,"STAGE":10731,"levelname":10732,"ustar":10733,"Ġpyc":10734,"extracted":10735,"Ġrespon":10736,"tively":10737,"tmpname":10738,"medium":10739,"Ġtracer":10740,"IXEL":10741,"relpath":10742,"ĠINVERT":10743,"texit":10744,"Ġvirtual":10745,"((\"\",":10746,"Ġdisplayed":10747,"Ġassumed":10748,"azy":10749,"cells":10750,"Ġhandled":10751,"DOM":10752,"directional":10753,"ĠTRAIN":10754,"TreeItem":10755,"ĠCommandToken":10756,"ĠSUBST":10757,"WEIGHTS":10758,"rmdir":10759,"between":10760,"remainder":10761,"wakeup":10762,"ĠMISSING":10763,"ĠINVERTED":10764,"203":10765,"Cost":10766,"Earth":10767,"GREE":10768,"JSON":10769,"Usage":10770,"\\(\\)":10771,"don":10772,"ema":10773,"ttk":10774,"xec":10775,"xattr":10776,"ĶĲ":10777,"inet":10778,"Ġfds":10779,"Ġcen":10780,"Ġcent":10781,"roc":10782,"Ġpce":10783,"serialize":10784,"Ġatexit":10785,"getint":10786,"Ġtheta":10787,"sslobj":10788,"Ġ\"\")":10789,"opcode":10790,"ĠCH":10791,"islink":10792,"Ġlogs":10793,"ĠALE":10794,"ĠForm":10795,"produ":10796,"proactor":10797,"ĠBN":10798,"TestMixin":10799,"0102":10800,"InlineKeyboard":10801,"ĠMatcher":10802,"ĠEnt":10803,"quested":10804,"DED":10805,"reated":10806,"STEM":10807,"comptype":10808,"111":10809,"FileIO":10810,"Unix":10811,"Ġendnote":10812,"])[":10813,"Ġglobs":10814,"Ġsigned":10815,"xfb":10816,"ContextManager":10817,"\"][<":10818,"123456":10819,"ĠBaseException":10820,"Ġrefer":10821,"TextLogger":10822,"folders":10823,"ĠFiles":10824,"ĠShould":10825,"Ġdenominator":10826,"blake":10827,"Pipes":10828,"ĠDEGREE":10829,"VISION":10830,"XMLRPC":10831,"Ġsmtpd":10832,"ĠBuild":10833,"ĠGeneric":10834,"BINARY":10835,"Ġfrequency":10836,"caches":10837,"ĠALEF":10838,"TextLoggerHook":10839,"*<":10840,"CfgNode":10841,"DINAL":10842,"MIC":10843,"Mail":10844,"Neg":10845,"PIXEL":10846,"Wor":10847,"aware":10848,"cup":10849,"ras":10850,"ymin":10851,"dead":10852,"arily":10853,"metic":10854,"ermin":10855,"Ġcau":10856,"roberta":10857,"Ġbpe":10858,"Ġ180":10859,"Ġ[_":10860,"ulld":10861,"settimeout":10862,"construct":10863,"ctionaries":10864,"Ġcont":10865,"spacing":10866,"Ġxx":10867,"ĠIterable":10868,"Ġorg":10869,"ippet":10870,"ĠMSG":10871,"ĠNaN":10872,"[::":10873,"ĠOp":10874,"ircle":10875,"ĠRot":10876,"withdraw":10877,"ĠHR":10878,"cial":10879,"baseball":10880,"ILINE":10881,"Ġcompatibility":10882,"Ġexponent":10883,"anging":10884,"POINTER":10885,"Sets":10886,"Ġexecute":10887,"guid":10888,"BUFFER":10889,"Ġlisten":10890,"Scaler":10891,"XXXX":10892,"WorkspaceRepository":10893,"RoIHead":10894,"mitit":10895,"Ġtaken":10896,"Ġterminal":10897,"Ġterminate":10898,"Support":10899,"Ġ\"^\"":10900,"FEATURES":10901,"delimiter":10902,"GoogleEarth":10903,"zzzzzzzzzzzzzzzz":10904,"Package":10905,"ĠâĢľ":10906,"Locator":10907,"GATIVE":10908,"5670123456701234":10909,"ĠMetadataCatalog":10910,"DeltaXYWHBBoxCoder":10911,"232":10912,"DIM":10913,"Flags":10914,"HALF":10915,"RS":10916,"WITH":10917,"bracket":10918,"em":10919,"garbage":10920,"nav":10921,"wheel":10922,"Ġlim":10923,"orange":10924,"derer":10925,"lected":10926,"Ġcancelled":10927,"Ġsleep":10928,"Ġrecords":10929,"ractions":10930,"fixture":10931,"(\"=":10932,"Ġforget":10933,"cont":10934,"ithmetic":10935,"ĠCF":10936,"rance":10937,"paragraph":10938,"estart":10939,"strs":10940,"Ġdataclasses":10941,"ITUTE":10942,"ĠMIN":10943,"Ġlit":10944,"Ġpassing":10945,"normcase":10946,"ĠVOC":10947,"collate":10948,"ARTER":10949,"Ġwebsocket":10950,"ĠInception":10951,"Ġcompatible":10952,"DeformConv":10953,"ACCESS":10954,"npz":10955,"LOAT":10956,"Ġjj":10957,"white":10958,"TOM":10959,"Ġ\"/\")<":10960,"hashlib":10961,"ĠDeep":10962,"authors":10963,"EMPTY":10964,"Tokens":10965,"ĠQUARTER":10966,"Ġarchitecture":10967,"Translate":10968,"projection":10969,"Ġ\"'\"":10970,"InputExample":10971,"BertModel":10972,"Double":10973,"Identity":10974,"Ġ\"&\"":10975,"Ġminibatch":10976,"Ġparticular":10977,"iki":10978,"ĠSUBSTITUTE":10979,"Cre":10980,"DIC":10981,"EA":10982,"Gateway":10983,"Ig":10984,"MEM":10985,"POL":10986,"Right":10987,"WIF":10988,"]]:<":10989,"aff":10990,"duplicate":10991,"uals":10992,"alloc":10993,"Ġfusion":10994,"Ġclock":10995,"Ġplayer":10996,"Ġmmap":10997,"Ġedi":10998,"adam":10999,"licies":11000,"idb":11001,"ntp":11002,"threaded":11003,"Ġdidn":11004,"ational":11005,"Ġgw":11006,"ĠSign":11007,"ĠSCRE":11008,"cake":11009,"fromhex":11010,"Ġdependen":11011,"ĠFunc":11012,"ĠFINAL":11013,"prototype":11014,"pydoc":11015,"amfer":11016,"Ġuint":11017,"ĠPI":11018,"Ġ%.":11019,"Ġmakes":11020,"Ġprece":11021,"ĠMin":11022,"checkraises":11023,"Ġlno":11024,"251":11025,"252":11026,"253":11027,"replic":11028,"corner":11029,"=[],":11030,"STO":11031,"045":11032,"views":11033,"))])<":11034,"openssl":11035,"izations":11036,"Ġtempdir":11037,"IOError":11038,"Uni":11039,"completions":11040,"multiscale":11041,"ĠAnchor":11042,"HOP":11043,"cosx":11044,"767":11045,"Ġidentify":11046,"resized":11047,"Ġwritable":11048,"Outputs":11049,"cfws":11050,"modify":11051,"Ġreduced":11052,"Starting":11053,"activate":11054,"square":11055,"ĠSHORT":11056,"Ġ\"!\"":11057,"deployment":11058,"relationship":11059,"Ġdays":11060,"ResourceTemplateRepository":11061,"opaque":11062,"NCHRON":11063,"ĠSCREEN":11064,"replicas":11065,">',<":11066,"Day":11067,"GPU":11068,"IRED":11069,"Mixed":11070,"Pe":11071,"Total":11072,"dash":11073,"ea":11074,"elapsed":11075,"gent":11076,"llite":11077,"è¯":11078,"asure":11079,"Ġce":11080,"chown":11081,"Ġinception":11082,"sical":11083,"testr":11084,"queries":11085,"atellite":11086,"ĠLazy":11087,"ĠCa":11088,"ĠCON":11089,"ils":11090,"filepath":11091,"ĠAdaAtt":11092,"Ġdetail":11093,"ĠMake":11094,"Ġkv":11095,"netG":11096,"newaxis":11097,"Ġconfigparser":11098,"Ġopened":11099,"ometry":11100,"itemsize":11101,"Unable":11102,"Ġadmin":11103,"])),":11104,"HEIGHT":11105,"modulated":11106,"xcf":11107,"xba":11108,"seeds":11109,"EXIST":11110,"Ġlocalcontext":11111,"Subprocess":11112,"implicit":11113,"Ġcaps":11114,"ĠREG":11115,"ĠRECORD":11116,"identifier":11117,"ĠUnicodeDecodeError":11118,"Ġspecifying":11119,"blacklist":11120,"Ġhistory":11121,"recursionlimit":11122,"Counter":11123,"Calculate":11124,"COUNT":11125,"plexity":11126,"NCHRONOUS":11127,"$\",<":11128,"/.":11129,"386":11130,"480":11131,">&":11132,"?\"<":11133,"Ops":11134,"VIDE":11135,"crowd":11136,"imag":11137,"pub":11138,"Ãł":11139,"å¤":11140,"orn":11141,"urther":11142,"__)":11143,"later":11144,"(\"\".":11145,"getpid":11146,"Ġ[{":11147,"setlocale":11148,"Ġgap":11149,"Ġconcaten":11150,"():\\":11151,"Ġhome":11152,"Ġdetermine":11153,"endpoint":11154,"linelen":11155,"Ġrtn":11156,"ĠĠĠĠĠĠĠĠĠĠĠĠĠĠĠĠĠĠĠĠĠĠĠĠĠĠĠĠ":11157,"ĠBB":11158,"take":11159,"Ġenough":11160,"Ġvs":11161,"Ġvil":11162,"([(":11163,"waiters":11164,"229":11165,"Datagram":11166,"Ġsubtype":11167,"ĠInitialize":11168,"docstrings":11169,"oking":11170,"NotExist":11171,"Unsupported":11172,"Ġadap":11173,"fcn":11174,"Ġqa":11175,"ĠseqLogprobs":11176,"Chain":11177,"PROG":11178,"Prefix":11179,"COLOR":11180,"ruption":11181,"ParallelLinear":11182,"ABCMeta":11183,"ĠMemory":11184,"Ġmarker":11185,"english":11186,"Cats":11187,"modified":11188,"ARCHIVE":11189,"logsoftmax":11190,"NamedTemporaryFile":11191,">`_":11192,"assertLessEqual":11193,"---+---+---+---+":11194,"150":11195,"210":11196,"401":11197,"403":11198,">\"\"\",<":11199,"?\\":11200,"After":11201,"Flag":11202,"IV":11203,"IMAGE":11204,"QA":11205,"Writ":11206,"bpe":11207,"bare":11208,"ire":11209,"mst":11210,"ä½":11211,"recalls":11212,"Ġinject":11213,"ram":11214,"Ġmtime":11215,"Ġmsvc":11216,"unsafe":11217,"quip":11218,"rical":11219,"Ġ'-":11220,"=\"\"\"":11221,"Ġ2000":11222,"olver":11223,"Ġ{{{":11224,"ĠBinary":11225,"Raising":11226,"Ġgettext":11227,"ĠMPC":11228,"Ġcoverage":11229,"Conn":11230,"ators":11231,"Ġ\"<%":11232,"Ġlc":11233,"convex":11234,"ĠGCS":11235,"alleli":11236,"Ġlauncher":11237,"Ġaltern":11238,"itertools":11239,"eft":11240,"FileLoader":11241,"pping":11242,"Ġpydantic":11243,"ggingface":11244,"ABS":11245,"ĠExec":11246,"modname":11247,"tracer":11248,"POCH":11249,"pename":11250,"Ġitemsize":11251,"aive":11252,"Ġadjust":11253,"ĠStatus":11254,"Ġarc":11255,"Ġstreamreader":11256,"Ġinfos":11257,"constants":11258,"showwarning":11259,"Ġtrim":11260,"rotation":11261,"CREATE":11262,"combo":11263,"={}):<":11264,"variables":11265,"ĠBasicBlock":11266,"ĠValidationError":11267,"ĠLOAD":11268,"interest":11269,"Ġ'{}'\".":11270,"ADDR":11271,"abcdefghijk":11272,"BACKBONE":11273,"ĠDELETE":11274,"ĠABSTFN":11275,"presented":11276,"']<":11277,"+)\\":11278,".)<":11279,"CASE":11280,"Final":11281,"Full":11282,"Gen":11283,"GCC":11284,"Im":11285,"SW":11286,"aiter":11287,"hdr":11288,"mutex":11289,"obe":11290,"rindex":11291,"rpartition":11292,"Ġserv":11293,"Ġ\")\"":11294,"Ġfresh":11295,"Ġfold":11296,"hest":11297,"(\"@":11298,"ĠLVIS":11299,"ĠLINK":11300,"Ġdid":11301,"Ġ35":11302,"ĠBAR":11303,"ĠEmbed":11304,"maxlen":11305,"\")]":11306,"ĠOne":11307,"Ġsuppress":11308,"RAND":11309,"Ġlb":11310,"Ġlvis":11311,"Ġlbl":11312,"040":11313,"2231":11314,"Ġsubdir":11315,"framerate":11316,"rategy":11317,"ĠConnection":11318,"crease":11319,"bones":11320,"Ġwhence":11321,"``.":11322,"xcb":11323,"xaf":11324,"Ġfinished":11325,"tagged":11326,"EXCE":11327,"metavar":11328,"Ġstreamwriter":11329,"cccc":11330,"TRANS":11331,"devnull":11332,"Ġtraj":11333,"Ġtriple":11334,"ĠINDIC":11335,"Timer":11336,"ĠUNIT":11337,"ĠNamed":11338,"ĠComment":11339,"variance":11340,"floordiv":11341,"Ġoptimization":11342,"RIB":11343,"RIAGE":11344,"eledVideo":11345,"hoto":11346,"ĠBuffered":11347,"imagenet":11348,"ĠCARRIAGE":11349,"ĠDocTest":11350,"ĠNEGATIVE":11351,"Ġ([],":11352,"ĠORDINAL":11353,"trajs":11354,"Ġagainst":11355,"ĠHelp":11356,"ï¼Ł\",":11357,"PECTED":11358,"ĠBACKSPACE":11359,"ĠVersion":11360,"DESCRIPT":11361,"Ġproduces":11362,"ĠBININT":11363,"LENGTH":11364,"ĠINDICATOR":11365,"(...":11366,")[:,":11367,"Audio":11368,"MAC":11369,"Softmax":11370,"Work":11371,"][:":11372,"margin":11373,"ndiff":11374,"sat":11375,"xdd":11376,"æľ":11377,"Ġul":11378,"ĠRaise":11379,"research":11380,"Ġ\"}\"":11381,"Ġngpus":11382,"diag":11383,"Ġbel":11384,"Ġreuse":11385,"Ġmouse":11386,"__}":11387,"fid":11388,"getattribute":11389,"nameless":11390,"Ġgu":11391,"ĠSw":11392,"()\"\"\"<":11393,"Ġhr":11394,"Ġdesired":11395,"ĠBELL":11396,"Ġprep":11397,"ocus":11398,"DEC":11399,"lert":11400,"commit":11401,"minutes":11402,"cornner":11403,"ROOT":11404,"Ġtrained":11405,"Ġalgorithm":11406,")))":11407,"Ġminutes":11408,"catalog":11409,"thetype":11410,"traced":11411,"patcher":11412,"QUIR":11413,"xcc":11414,"filt":11415,"ĠOptions":11416,"Ġsegments":11417,"ddp":11418,"Change":11419,"questions":11420,"(\".\")[":11421,"000104":11422,"Ġrefs":11423,"graphy":11424,"handled":11425,"periments":11426,"azure":11427,"namedtuple":11428,"ĠNormalization":11429,"MODULE":11430,"ĠClassVar":11431,"(\",\")<":11432,"writestr":11433,"Ġbsz":11434,"Library":11435,"ĠENQUIR":11436,"Bytecode":11437,"Attrs":11438,"ĠHEADING":11439,"ĠSYNCHRONOUS":11440,"crollbar":11441,"ĠContainerInstance":11442,"SAMPLING":11443,"omography":11444,"ĠDIVISION":11445,"dimension":11446,"ĠENQUIRY":11447,"\"},":11448,">'<":11449,"Ap":11450,"BY":11451,"CES":11452,"EK":11453,"LIMIT":11454,"Msg":11455,"PRED":11456,"Stem":11457,"eod":11458,"elif":11459,"ii":11460,"kf":11461,"nce":11462,"ssize":11463,"uses":11464,"xmax":11465,"ymax":11466,"dependent":11467,"stand":11468,"Ġ\"::":11469,"Ġflow":11470,"Ġsla":11471,"Ġrenamed":11472,"Ġ()":11473,"Ġelapsed":11474,"adaptive":11475,"ully":11476,"ĠCPU":11477,"isinf":11478,"preview":11479,"prefer":11480,"ĠIMAGES":11481,"Ġprecisions":11482,"Ġgetcontext":11483,"Ġ::<":11484,"wear":11485,"Ġcho":11486,"Ġ\"</":11487,"acency":11488,"ROM":11489,"))],<":11490,"framework":11491,"345":11492,"Ġmultipart":11493,"xee":11494,"Ġmapped":11495,"Ġ429496":11496,"exitcode":11497,"Ġmaybe":11498,"parents":11499,"finish":11500,"Temporal":11501,"disassemb":11502,"Ġvisited":11503,"RCNNConv":11504,"ickness":11505,"grey":11506,"Space":11507,"drone":11508,"overrides":11509,"SPICE":11510,"RANK":11511,"Ġseparated":11512,"pothe":11513,"ĠSUBSTR":11514,"Constructs":11515,"fragment":11516,"SystemExit":11517,"ĠQuery":11518,"IFIED":11519,"Ġimmediately":11520,"212":11521,"Be":11522,"BOUND":11523,"CancelledError":11524,"DLE":11525,"Emax":11526,"HWA":11527,"MON":11528,"Pix":11529,"PEND":11530,"Save":11531,"Trace":11532,"VPC":11533,"ZX":11534,"dts":11535,"flappy":11536,"gcc":11537,"jpeg":11538,"mouse":11539,"qrst":11540,"sof":11541,"salt":11542,"|{":11543,"seline":11544,"aliases":11545,"Ġtreated":11546,"Ġcte":11547,"Ġplistlib":11548,"Ġnl":11549,"Ġbp":11550,"Ġrec":11551,"Ġmbc":11552,"Ġmorsel":11553,"unquote":11554,"intr":11555,"ĠTcl":11556,"iscoroutine":11557,"ĠSocket":11558,"ighest":11559,"linic":11560,"ĠAnd":11561,"().\"\"\"<":11562,"Ġdegree":11563,"Ġdegrees":11564,"Ġclusters":11565,"ĠĠĠĠĠĠĠĠĠĠĠĠĠĠĠĠĠĠĠĠĠĠĠĠĠĠĠĠĠĠĠĠĠĠĠĠĠĠĠĠĠĠĠ":11566,"Inte":11567,"scroll":11568,"gnet":11569,"ĠHi":11570,"minute":11571,"netscape":11572,"CORE":11573,"HTML":11574,"renti":11575,"objs":11576,"Ġaccepted":11577,"Ġ655":11578,"Ġlogit":11579,"mlvl":11580,"pherd":11581,"('\"":11582,"Ġsockets":11583,"Ġpredicate":11584,"sendall":11585,"sendmsg":11586,"Ġworking":11587,"Theme":11588,"067":11589,"MLP":11590,"Ġrawdata":11591,"ElementTree":11592,"Ġtables":11593,"'\\\"":11594,"SIGUSR":11595,"Ġexpressions":11596,"buckets":11597,"Ġcorrectly":11598,"letters":11599,"Ġjoints":11600,"}.{":11601,"Ġserial":11602,"Ġpickler":11603,"RESNET":11604,"cognition":11605,"ĠDetectron":11606,"aaaaaaaaaaaaaaaaaaaaaaaaaaaaaaaa":11607,"Ġborderwidth":11608,"DETECTION":11609,"Ġbeginning":11610,"MAPPING":11611,"ĠUTF":11612,"rehension":11613,"ĠDATASETS":11614,"ĠEntry":11615,"Ġmsvcrt":11616,"CID":11617,"Fake":11618,"FIRST":11619,"Horizontal":11620,"JK":11621,"Out":11622,"Pos":11623,"bp":11624,"crolled":11625,"rx":11626,"}-":11627,"Ġer":11628,"reserved":11629,"Ġ\"...":11630,"ashes":11631,"arize":11632,"memo":11633,"ĠcPickle":11634,"lover":11635,"Ġreserved":11636,"lavour":11637,"fire":11638,"Ġ':":11639,"sized":11640,"toc":11641,"filelist":11642,"Ġexe":11643,"()]":11644,"Ġuuid":11645,"ĠPlease":11646,"Ġmac":11647,"Ġprod":11648,"Ġmodeling":11649,"weighted":11650,"mote":11651,"ĠRGB":11652,"ĠUUID":11653,"cipe":11654,"([-":11655,"lipsis":11656,"Ġlaunch":11657,"ASTER":11658,"Ġcols":11659,"Ġ{}))<":11660,"suppress":11661,"Ġ...\".":11662,"Ġindexing":11663,"ConvTranspose":11664,"Unknown":11665,"2018":11666,"Ġpercent":11667,"{}_":11668,"Ġexpanded":11669,"nswer":11670,"Mean":11671,"optimizers":11672,"----------------------------":11673,"Thr":11674,"Thrs":11675,"Ġ\"*.":11676,"AdaptiveAvgPool":11677,"Ġdataroot":11678,"ĠEntity":11679,"Ġbuilding":11680,"editor":11681,"variants":11682,"gaussian":11683,"Ġhyper":11684,"AYER":11685,"Ġpeer":11686,"PostProcessor":11687,"veloper":11688,"Ġpermute":11689,"ookupError":11690,"Ġsynchronize":11691,"\"@":11692,"280":11693,"BERT":11694,"Cmp":11695,"Cascade":11696,"Emp":11697,"Font":11698,"NL":11699,"Two":11700,"frac":11701,"ount":11702,"want":11703,"wxyz":11704,"xca":11705,"åĲ":11706,"Ġ\\\\":11707,"Ġutf":11708,"including":11709,"degree":11710,"Ġtup":11711,"Ġcx":11712,"Ġplaces":11713,"Ġsrv":11714,"ingIOError":11715,"Ġmd":11716,"getrefcount":11717,"Ġ',":11718,"setblocking":11719,"contrast":11720,"=\".":11721,"ĠCopy":11722,"ĠSend":11723,"ĠAL":11724,"ĠAction":11725,"ĠFL":11726,"anny":11727,"Reset":11728,"ĠIE":11729,"amount":11730,"Ġnamespaces":11731,"ĠWh":11732,"Ġresulting":11733,"Ġvpc":11734,"ĠRat":11735,"ĠRoute":11736,"ROW":11737,"illation":11738,"Ġnearest":11739,"many":11740,"ANT":11741,"Ġ)[":11742,"Ġoverall":11743,"visit":11744,"SetUp":11745,"audit":11746,"ordering":11747,"RandomCrop":11748,"UPDAT":11749,"Ġgeneral":11750,"ĠJo":11751,"chunked":11752,"Ġwindows":11753,"BODY":11754,"NUMBER":11755,"Common":11756,"ĠThreaded":11757,"Ġ\"?\",":11758,"LOCALE":11759,"FeatureExtractor":11760,"Expression":11761,"FastRCNN":11762,"ĠDistributedDataParallel":11763,"Modi":11764,"Ġexplicitly":11765,"hrnet":11766,"greedy":11767,"Ġ\"~\"":11768,"ï¼Į\",":11769,"EXTENSION":11770,"211":11771,"422":11772,"FTP":11773,"GI":11774,"GP":11775,"OVER":11776,"TORCH":11777,"UAL":11778,"affected":11779,"cget":11780,"ko":11781,"lan":11782,"wm":11783,"wind":11784,"xfd":11785,"allen":11786,"Ġtabs":11787,"Ġturn":11788,"ante":11789,"antial":11790,"ename":11791,"Ġpapers":11792,"Ġpunctuation":11793,"Ġprinted":11794,"Ġintended":11795,"lateral":11796,"Ġ120":11797,"(\":\",":11798,"poses":11799,"Ġstoring":11800,"=\"../":11801,"Ġgcs":11802,"ĠDDP":11803,"Ġmetal":11804,"ĠBBox":11805,"Ġprevent":11806,"Ġpropag":11807,"Ġshare":11808,"REEN":11809,"motion":11810,"Ġlvl":11811,"ICATION":11812,"levant":11813,"Exact":11814,"Ġpyop":11815,"truck":11816,"ĠPyBUF":11817,"Based":11818,"seqn":11819,"Ġformats":11820,"pythontest":11821,"Ġpaddings":11822,"specs":11823,"RESOL":11824,"HTTPConnection":11825,"(\"</":11826,"Ġtranspose":11827,"Ġtranslation":11828,"ĠImageList":11829,"Ġbarrier":11830,"facet":11831,"VarGuard":11832,"ĠLoader":11833,"BOM":11834,"BOARD":11835,"Register":11836,"ĠDensePoseChart":11837,"semble":11838,"snapshot":11839,"ĠPostDB":11840,"ĠHEADS":11841,"ircular":11842,"constraints":11843,"minival":11844,"YYYY":11845,"Ġcertain":11846,"Ġcopied":11847,"Ġntpath":11848,"shortenable":11849,"Authorization":11850,"Imgs":11851,"*,":11852,"More":11853,"Sys":11854,"Vector":11855,"YW":11856,"hub":11857,"oken":11858,"px":11859,"sTo":11860,"zA":11861,"Ã¤":11862,"æĺ":11863,"sections":11864,"decl":11865,"onal":11866,"leaf":11867,"Ġtim":11868,"Ġfid":11869,"Ġpa":11870,"Ġoh":11871,"Ġrepresented":11872,"assertTyped":11873,"added":11874,"unfold":11875,"coo":11876,"Ġwraps":11877,"isdigit":11878,"Ġ***":11879,"Ġ_(\"":11880,"etree":11881,"ĠAU":11882,"Ġthw":11883,"omb":11884,"Ġuid":11885,"ĠPack":11886,"ĠBINPUT":11887,"Integer":11888,"mbo":11889,"ĠNN":11890,"ĠROUND":11891,"STORE":11892,"640":11893,"Ġaliases":11894,"tains":11895,"pthook":11896,"Ġsubsequent":11897,"rences":11898,"Ġminimum":11899,"Ġ63":11900,"Ġlogical":11901,"Ġgrouping":11902,"Ġcomma":11903,"Ġdelattr":11904,"IDDLE":11905,"Ġindexes":11906,"Ġframework":11907,"Ġlearn":11908,"Ġsignals":11909,"Ġverbosity":11910,"merged":11911,"globs":11912,"checkpointing":11913,"Ġgrads":11914,"pkcs":11915,"Ġbins":11916,"0061":11917,"0069":11918,"Ġsymbols":11919,"\">&":11920,"herited":11921,"ĠINDEX":11922,"protocols":11923,"Alt":11924,"autocomplete":11925,"Ġ[[]":11926,"supervised":11927,"FORMATS":11928,"={},<":11929,"Ġcapture":11930,"Decor":11931,"Ġstripped":11932,"augmentations":11933,"ĠActivation":11934,"consumed":11935,"ĠBackbone":11936,"Ġ'''<":11937,"Ġrender":11938,"DoesNotExist":11939,"Ġ\"`\"":11940,"BOUNDARY":11941,"rentiable":11942,"')\",":11943,"BAS":11944,"CFLAGS":11945,"FRA":11946,"FULL":11947,"Termin":11948,"Watcher":11949,"]}<":11950,"gnn":11951,"ider":11952,"knn":11953,"kps":11954,"mbox":11955,"pic":11956,"plate":11957,"tun":11958,"Ã¨":11959,"redirect":11960,"asible":11961,"arity":11962,"endian":11963,"Ġplain":11964,"Ġsyn":11965,"dilations":11966,"Ġmargin":11967,"assertParse":11968,"coat":11969,"covered":11970,"Ġ'.":11971,"upload":11972,"ĠLAM":11973,"Ġgencode":11974,"Ġguid":11975,"Ġgaussian":11976,"Ġoften":11977,"pathmodule":11978,"Ġconcurrent":11979,"ĠAug":11980,"Ġnotation":11981,"()'":11982,"expires":11983,"ĠDec":11984,"shard":11985,"Ġ320":11986,"Recur":11987,"Ġmeters":11988,"ĠPEP":11989,"ĠPOUND":11990,"ĠBASE":11991,"013":11992,"readonly":11993,"ĠMIDDLE":11994,"ĠNAN":11995,"Ġfromlist":11996,"Ġwhite":11997,"Ġsystems":11998,"Ġ51":11999,"ĠRES":12000,"STACK":12001,"0005":12002,"trials":12003,"netmask":12004,"ĠThey":12005,"Ġ[\"/":12006,"agent":12007,"Ġbatches":12008,"msgobj":12009,"iouType":12010,"Ġblocking":12011,"IOBase":12012,"messages":12013,"ToEval":12014,"UMP":12015,"tracing":12016,"filtered":12017,"2009":12018,"EXP":12019,"ById":12020,"aught":12021,"ĠUni":12022,"asher":12023,"predicate":12024,"ĠparseString":12025,"xFE":12026,"Show":12027,"Ġaugmentations":12028,"ĠFileNotFoundError":12029,"Ġsentences":12030,"IoULoss":12031,"Interpolation":12032,"missions":12033,"directories":12034,"warped":12035,"documentId":12036,"reqs":12037,"ĠThat":12038,"Ġpipes":12039,"mitives":12040,"================================":12041,"Ġmachinery":12042,"ĠFakeSocket":12043,"9999999999999999":12044,"Ġconsumed":12045,"Ġweekday":12046,"ARGS":12047,"Ġ11592":12048,"Ġtracker":12049,"ĠVALID":12050,"ambda":12051,"backslashreplace":12052,"ierarchy":12053,"Ġperturbed":12054,"synchronize":12055,"quipment":12056,"antialias":12057,"CRL":12058,"EPOCH":12059,"GzipFile":12060,"Matcher":12061,"NING":12062,"Pl":12063,"RM":12064,"RW":12065,"Sampling":12066,"Style":12067,"_\\":12068,"bm":12069,"dget":12070,"fuse":12071,"hip":12072,"koi":12073,"noday":12074,"olete":12075,"odists":12076,"sax":12077,"tue":12078,"uu":12079,"uge":12080,"urable":12081,"|'":12082,"Ġannot":12083,"infer":12084,"dictionary":12085,"sient":12086,"sioned":12087,"Ġmv":12088,"Ġev":12089,"Ġ1000000":12090,"(\"^":12091,"getboolean":12092,"settrace":12093,"isabs":12094,"Ġdistances":12095,"ilk":12096,"vite":12097,"virtual":12098,"fromfile":12099,"Ġconnections":12100,"spans":12101,"Ġhop":12102,"Ġdead":12103,"Ġdeploy":12104,"ĠDate":12105,"Ġ384":12106,"omy":12107,"ĠBoolean":12108,"ĠBroken":12109,"Ġparalleli":12110,"016":12111,"rying":12112,"Ġ43":12113,"Ġyy":12114,"Ġclassname":12115,"Ġpasswd":12116,"dented":12117,"ĠHO":12118,"103":12119,"runs":12120,"UTION":12121,"assertIsSubclass":12122,"Ġadds":12123,"Ġcompressed":12124,"Ġstartup":12125,"Semantic":12126,"Unexpected":12127,"embedded":12128,"OTE":12129,"ĠANDData":12130,"Ġseqn":12131,"Ġ\"%(":12132,"syms":12133,"YRIGHT":12134,"Ġ&&":12135,"gender":12136,"Ġdepths":12137,"filterwarnings":12138,"(\".\",":12139,"Ġwidgets":12140,"LUE":12141,"SOCKET":12142,"blk":12143,"Ġfails":12144,"maryWriter":12145,"Override":12146,"UserResource":12147,"hyper":12148,"sistency":12149,"Ġdatas":12150,"Ġblk":12151,"Ġrecursion":12152,"AUTO":12153,"visualizer":12154,"ĠClassic":12155,"cipher":12156,"ĠLOG":12157,"Expand":12158,"33333333":12159,"Ġprofilee":12160,"experimental":12161,"imshow":12162,"ĠServer":12163,"Ġbecomes":12164,"xFFFFFFFF":12165,"VIDEO":12166,"Ġgencodec":12167,"!--":12168,"\"|":12169,")):":12170,"-\",":12171,"DOT":12172,"HD":12173,"Ignore":12174,"Language":12175,"OD":12176,"Step":12177,"css":12178,"cumsum":12179,"iod":12180,"lstat":12181,"ny":12182,"nis":12183,"pg":12184,"pace":12185,"yo":12186,"Ġ\"=?":12187,"Ġillegal":12188,"anext":12189,"Ġnative":12190,"Ġinfile":12191,"utations":12192,"Ġ([\"":12193,"Ġeod":12194,"undefined":12195,"lidar":12196,"andas":12197,"ĠTra":12198,"ĠTransform":12199,"Ġdiscriminator":12200,"rant":12201,"Ġgame":12202,"fileA":12203,"Ġhorizontal":12204,"ably":12205,"shutil":12206,"ĠMon":12207,"Ġshutdown":12208,"Ġ**{":12209,"subclasses":12210,"kwarg":12211,"nets":12212,"news":12213,"interrupt":12214,"acher":12215,"Ġcollection":12216,"Ġroute":12217,"catDataset":12218,"IPPROTO":12219,"IZES":12220,"userCfg":12221,"SEEK":12222,"Ġnextchar":12223,"completer":12224,"dentials":12225,"lastid":12226,"firstlineno":12227,"popitem":12228,"CNMaskHead":12229,"Ġmanifest":12230,"disk":12231,"bufs":12232,"cropped":12233,"ConfigParser":12234,"networks":12235,"Root":12236,"Ġcapital":12237,"terminate":12238,"pkgdir":12239,"bbrowser":12240,"generation":12241,"ĠProperty":12242,"Ġpriority":12243,"Ġregions":12244,"Depends":12245,"delegate":12246,"REQUIRED":12247,"ĠCharset":12248,"uided":12249,"horse":12250,"ĠEMPTY":12251,"ATTRIB":12252,"chanis":12253,"TENSORBOARD":12254,"ĠEPSILON":12255,"ãĢĤ\",":12256,"ulldom":12257,"ĠCaffe":12258,"Ġ{{{{<":12259,"RaisingArgumentParser":12260,")[:":12261,"/\\":12262,">\"],<":12263,"Cap":12264,"GCN":12265,"Has":12266,"Host":12267,"LZ":12268,"Next":12269,"Tri":12270,"UDP":12271,"Upsample":12272,"Valid":12273,"`:<":12274,"cte":12275,"ech":12276,"ethnicity":12277,"lal":12278,"msi":12279,"xdb":12280,"}))<":12281,"ĠRa":12282,"secret":12283,"inline":12284,"Ġtta":12285,"arante":12286,"Ġcand":12287,"Ġpw":12288,"dix":12289,"Ġbracket":12290,"urg":12291,"Ġmult":12292,"__\"]<":12293,"unded":12294,"lam":12295,"Ġwalk":12296,"Ġ199":12297,"0024":12298,"ĠLanguage":12299,"tobject":12300,"ĠSkip":12301,"()}":12302,"Ġdepending":12303,"ĠFrozen":12304,"imation":12305,"ĠIOTA":12306,"..\")<":12307,"chemy":12308,"011":12309,"Ġyaml":12310,"Confidence":12311,"ĠGrid":12312,"0004":12313,"components":12314,"batchgrid":12315,"ĠReal":12316,"220":12317,"umeric":12318,"Ġweak":12319,"Ġdoctype":12320,"phy":12321,"Ġscroll":12322,"markers":12323,"cluded":12324,"Ġplugins":12325,"Ġexpat":12326,"sigmask":12327,"etails":12328,"Enter":12329,"Ġcalendar":12330,"Ġarticle":12331,"Ġfinalize":12332,"Ġtelnet":12333,"Ġparenthe":12334,"realm":12335,"MaskRCNN":12336,"symmetry":12337,"raised":12338,"assignment":12339,"ESSAGE":12340,"Ġinitializer":12341,"ĠdocumentId":12342,"Ġaccumulate":12343,"forkserver":12344,"removals":12345,"pause":12346,"TemporaryDirectory":12347,"Ġvisualize":12348,"dependency":12349,"Ġcertfile":12350,"ĠPIPELINES":12351,"Segmentation":12352,"PredictorOutput":12353,"cripts":12354,"Ġreceive":12355,"Ġrecognized":12356,"Ġlegacy":12357,"ĠDensePoseDataRelative":12358,"ndiffAssertEqual":12359,"110":12360,"Edge":12361,"FS":12362,"Folder":12363,"GPT":12364,"JE":12365,"Link":12366,"PASS":12367,"PYRIGHT":12368,"UF":12369,"[(\"":12370,"]\".":12371,"ao":12372,"bing":12373,"bile":12374,"ssim":12375,"vn":12376,"})}":12377,"Ġri":12378,"deformable":12379,"Ġomega":12380,"Ġrepo":12381,"__[\"":12382,"unary":12383,"lide":12384,"0011":12385,"(\"&":12386,"(\"~":12387,"thu":12388,"ĠLink":12389,"ĠSim":12390,"ĠSECTION":12391,"ĠALP":12392,"Ġhide":12393,"Ġdecl":12394,"outside":12395,"omonym":12396,"ights":12397,"ĠWor":12398,"Ġunsigned":12399,"2500":12400,"coming":12401,"ĠVi":12402,"ĠVec":12403,"fixed":12404,"substit":12405,"Ġchecking":12406,"rentid":12407,"Ġ{},<":12408,"Ġminor":12409,"Ġ{\"__":12410,"ĠTestableTest":12411,"Unit":12412,"ĠExit":12413,"])),<":12414,"bindings":12415,"THREAD":12416,"overall":12417,"PEG":12418,"buffering":12419,"postprocess":12420,"EXEC":12421,"Samples":12422,"ordinal":12423,"ĠStart":12424,"generators":12425,"0065":12426,"STRIDE":12427,"0001044":12428,"(\"/\",":12429,"Ġembedder":12430,"adjust":12431,"terminator":12432,"Ġconnected":12433,"Ġmyjson":12434,"ĠChange":12435,"helpers":12436,"Ġliterals":12437,"mappings":12438,"PoolExecutor":12439,"retch":12440,"Ġrealm":12441,"Ġapplying":12442,"CREATED":12443,"Apply":12444,"ĠTokens":12445,"CODES":12446,"subnets":12447,"ĠISOlat":12448,"Ġremainder":12449,"ĠToplevel":12450,"ĠSIGMA":12451,")'":12452,"+<":12453,"+\")<":12454,">:":12455,"Access":12456,"EAR":12457,"FACT":12458,"IMAGES":12459,"JPEG":12460,"Night":12461,"Press":12462,"RT":12463,"SIZES":12464,"balanced":12465,"cif":12466,"fct":12467,"glo":12468,"jj":12469,"swe":12470,"slices":12471,"yx":12472,"åĶĲ":12473,"çļ":12474,"ortest":12475,"Ġspect":12476,"Ġsaturation":12477,"Ġintern":12478,"Ġbi":12479,"urlen":12480,"Ġmut":12481,"Ġ(!":12482,"Ġeta":12483,"unre":12484,"covery":12485,"testdata":12486,"Ġws":12487,"Ġable":12488,"otation":12489,"than":12490,"Ġ[{\"":12491,"ĠtestAssert":12492,"INITIAL":12493,"pathsep":12494,"fromtimestamp":12495,"ĠAnn":12496,"Ġdevices":12497,"ĠDD":12498,"propag":12499,"imals":12500,"TERAL":12501,"Ġrt":12502,"osx":12503,"Ġpreprocessing":12504,"Invariants":12505,"ĠWill":12506,"acle":12507,"2524":12508,"little":12509,"colon":12510,"calltip":12511,"ARP":12512,"Ġkeyfile":12513,"0007":12514,"subplot":12515,"Ġ[\"--":12516,"iterations":12517,"ugin":12518,"rength":12519,"))))":12520,"catter":12521,"beg":12522,"Ġindexed":12523,"Ġends":12524,"crete":12525,"socketpair":12526,"lastic":12527,"totalAr":12528,"Images":12529,"randbits":12530,"srcdir":12531,"gence":12532,"ATIONS":12533,"lmnop":12534,"Ġchunksize":12535,"Ġquestions":12536,"SGateway":12537,"LITERAL":12538,"Ġblur":12539,"ĠDatasetCatalog":12540,"umulator":12541,"cidr":12542,"Ġoccurred":12543,"Ġphrase":12544,"writers":12545,"calculator":12546,"Ġconsists":12547,"ĠSHARP":12548,"VARS":12549,"ĠTurtleScreen":12550,"minibatch":12551,"bowl":12552,"ceeds":12553,"separated":12554,"147483647":12555,"odulatedDeformConv":12556,"lalchemy":12557,"tobjects":12558,"çļĦ":12559,"totalArms":12560,"$\")<":12561,"302":12562,"??":12563,"Average":12564,"Bo":12565,"Dow":12566,"Driver":12567,"Emin":12568,"GV":12569,"Got":12570,"IEEE":12571,"Lst":12572,"MagicMock":12573,"SILON":12574,"Tortoise":12575,"VC":12576,"hflip":12577,"ulo":12578,"uFF":12579,"ä¹":12580,"reuse":12581,"lerance":12582,"alving":12583,"aspp":12584,"Ġfatal":12585,"ender":12586,"ended":12587,"room":12588,"Ġpk":12589,"Ġbroadcast":12590,"Ġocc":12591,"Ġodom":12592,"Ġrepeated":12593,"Ġwar":12594,"0020":12595,"(\"\"\"":12596,"rig":12597,"argparse":12598,"Ġdora":12599,"Ġtestme":12600,"ĠCallback":12601,"islice":12602,"Ġgrow":12603,"Ġgain":12604,"ĠSlow":12605,"exclusive":12606,"ĠDETECT":12607,"ĠFloat":12608,"Ġmedian":12609,"reads":12610,"Ġ(\"%":12611,"Ġ(\".":12612,"appendChild":12613,"mburg":12614,"Ġ44":12615,"ĠNx":12616,"Ġ:])<":12617,"Ġ@_":12618,"ĠOME":12619,"libc":12620,">>\"),<":12621,"pilog":12622,"ĠGraph":12623,"indexed":12624,"subsample":12625,"Ġ[\"_":12626,"curity":12627,"lobal":12628,"UTC":12629,"ĠInstance":12630,"Ġcompo":12631,"Ġmsgid":12632,"Ġadv":12633,"Ġperformed":12634,"Ġplus":12635,"Ġqname":12636,"Ġmulticlass":12637,"completion":12638,"rawdata":12639,"Ġusers":12640,"FIEL":12641,"GetOption":12642,"ĠSearch":12643,"finetune":12644,"xBF":12645,"Ġembedded":12646,"0074":12647,"graphs":12648,"Ġauthentication":12649,"ĠUPSILON":12650,"ECTED":12651,"ĠBertTokenizer":12652,"basics":12653,"positories":12654,"Ġdatum":12655,"Anns":12656,"instanti":12657,"letter":12658,"decompressor":12659,"Ġrotation":12660,"ĠErrorRaisingArgumentParser":12661,"ĠbucketName":12662,"truncated":12663,"ĠTokenization":12664,"ĠTimer":12665,"Ġoverrides":12666,"SMTPUTF":12667,"Ġcutout":12668,"Super":12669,"RawIOBase":12670,"SCALES":12671,"Ġapproxs":12672,"STDOUT":12673,"ĠSummaryWriter":12674,"Ġmimetypes":12675,"shoulder":12676,"Ġobtained":12677,"ĠHashKey":12678,"=\"+\",<":12679,"HorizontalFlip":12680,"chanism":12681,"ĠALPHA":12682,"cifar":12683,"ĠOMEGA":12684,"'\\\\":12685,"+-":12686,"406":12687,"?\",<":12688,"ARA":12689,"Nested":12690,"PI":12691,"PHA":12692,"Turtle":12693,"TUPLE":12694,"_\"<":12695,"aexit":12696,"aifc":12697,"dumb":12698,"sched":12699,"ula":12700,"ç»":12701,"Ġ;":12702,"ortions":12703,"retry":12704,"ancy":12705,"anoptic":12706,"Ġfully":12707,"Ġcod":12708,"Ġreally":12709,"\",),":12710,"unstructured":12711,"lias":12712,"Ġ110":12713,"0016":12714,"0075":12715,"0023":12716,"third":12717,"Ġ'{\"":12718,"Ġdue":12719,"clin":12720,"Ġ*(":12721,"verbosity":12722,"ĠSRE":12723,"INY":12724,"ĠAuth":12725,"ALO":12726,"ALRM":12727,"ĠFirst":12728,"imit":12729,"perplexity":12730,"ĠPHI":12731,"ĠnumOf":12732,"keyset":12733,"Ġresample":12734,"Ġrespec":12735,"figure":12736,"gnu":12737,"ĠWi":12738,"RENC":12739,"RARY":12740,"featurizer":12741,"minor":12742,"=[(":12743,"0008":12744,"Ġchecked":12745,"urlparse":12746,"Params":12747,"Ġ65":12748,"pecialized":12749,"ĠTestCase":12750,"Ġcontained":12751,"Ġinterpolate":12752,"ĠXXX":12753,"Ġencodings":12754,"CEPT":12755,"ĠĠĠĠĠĠĠĠĠĠĠĠĠĠĠĠĠĠĠĠĠĠĠĠĠĠĠĠĠĠĠĠĠĠĠĠĠĠ":12756,"Ġutility":12757,"failures":12758,"Arn":12759,"754":12760,"countered":12761,"0068":12762,"0072":12763,"Ġretval":12764,"Ġbetter":12765,"Multiple":12766,"rotated":12767,"Ġsetuptools":12768,"COMPL":12769,"Ġuniversal":12770,"operation":12771,"dotted":12772,"]+)":12773,"differentiable":12774,"Ġppim":12775,"huggingface":12776,"Ġ123456789":12777,"Ġcandidates":12778,"requireAttrs":12779,"ABCDEFG":12780,"EXTRACTORS":12781,"Ġhappen":12782,"hinx":12783,"Ġoverridden":12784,"wantobjects":12785,"Ġarcname":12786,"qrstuv":12787,"RESOLUTION":12788,"Ġcoding":12789,"RENCY":12790,"+)":12791,".\")":12792,"112":12793,"304":12794,"544":12795,">|":12796,"Bl":12797,"Balanced":12798,"DCN":12799,"KIP":12800,"Left":12801,"PRETRAINED":12802,"Rect":12803,"Reduce":12804,"Tag":12805,"ZE":12806,"`):":12807,"cgi":12808,"efg":12809,"ient":12810,"ka":12811,"klass":12812,"mv":12813,"ove":12814,"places":12815,"srv":12816,"Ġvision":12817,"oration":12818,"repositories":12819,"statistics":12820,"erce":12821,"Ġflist":12822,"Ġcumulative":12823,"defect":12824,"Ġoup":12825,"\",\"":12826,"Ġ(\"<":12827,"testme":12828,"Ġwt":12829,"0022":12830,"0018":12831,"Ġstmt":12832,"odb":12833,"isTrain":12834,"Ġdic":12835,"tostring":12836,"illa":12837,"Ġgold":12838,"pardir":12839,"buffered":12840,"Ġrnn":12841,"pycache":12842,"ami":12843,"ĠMIC":12844,"trainval":12845,"ĠRetinaNet":12846,"reppoints":12847,"ĠGN":12848,"loglik":12849,"([^":12850,"ĠRef":12851,"ĠobjectName":12852,"Ġalph":12853,"sysconfig":12854,"ĠcallLst":12855,"plugins":12856,"ridge":12857,"IDES":12858,"embeds":12859,"Ġlex":12860,"mono":12861,"pecting":12862,"enterCrop":12863,"binascii":12864,"HAND":12865,"USTER":12866,"who":12867,"sensitive":12868,"totalrefcount":12869,"multibytecodec":12870,"hashable":12871,"Ġusername":12872,"Ġnetloc":12873,"777":12874,"Ġtransformed":12875,"ĠSeg":12876,"0040":12877,"0045":12878,"xEB":12879,"0070":12880,"Pretrained":12881,"MaskList":12882,"showerror":12883,"sqr":12884,"conflict":12885,"optimization":12886,"Ġinvoke":12887,"ĠHTTPStatus":12888,"captions":12889,"ï¼ģ":12890,"ĠCompose":12891,"OPEN":12892,"modification":12893,"Ġshear":12894,"DIRECT":12895,"etinaHead":12896,"Complete":12897,"Ġslurm":12898,"allocated":12899,"Sigmoid":12900,"OBJECT":12901,"TEMPLATE":12902,"excepthook":12903,"WINDOWS":12904,"ĠCLASS":12905,"Ġlongest":12906,"DayNight":12907,"abcdefghijklmnop":12908,"EXCEPTION":12909,"BASIC":12910,"ĠMICRO":12911,"CANCEL":12912,"CROP":12913,"DDP":12914,"DICT":12915,"Graph":12916,"IB":12917,"LAB":12918,"Ow":12919,"PM":12920,"alect":12921,"bold":12922,"cla":12923,"each":12924,"fault":12925,"tcp":12926,"è¿":12927,"ĠRaw":12928,"Ġquick":12929,"infile":12930,"incremental":12931,"reweight":12932,"refactor":12933,"retrie":12934,"onomy":12935,"aspect":12936,"Ġcare":12937,"mpc":12938,"mpup":12939,"Ġsin":12940,"divisibility":12941,"Ġretry":12942,"cts":12943,"Ġeos":12944,"0064":12945,"(\"'":12946,"gettimeout":12947,"through":12948,"namelist":12949,"Ġdup":12950,"Ġdrive":12951,"ĠLayer":12952,"ĠLib":12953,"continuation":12954,"Ġdilate":12955,"Ġdictionaries":12956,"ĠSynchronizedBatchNorm":12957,"INIT":12958,"Ġdesigned":12959,"Ġdescriptors":12960,"msvc":12961,"tener":12962,"ĠDef":12963,"\"\"\"\\":12964,"Ġclassic":12965,"Ġrd":12966,"ITT":12967,"ĠND":12968,"ĠWidget":12969,"ggr":12970,"ORN":12971,"Ġbug":12972,"0006":12973,"splitlist":12974,"newargs":12975,"DELETE":12976,"NormalDist":12977,"Ġconvs":12978,"Ġblocksize":12979,"Ġcoroutines":12980,"Ġzf":12981,"Ġkwonly":12982,"Ġ32767":12983,"URM":12984,"equality":12985,"authkey":12986,"0041":12987,"0073":12988,"0079":12989,"Role":12990,"ĠParser":12991,"linearity":12992,"Ġimporter":12993,"venue":12994,"__()\",":12995,"pages":12996,"Ġperforms":12997,"---+\\":12998,"---+--------------------------------":12999,"obile":13000,"ĠAdam":13001,"ĠCompute":13002,"VOCAB":13003,"Ġtimesformer":13004,"Ġedges":13005,"Ġsquares":13006,"meshgrid":13007,"writes":13008,"Ġcontrols":13009,"Ġ3600":13010,"ĠTraining":13011,"Ġeditor":13012,"BottleneckBlock":13013,"paste":13014,"pascal":13015,"Ġsymlink":13016,"ĠPIPE":13017,"ĠMODEL":13018,"ICTOR":13019,"INSTANCE":13020,"illiseconds":13021,"EmailBase":13022,"ĠFLIP":13023,"Terminal":13024,".)":13025,"Answer":13026,"BGR":13027,"CMSG":13028,"DET":13029,"Pure":13030,"Public":13031,"SED":13032,"]\"\"\"<":13033,"aco":13034,"awaited":13035,"bang":13036,"dable":13037,"ese":13038,"emd":13039,"fq":13040,"gwin":13041,"gcn":13042,"hair":13043,"ities":13044,"pwrite":13045,"uit":13046,"will":13047,"yview":13048,"around":13049,"animal":13050,"Ġflappy":13051,"Ġcaught":13052,"Ġsr":13053,"serted":13054,"Ġrequested":13055,"urpose":13056,"colate":13057,"0025":13058,"0028":13059,"0036":13060,"idt":13061,"nth":13062,"namespaces":13063,"atever":13064,"---":13065,"Ġgid":13066,"Ġdetach":13067,"ĠDuring":13068,"ĠDIAL":13069,"ĠFailed":13070,"Ġ37":13071,"ĠĠĠĠĠĠĠĠĠĠĠĠĠĠĠĠĠĠĠĠĠĠĠĠ":13072,"Ġmajor":13073,"Ġprote":13074,"ĠMac":13075,"Ġkaiming":13076,"ĠEmpty":13077,"REPORT":13078,"Ġunpickler":13079,"Ġuncompressed":13080,"acer":13081,"2514":13082,"Ġtokentype":13083,"near":13084,"noisy":13085,"curve":13086,"Ġattach":13087,"Ġ8000":13088,"Ġaddresses":13089,"Ġstatements":13090,"copyfile":13091,"Ġbasesize":13092,"plane":13093,"replacement":13094,"Proactor":13095,"Ġbackup":13096,"returned":13097,"IRW":13098,"completed":13099,"helf":13100,"307":13101,"URIZER":13102,"structions":13103,"Ġarrays":13104,"PathEqual":13105,"Ġupdates":13106,"(\"/\")[-":13107,"Ġpatches":13108,"ĠiouThr":13109,"ĠCOPYRIGHT":13110,"xEF":13111,"0053":13112,"Ġ\"{:":13113,"RoIPool":13114,"ĠBoxCoder":13115,"Ġ152":13116,"ĠParallel":13117,"Ġ\"../../":13118,"Verify":13119,"Intersection":13120,"nonex":13121,"AttCore":13122,"marshal":13123,"IntEnum":13124,"hexdigest":13125,"ĠDEBUG":13126,"Classifier":13127,"ĠPositional":13128,"borderwidth":13129,"idletasks":13130,"ĠâĶ":13131,"FUNC":13132,"Execute":13133,"MODUL":13134,"Ġmixup":13135,"Ġobservation":13136,"ĠNOTE":13137,"squad":13138,"Ġtested":13139,"FILES":13140,"NORMAL":13141,"Ġkept":13142,"Ġdetermined":13143,"SUPPORTED":13144,"ĠHAMZA":13145,"Worker":13146,"allenge":13147,"ĠNNTP":13148,"ĠWorld":13149,"'re":13150,":])":13151,"Are":13152,"Bool":13153,"CMD":13154,"DER":13155,"FCNMaskHead":13156,"KC":13157,"Mac":13158,"Pred":13159,"She":13160,"UIT":13161,"[^":13162,"].__":13163,"gw":13164,"lf":13165,"ndef":13166,"pil":13167,"voxel":13168,"xda":13169,"zh":13170,"determin":13171,"reap":13172,"Ġ\"****************":13173,":</":13174,"alizer":13175,"altern":13176,"ashed":13177,"arded":13178,"Ġfru":13179,"tice":13180,"chinese":13181,"Ġnan":13182,"peek":13183,"Ġdefects":13184,"sitives":13185,"Ġ(`":13186,"Ġetag":13187,"testcase":13188,"Ġwatcher":13189,"Ġamount":13190,"fifo":13191,"0050":13192,"0034":13193,"elt":13194,"ssue":13195,"classic":13196,"Ġ#<":13197,"Ġtools":13198,"ĠClip":13199,"toff":13200,"Ġgr":13201,"ĠSpecifi":13202,"etri":13203,"ĠAWS":13204,"experiments":13205,"abort":13206,"ETED":13207,"foot":13208,"ubic":13209,"Ġsemantics":13210,"Ġpreserve":13211,"Ġkill":13212,"Ġunquote":13213,">>\":":13214,"commen":13215,"TypeEqual":13216,"Logging":13217,"Ġtexts":13218,"\"),),<":13219,"nofix":13220,"working":13221,"ENV":13222,"Ġlatest":13223,"Ġnormally":13224,"168":13225,"defaultdict":13226,"tpp":13227,"Seq":13228,"ACCEPT":13229,"refore":13230,"mano":13231,"Ġ\"-\",":13232,"Ġmodes":13233,"ToServer":13234,"Ġclients":13235,"QUE":13236,"executed":13237,"PEAT":13238,"slurm":13239,"Ġquanti":13240,"Ġupload":13241,"Ġ640":13242,"Ġgeneration":13243,"structed":13244,"Ġtee":13245,"0048":13246,"0057":13247,"tarball":13248,"invalidate":13249,"consts":13250,"ĠPOINT":13251,"ĠParams":13252,"terminal":13253,"CallStack":13254,"Success":13255,"0039":13256,"UserWarning":13257,"Feed":13258,"ĠEncoder":13259,"RETURN":13260,"Ġshortcut":13261,"cutoff":13262,"ĠPredi":13263,"ĠCURRENCY":13264,"Ġclick":13265,"retina":13266,"rinsic":13267,"YTIK":13268,"Ġboard":13269,"loyee":13270,"ĠPolygonMasks":13271,"transition":13272,"BACKBONES":13273,"FixedOffset":13274,"debugger":13275,"leaks":13276,"Ġproblem":13277,"Negative":13278,"Ġguarante":13279,"assertParseOK":13280,"LZMA":13281,"ĠDIALYTIK":13282,"ĠDIALYTIKA":13283,"('<":13284,"655":13285,"Cr":13286,"Cmsg":13287,"Dense":13288,"[]":13289,"hers":13290,"pwd":13291,"rle":13292,"utest":13293,"xDE":13294,"xED":13295,"zing":13296,"Ġ}}":13297,"astern":13298,"Ġtpp":13299,"Ġsa":13300,"Ġscatter":13301,"Ġoct":13302,"Ġeig":13303,"assertCallStack":13304,"unbind":13305,"0012":13306,"0099":13307,"0056":13308,"0042":13309,"0055":13310,"0084":13311,"0044":13312,"0026":13313,"quopri":13314,"idom":13315,"Ġfork":13316,"turl":13317,"policies":13318,"ĠTwo":13319,"towel":13320,"Ġgym":13321,"listbox":13322,"via":13323,"ĠAra":13324,"ĠAcc":13325,"Ġexpl":13326,"\"]},<":13327,"()],":13328,"Ġuv":13329,"Ġenter":13330,"maxpool":13331,"Ġunix":13332,"Ġundo":13333,"Ġvoxel":13334,"Ġwhole":13335,"tsv":13336,"Ġlargest":13337,"2510":13338,"2534":13339,"2502":13340,"icense":13341,"within":13342,"Ġintro":13343,"Ġonerror":13344,"ĠUSE":13345,"ICATE":13346,"allest":13347,"0009":13348,"netloc":13349,"===":13350,"ressor":13351,"(((":13352,"versions":13353,"222":13354,"TestCases":13355,"reek":13356,"Ġrole":13357,"varargs":13358,"Partial":13359,"][_":13360,"ISE":13361,"Ġargmax":13362,"Deprecated":13363,"refresh":13364,"Dire":13365,"Profile":13366,"857":13367,"nodeType":13368,"leftImg":13369,"sents":13370,"randperm":13371,"]]]]":13372,"ELESS":13373,"HTTPRequestHandler":13374,"0067":13375,"normalization":13376,"universal":13377,"0043":13378,"0047":13379,"0051":13380,"BlockBase":13381,"ĠPOS":13382,"Variable":13383,"ĠBertModel":13384,"hyps":13385,"COMMA":13386,"ĠareaRng":13387,"SIGALRM":13388,"ĠWeak":13389,"ĠThread":13390,"ĠUnicodeError":13391,"[[[[":13392,"alignment":13393,"mgr":13394,"Ġimplementations":13395,"Quote":13396,"ĠFeatures":13397,"Ġeverything":13398,"ĠResourceTemplate":13399,"ĠGeneralizedRCNN":13400,"Ġtruncated":13401,"MDF":13402,"Depth":13403,"PPPP":13404,"Ġfeedstock":13405,"Markdown":13406,"Ġcombine":13407,"ĠDistributedSampler":13408,"ĠInvalidOperation":13409,"Utils":13410,"ĠPATTERN":13411,"slowfast":13412,"Ġcompresslevel":13413,"PROCESSABLE":13414,"EnvironmentVarGuard":13415,"RDONLY":13416,"Ġvolume":13417,"SIMPLE":13418,"Ġinstrument":13419,"ĠHowever":13420,"mstrain":13421,"\"\",<":13422,"'m":13423,")\"),<":13424,"CM":13425,"Could":13426,"Cancel":13427,"CPU":13428,"Dt":13429,"DOC":13430,"DGRAM":13431,"Ensure":13432,"Fore":13433,"Job":13434,"MAD":13435,"Pair":13436,"Saving":13437,"TAG":13438,"UBIC":13439,"ales":13440,"bmm":13441,"iff":13442,"mirror":13443,"pure":13444,"qk":13445,"xAC":13446,"yellow":13447,"}'":13448,"Åĳ":13449,"åŃ":13450,"detail":13451,"atype":13452,"atss":13453,"Ġcnt":13454,"Ġcum":13455,"Ġplay":13456,"Ġpandas":13457,"Ġngf":13458,"division":13459,"Ġbag":13460,"petition":13461,"Ġdefining":13462,"Ġrelief":13463,"inger":13464,"Ġ08":13465,"uninstall":13466,"cow":13467,"0033":13468,"0014":13469,"0077":13470,"0021":13471,"0097":13472,"quotes":13473,"Ġ'+":13474,"),)":13475,"pole":13476,"atives":13477,"Ġsts":13478,"ĠTAG":13479,"=\":":13480,"touch":13481,"Ġgrp":13482,"Ġconsole":13483,"ĠAN":13484,"ĠAfter":13485,"Ġhold":13486,"Ġhuman":13487,"ĠFind":13488,"ĠFail":13489,"Ġ39":13490,"Ġmaintain":13491,"InResponse":13492,"ĠMatch":13493,"ĠMix":13494,"ournal":13495,"Constructor":13496,"Ġunits":13497,"imezone":13498,"2518":13499,"}</":13500,"forget":13501,"compat":13502,"ĠRecognition":13503,"agers":13504,"))):<":13505,"bsd":13506,"Ġacquire":13507,"useCats":13508,"\\\\\"":13509,"Ġshapes":13510,"ĠExp":13511,"Enabled":13512,"translation":13513,"UNI":13514,"UNPROCESSABLE":13515,"PyTorch":13516,"fnmatch":13517,"]]):":13518,"Arch":13519,"byteorder":13520,"0062":13521,"0063":13522,"CLU":13523,"lapped":13524,"Paths":13525,"Ġrawio":13526,"udc":13527,"debuglevel":13528,"0052":13529,"0054":13530,"0058":13531,"0059":13532,"accard":13533,"0071":13534,"xDC":13535,"Ġsignum":13536,"mmdet":13537,"PreTrained":13538,"CUMENT":13539,"ĠProtocol":13540,"Ġcorrespond":13541,"ffffff":13542,"Intermediate":13543,"Mapper":13544,"schemas":13545,"feedstock":13546,"Ġ4096":13547,"XYZ":13548,"ĠRoI":13549,">`_<":13550,"BOTTOM":13551,"Ġgoes":13552,"Gradient":13553,"critical":13554,"DocTestRunner":13555,"Ġdeleted":13556,"Ġamong":13557,"141592":13558,"ĠCookieJar":13559,"Ġbenchmark":13560,"Ġlittle":13561,"hrnetv":13562,"Decorator":13563,"FRAME":13564,")[\"":13565,"485":13566,"600":13567,">+":13568,"Cls":13569,"CIF":13570,"DIS":13571,"GRA":13572,"Hi":13573,"Hit":13574,"MP":13575,"OFF":13576,"Question":13577,"TRE":13578,"UI":13579,"VGG":13580,"`,<":13581,"fas":13582,"gp":13583,"hstack":13584,"lbl":13585,"nos":13586,"nanny":13587,"oct":13588,"rn":13589,"sz":13590,"sal":13591,"uro":13592,"wiki":13593,"xAA":13594,"}:<":13595,"åĴ":13596,"çĶ":13597,"Ġ].":13598,"Ġ999":13599,"resis":13600,"records":13601,"regnet":13602,"ons":13603,"stone":13604,"anted":13605,"ering":13606,"Ġfh":13607,"Ġfri":13608,"Ġfraction":13609,"Ġcityscapes":13610,"Ġpub":13611,"Ġnx":13612,"Ġnor":13613,"Ġsns":13614,"Ġ09":13615,"____":13616,"assertPathEqual":13617,"unset":13618,"0032":13619,"0078":13620,"0029":13621,"0027":13622,"poin":13623,"ĠTCP":13624,"verb":13625,"Ġgi":13626,"ERENCE":13627,"ilent":13628,"ĠDetails":13629,"ATES":13630,"\"\"),":13631,"Ġthird":13632,"Ġrfc":13633,"ĠPE":13634,"ĠPick":13635,"ĠBear":13636,"ipant":13637,"ĠMM":13638,"Ġheatmaps":13639,"libs":13640,"corpus":13641,"notes":13642,"Ġattached":13643,"Ġ.*":13644,"Ġroidb":13645,"ĠArray":13646,"Filename":13647,"FileHandler":13648,"msgid":13649,"Ġcanonical":13650,"pecially":13651,"astimezone":13652,"Ġblocked":13653,"Season":13654,"IOD":13655,"Here":13656,"tract":13657,"overwrite":13658,"encodings":13659,"Ġapplies":13660,"rawio":13661,"ImageNet":13662,"Ġ\"/\",":13663,"padx":13664,"--------------------":13665,"zzy":13666,"0066":13667,"Subset":13668,"0046":13669,"0049":13670,"xBB":13671,"2557":13672,"lightning":13673,"tarname":13674,"0076":13675,"Shape":13676,"flipped":13677,"BUILD":13678,"ĠLogger":13679,"SSLError":13680,"Ġauthkey":13681,"checkequalnofix":13682,"Ġlisted":13683,"Ġaligned":13684,"PERIOD":13685,"pane":13686,"documentElement":13687,"Ġperforming":13688,"Ġwinreg":13689,"bucketName":13690,"FUNCTION":13691,"Ġserialized":13692,"Ġhydra":13693,"SomeClass":13694,"hdlr":13695,"ĠVERIFY":13696,"DocTestFinder":13697,"ZZZZ":13698,"Implementation":13699,"ĠTemporaryFile":13700,"qrstuvwxyz":13701,"Ġ}}}}<":13702,"ĠArabic":13703,"/{}\".":13704,"3000":13705,">*":13706,"El":13707,"Eq":13708,"Fa":13709,"Faster":13710,"Hh":13711,"LK":13712,"RID":13713,"Ta":13714,"Vel":13715,"bble":13716,"gar":13717,"hk":13718,"hits":13719,"href":13720,"lb":13721,"lint":13722,"ngrams":13723,"vp":13724,"zinfo":13725,"})\\":13726,"åı":13727,"Ġ._":13728,"secs":13729,"strength":13730,"Ġnbytes":13731,"Ġreach":13732,"rates":13733,"sigs":13734,"Ġmotor":13735,"Ġaffect":13736,"0080":13737,"0015":13738,"0019":13739,"0013":13740,"0017":13741,"0092":13742,"0086":13743,"Ġ'\\\\":13744,"ilt":13745,"ĠSOURCE":13746,"vise":13747,"Ġexternal":13748,"\"]}<":13749,"existent":13750,"Ġdescribe":13751,"tensity":13752,"formRoIPool":13753,"\"\"\")<":13754,"Ġ3000":13755,"ĠIs":13756,"ĠĠĠĠĠĠĠĠĠĠĠĠĠĠĠĠĠĠĠĠĠĠĠĠĠ":13757,"ĠPopen":13758,"Ġresolve":13759,"Ġmagnitude":13760,"Ġfilepath":13761,"ĠMan":13762,"ĠMisc":13763,"Ġ47":13764,"ĠNL":13765,"ĠNMS":13766,"tiling":13767,"Ġchatty":13768,"account":13769,"Ġpoin":13770,"([(\"__":13771,"ARM":13772,"Ġ`\"":13773,"clothing":13774,"Std":13775,"Ġnewlines":13776,"2234":13777,"Ġminute":13778,"ISTER":13779,"bear":13780,"2560":13781,"240":13782,"Ġ...]<":13783,"Ġfloating":13784,"BaseFix":13785,"Ġcorpus":13786,"Ġsuf":13787,"transformed":13788,"Ġfuncs":13789,"commandline":13790,"helve":13791,"Ġspecification":13792,"forecast":13793,"Running":13794,"detected":13795,"Compare":13796,"0000000000":13797,"0060":13798,"FAIL":13799,"2554":13800,"xCD":13801,"xEA":13802,"Ġcaptions":13803,"ĠcatIds":13804,"Formatted":13805,"([\"-":13806,"ĠParse":13807,"0037":13808,"Adj":13809,"ĠtearDownModule":13810,"flop":13811,"partitions":13812,"legend":13813,"Ġoperators":13814,"Into":13815,"ĠEncode":13816,"ĠEncoded":13817,"retval":13818,"Ġthresholds":13819,"suffixes":13820,"Ġrotate":13821,"versity":13822,"Ġinterest":13823,"BasicBlock":13824,"LARGE":13825,"ownerDocument":13826,"TRUE":13827,"ĠIOError":13828,"WAIT":13829,"bicycle":13830,"Ġattempt":13831,"bridge":13832,"Ġcrash":13833,"aptionModel":13834,"Ġmacros":13835,"Ġenergy":13836,"STORED":13837,"ĠBBAM":13838,"PREDICTOR":13839,"Ġchosen":13840,"AUTOAUG":13841,"ATTRIBUTE":13842,"uFFFD":13843,"Ġrespectively":13844,"ĠSegmentation":13845,"219":13846,"KRA":13847,"LA":13848,"LF":13849,"Msi":13850,"RIC":13851,"Special":13852,"Too":13853,"UST":13854,"YX":13855,"cdf":13856,"jar":13857,"og":13858,"paddle":13859,"uD":13860,"||":13861,"Ġ\"}":13862,"Ġfas":13863,"Ġfocus":13864,"roles":13865,"Ġincorrect":13866,"Ġinfinite":13867,"Ġol":13868,"Ġrelevant":13869,"Ġmb":13870,"adapter":13871,"launch":13872,"Ġwanted":13873,"Ġ112":13874,"Ġ144":13875,"00100":13876,"0030":13877,"0096":13878,"0035":13879,"0095":13880,"0090":13881,"0094":13882,"0031":13883,"0098":13884,"0091":13885,"ulating":13886,"argcount":13887,"ssa":13888,"ĠLONG":13889,"ĠTIME":13890,"assertEquals":13891,"assertEqualCall":13892,"INIAN":13893,"alls":13894,"Ġhmac":13895,"parsing":13896,"preter":13897,"lability":13898,"bufio":13899,"Ġthings":13900,"pertur":13901,").\"<":13902,"Instruction":13903,"Ġ(\"--":13904,"[:],":13905,"Ġshard":13906,"Ġwhy":13907,"2550":13908,"Ġ53":13909,"cider":13910,"Ġtimeit":13911,"vides":13912,"Ġchecks":13913,"Ġcheckpointer":13914,"Modules":13915,"Exists":13916,"waitable":13917,"Ġ\".\"<":13918,"Ġdoing":13919,"Ġargname":13920,"below":13921,"Ġ75":13922,"modes":13923,"ĠTesting":13924,"2563":13925,"2566":13926,"2569":13927,"Ġending":13928,"2019":13929,"reakpoint":13930,"atedBoxes":13931,"findfile":13932,"suit":13933,"Ġfuncname":13934,"Ġappli":13935,"Ġ\\(":13936,"Ġnonzero":13937,"augmented":13938,"BoxTransform":13939,"Ġoperands":13940,"Ġpackdir":13941,"::/":13942,"Ġsumbeam":13943,"expandvars":13944,"expandtabs":13945,"ĠDelete":13946,"Ġheights":13947,"ĠImageFeatures":13948,"udge":13949,"2551":13950,"xCA":13951,"xEE":13952,"xDF":13953,"Processing":13954,"cosine":13955,"0083":13956,"0088":13957,"0089":13958,"Ġidentical":13959,"0038":13960,"basicConfig":13961,"ĠPermission":13962,"AsyncIteration":13963,"ĠTODO":13964,"Ġvehicle":13965,"bian":13966,"Ġdirective":13967,"ĠInputs":13968,"microsecond":13969,"Ġdifflib":13970,"LOCATION":13971,"SLURM":13972,"StagesTo":13973,"})\".":13974,"snippet":13975,"Ġdescending":13976,"poolers":13977,"GNU":13978,"ImgIds":13979,"CFG":13980,"Ġ${":13981,"DescriptionTemplate":13982,"LOADER":13983,"ĠNetwork":13984,"columnconfigure":13985,"Ġ:-)\")<":13986,"Ġholds":13987,"Ġcallers":13988,"Summary":13989,"scandir":13990,"Implements":13991,"ĠassertBadSplit":13992,"Highlight":13993,"listener":13994,"debugging":13995,"Ġwriters":13996,"Ġsuccessfully":13997,"Ġcauses":13998,"ĠCONFIG":13999,"Ġ':'":14000,"GPUS":14001,"riginal":14002,"Ġfruit":14003,"tilingual":14004,"KRAINIAN":14005,"assertEqualCallArgs":14006,"ĠImageFeaturesH":14007,"$\"<":14008,")()<":14009,"Align":14010,"Cent":14011,"CROW":14012,"Duplicate":14013,"SF":14014,"Try":14015,"Tear":14016,"Win":14017,"_(-":14018,"cse":14019,"fm":14020,"fused":14021,"kpt":14022,"lc":14023,"lator":14024,"qid":14025,"shed":14026,"vox":14027,"wt":14028,"whether":14029,"wBnAct":14030,"xor":14031,"xAD":14032,"xAB":14033,"}_{":14034,"inations":14035,"recon":14036,"alph":14037,"Ġtc":14038,"arInfo":14039,"Ġcatch":14040,"tially":14041,"Ġpc":14042,"locs":14043,"Ġsb":14044,"Ġinc":14045,"Ġinfer":14046,"Ġinverse":14047,"Ġbgn":14048,"\",\",":14049,"copi":14050,"coverage":14051,"Ġwinfo":14052,"Ġ150":14053,"firewall":14054,"0085":14055,"0081":14056,"getframe":14057,"gettrace":14058,"Ġ[[\"":14059,"maintype":14060,"Ġdco":14061,"clt":14062,"clang":14063,"odometry":14064,"ĠLITER":14065,"--+":14066,"isabstractmethod":14067,"Ġ*__":14068,"Ġ*/<":14069,"Ġhue":14070,"Ġdeclaration":14071,"ALPHA":14072,"yshell":14073,"ĠFEM":14074,"formance":14075,"imator":14076,"Ġ38":14077,"0123":14078,"Ini":14079,"ouch":14080,"RENT":14081,"Contrast":14082,"Ġchart":14083,"2584":14084,"lowres":14085,"pical":14086,"ĠHandler":14087,"ICES":14088,"ĠGAN":14089,"=[]):<":14090,"startTest":14091,"episode":14092,"tinuous":14093,"Ġsubmitit":14094,"Ġoptionflags":14095,"FileNotFoundError":14096,"Ġothers":14097,"ppr":14098,"charref":14099,"ĠTests":14100,"ĠExc":14101,"IGNUM":14102,"userbase":14103,"creating":14104,"HELO":14105,"Ġtraced":14106,"ClassVar":14107,"EXPECTED":14108,"Ġquotes":14109,"nonascii":14110,"ByZero":14111,"Ġclosing":14112,"canon":14113,"AGES":14114,"dispatcher":14115,"ĠKinetics":14116,"ĠDecode":14117,"ĠDeformConv":14118,"Ġfilled":14119,"istration":14120,"BICUBIC":14121,"xBA":14122,"xBE":14123,"xEC":14124,"multilingual":14125,"ProcessError":14126,"terminated":14127,"warns":14128,"PLAT":14129,"Ġfnmatch":14130,"0082":14131,"0087":14132,"ĠUPPER":14133,"BOSE":14134,"flattened":14135,"lamped":14136,"breaks":14137,"XXX":14138,"Ġcommons":14139,"Ġposixpath":14140,"ĠAssign":14141,"DOCUMENT":14142,"Ġmono":14143,"Ġpkgutil":14144,"POSIX":14145,"squares":14146,"AttributeNode":14147,"Ġpoll":14148,"Complex":14149,"LIBRARY":14150,"Ġcertificate":14151,"megaConf":14152,"yyyyyyyyyyyyyyyy":14153,"ĠApply":14154,"built":14155,"ĠSystemExit":14156,"Ġactivations":14157,"lephone":14158,"BucketName":14159,"FixerTestCase":14160,"ĠCFWS":14161,"Ġdependencies":14162,"Platform":14163,"JPEGImages":14164,"CANCELLED":14165,"formRoIPooling":14166,"TearDown":14167,"ĠLITERAL":14168,"8000":14169,"?><":14170,"Echo":14171,"FINAL":14172,"JOB":14173,"Limit":14174,"Rule":14175,"SINGLE":14176,"YEAR":14177,"\\.":14178,"aenter":14179,"cw":14180,"equipment":14181,"fro":14182,"fstat":14183,"grb":14184,"iB":14185,"ij":14186,"ium":14187,"jected":14188,"kitchen":14189,"qname":14190,"xCE":14191,"Ġentropy":14192,"Ġlayout":14193,"Ġ\"),":14194,"lee":14195,"arct":14196,"erived":14197,"Ġcud":14198,"tilities":14199,"Ġndim":14200,"Ġrestri":14201,"Ġmro":14202,"__*":14203,"0093":14204,"quad":14205,"getfile":14206,"poon":14207,"uming":14208,"qualified":14209,"opath":14210,"ĠCENT":14211,"istener":14212,"Ġdifficult":14213,"Ġgreek":14214,"ĠSPE":14215,"ĠSoft":14216,"ĠSubclass":14217,"allclose":14218,"ĠAss":14219,"sport":14220,"Ġhighest":14221,"ĠDense":14222,"ĠFin":14223,"anned":14224,"Ġrmtree":14225,"ĠItem":14226,"Ġordered":14227,"ITEM":14228,"ITICAL":14229,"Ġmeter":14230,"Ġmechanism":14231,"ĠPrint":14232,"ĠBY":14233,"ryp":14234,"Ġpretty":14235,"scorer":14236,"ĠMay":14237,"ĠNested":14238,"ĠWrap":14239,"ĠWID":14240,"tester":14241,"Ġchoose":14242,"Ġunfinished":14243,"Ġprinting":14244,"DEVICE":14245,"irth":14246,"2580":14247,"mapper":14248,"replicate":14249,"ĠGT":14250,"ĠGHE":14251,"lognum":14252,"STOP":14253,"rune":14254,"ENE":14255,"bypass":14256,"curr":14257,"Ġlazy":14258,"Ġweighted":14259,"iteral":14260,"Ġ{})\".":14261,"Ġdog":14262,"://\"":14263,"ĠTestM":14264,"Product":14265,"SEP":14266,"lingError":14267,"(*,":14268,"Computes":14269,"ousands":14270,"Ġqs":14271,"Ġmultip":14272,"ĠTypeToken":14273,"Ġoverwrite":14274,"linenumber":14275,"RESSION":14276,"audi":14277,"Ġnonlinearity":14278,"augmentation":14279,"Ġsumlognum":14280,"equals":14281,"PROJECT":14282,"pcm":14283,"ĠDecoder":14284,"CLUSTER":14285,"xBC":14286,"xBD":14287,"xCB":14288,"xCC":14289,"xCF":14290,"xDA":14291,"Optionals":14292,"Ġcallbacks":14293,"PreTraining":14294,"xAF":14295,"PLIT":14296,"SCENE":14297,"Position":14298,"ĠArgumentParser":14299,"price":14300,"Ġcmds":14301,"Ġdocuments":14302,"paned":14303,"COMP":14304,"icrosoft":14305,"suiteClass":14306,"DAY":14307,"vocation":14308,"SimpleNamespace":14309,"Finish":14310,"Ġswap":14311,"BertFor":14312,"Ġ\"{}.":14313,"secure":14314,"atisticsError":14315,"DecodeIds":14316,"ynchronous":14317,"Sendfile":14318,"goto":14319,"hnson":14320,"deleted":14321,"ĠLOWER":14322,"Ġprojector":14323,"accumulator":14324,"Labels":14325,"Ġgiving":14326,"SYNC":14327,"ĠPROG":14328,"CHECKPOINT":14329,"Ġlinestart":14330,"Ġestimated":14331,"ĠEvalu":14332,"ĠLabeledVideo":14333,"Ġaggregate":14334,"Ġsimply":14335,"ighbor":14336,"DECAY":14337,"00010427":14338,"FACTOR":14339,"ALOADER":14340,"arctan":14341,"424":14342,"Done":14343,"Fraction":14344,"Fields":14345,"La":14346,"LINES":14347,"MESSAGE":14348,"]].":14349,"ecompressor":14350,"gk":14351,"gcd":14352,"htest":14353,"hoo":14354,"ior":14355,"lnum":14356,"mn":14357,"pax":14358,"pora":14359,"san":14360,"transp":14361,"vote":14362,"watch":14363,"Ġlicense":14364,"seti":14365,"inate":14366,"incomplete":14367,"deco":14368,"reti":14369,"reed":14370,"ars":14371,"Ġicon":14372,"Ġft":14373,"Ġpil":14374,"Ġpure":14375,"Ġplease":14376,"Ġslight":14377,"Ġsatellite":14378,"Ġblen":14379,"uts":14380,"Ġretain":14381,"Ġredirect":14382,"cthw":14383,"Ġmisc":14384,"__\"))<":14385,"fies":14386,"quot":14387,"getnewargs":14388,"then":14389,"Ġ[])":14390,"Ġ'*":14391,"umask":14392,"Ġstreams":14393,"ĠTINY":14394,"Ġdilations":14395,"Ġgar":14396,"Ġgive":14397,"INVALID":14398,"derflow":14399,"cafe":14400,"ĠAF":14401,"\"]).":14402,"tennis":14403,"vehicle":14404,"ĠFF":14405,"Replace":14406,"Ġoutfp":14407,"Ġoutcome":14408,"Ġanaly":14409,"Ġks":14410,"moving":14411,"124":14412,"colator":14413,"ĠGET":14414,"STM":14415,"Ġalt":14416,"0338":14417,"viewer":14418,"Ġconfigured":14419,"iouThrs":14420,"bean":14421,"avy":14422,"Ġ\"-\":<":14423,"colorizing":14424,"isspace":14425,"aused":14426,"failfast":14427,"ailability":14428,"heights":14429,"asyncgen":14430,"Ġsummarize":14431,"assifiers":14432,"Column":14433,"ounce":14434,"ounding":14435,"Ġsslcontext":14436,"authentication":14437,"CLS":14438,"STRINGS":14439,"STRIDES":14440,"flash":14441,"Ġparents":14442,"Shortest":14443,"Ġtrailer":14444,"Ġextend":14445,"optimized":14446,"ĠTESTMOD":14447,"primitives":14448,"Regression":14449,"ĠCOCOeval":14450,"Ġplatforms":14451,"ĠPILCROW":14452,"Ġrecursively":14453,"ĠTimeout":14454,"scaling":14455,"Visitor":14456,"Ġblah":14457,"Ġprojection":14458,"Ġconsume":14459,"Account":14460,"BufferError":14461,"Ġseverity":14462,"racker":14463,"Ġinstantiate":14464,"Cache":14465,"IGNORECASE":14466,"CURRENT":14467,"ĠCurrently":14468,"Ġfragment":14469,"MutableMapping":14470,"DIRECTORY":14471,"Owner":14472,"ĠLayerNorm":14473,"MADecompressor":14474,"retization":14475,"ShortestEdge":14476,")(?":14477,"230":14478,"JUMP":14479,"LES":14480,"PRI":14481,"QR":14482,"\\'":14483,"bra":14484,"brightness":14485,"doll":14486,"easy":14487,"flist":14488,"gold":14489,"hone":14490,"wrt":14491,"xr":14492,"ä»":14493,"åĽ":14494,"Ġutcoffset":14495,"invite":14496,"deconv":14497,"ascal":14498,"asuring":14499,"Ġfron":14500,"Ġcmp":14501,"enumerate":14502,"mpo":14503,"Ġsan":14504,"Ġslot":14505,"celer":14506,"Ġbio":14507,"Ġdefect":14508,"Ġreached":14509,"sil":14510,"Ġ(*)":14511,"unsigned":14512,"lapping":14513,"Ġwhe":14514,"Ġ113":14515,"idna":14516,"thickness":14517,"macosx":14518,"sscripts":14519,"ĠTLS":14520,"isatty":14521,"ĠShe":14522,"Ġhad":14523,"Ġhits":14524,"Ġxrange":14525,"aming":14526,"ĠPG":14527,"Ġpara":14528,"osmos":14529,"Ġprox":14530,"ĠMA":14531,"mbc":14532,"Ġyes":14533,"**:":14534,"ĠEF":14535,"ĠExt":14536,"ggy":14537,"Ġunused":14538,"APE":14539,"Ġ\"<|":14540,"registered":14541,"ĠRecur":14542,"((((":14543,"intern":14544,"Expr":14545,"038":14546,"renderer":14547,"ĠInte":14548,"Ġoptionally":14549,"Delegator":14550,"Second":14551,"Distance":14552,"LOY":14553,"IDS":14554,"Unpack":14555,"Ġleave":14556,"creasing":14557,"marker":14558,"modality":14559,"sigint":14560,"Ġsubject":14561,"Ġurlparse":14562,"notab":14563,"Pyston":14564,"otherword":14565,"tagName":14566,"paramname":14567,"RESULT":14568,"loggers":14569,"xDB":14570,"xDD":14571,"Ġlibregrtest":14572,
[...]
